<unk>	0
<s>	0
</s>	0
▁t	-0
an	-1
le	-2
▁n	-3
in	-4
▁k	-5
is	-6
he	-7
▁s	-8
la	-9
on	-10
wa	-11
en	-12
▁m	-13
▁h	-14
ti	-15
▁a	-16
ka	-17
▁ku	-18
▁v	-19
▁y	-20
re	-21
wi	-22
▁the	-23
er	-24
lo	-25
ha	-26
▁o	-27
▁e	-28
▁le	-29
▁p	-30
ri	-31
▁f	-32
▁x	-33
▁b	-34
▁c	-35
mb	-36
▁na	-37
un	-38
or	-39
es	-40
▁w	-41
▁ya	-42
te	-43
▁hi	-44
al	-45
and	-46
▁to	-47
▁of	-48
ing	-49
om	-50
ga	-51
▁swi	-52
▁ti	-53
tion	-54
rh	-55
▁wa	-56
▁ma	-57
ko	-58
ke	-59
▁in	-60
▁va	-61
ana	-62
ts	-63
▁xi	-64
▁T	-65
▁d	-66
ve	-67
ou	-68
dz	-69
▁eka	-70
ro	-71
yi	-72
▁ta	-73
▁ka	-74
li	-75
ra	-76
ku	-77
▁and	-78
▁is	-79
▁i	-80
▁I	-81
▁re	-82
▁nga	-83
▁ha	-84
▁vu	-85
ta	-86
ele	-87
isa	-88
ed	-89
▁A	-90
ho	-91
ent	-92
▁les	-93
wu	-94
▁N	-95
▁be	-96
isi	-97
▁S	-98
si	-99
um	-100
ar	-101
▁M	-102
lu	-103
▁en	-104
hat	-105
▁la	-106
hi	-107
▁H	-108
us	-109
mbe	-110
ang	-111
ona	-112
va	-113
th	-114
ce	-115
ma	-116
▁sw	-117
ll	-118
▁ri	-119
ki	-120
▁lo	-121
it	-122
ec	-123
▁th	-124
▁xa	-125
▁wi	-126
ya	-127
▁K	-128
▁swa	-129
rhi	-130
eri	-131
ge	-132
▁for	-133
hu	-134
▁pro	-135
se	-136
▁The	-137
▁no	-138
vi	-139
ment	-140
ci	-141
▁yi	-142
we	-143
ly	-144
▁g	-145
▁fan	-146
▁that	-147
▁C	-148
dzi	-149
me	-150
ut	-151
▁leswi	-152
ur	-153
▁mi	-154
wana	-155
mp	-156
▁are	-157
▁L	-158
xi	-159
▁W	-160
▁we	-161
gu	-162
▁P	-163
▁on	-164
ano	-165
▁end	-166
ation	-167
▁fanele	-168
elo	-169
ld	-170
st	-171
▁V	-172
▁l	-173
▁an	-174
waku	-175
ong	-176
▁this	-177
iso	-178
▁leyi	-179
▁con	-180
pp	-181
▁he	-182
ter	-183
ani	-184
hla	-185
▁X	-186
▁leswaku	-187
eni	-188
▁su	-189
ver	-190
mu	-191
▁hin	-192
tirh	-193
▁com	-194
▁ra	-195
ch	-196
▁ts	-197
▁u	-198
ungu	-199
wo	-200
de	-201
ted	-202
et	-203
xa	-204
lela	-205
▁de	-206
fi	-207
▁yo	-208
▁you	-209
▁Hi	-210
▁as	-211
ort	-212
ela	-213
ct	-214
▁not	-215
▁bya	-216
kwa	-217
fum	-218
▁D	-219
▁Ku	-220
▁or	-221
▁1	-222
mo	-223
op	-224
▁will	-225
▁have	-226
as	-227
▁E	-228
ers	-229
▁R	-230
hle	-231
isiwa	-232
haka	-233
▁2	-234
▁wu	-235
di	-236
▁with	-237
ust	-238
karhi	-239
qu	-240
▁po	-241
ble	-242
ces	-243
▁ndzi	-244
vu	-245
ene	-246
ca	-247
▁lava	-248
▁by	-249
ini	-250
fri	-251
men	-252
undz	-253
hen	-254
▁r	-255
▁ko	-256
gh	-257
ir	-258
mba	-259
to	-260
omi	-261
any	-262
res	-263
▁lowu	-264
▁ne	-265
▁swin	-266
▁(	-267
lang	-268
▁mu	-269
her	-270
weni	-271
▁tin	-272
ould	-273
tirho	-274
andz	-275
ity	-276
▁it	-277
▁ac	-278
oko	-279
▁kumbe	-280
▁Afri	-281
▁do	-282
pa	-283
ol	-284
lic	-285
▁van	-286
mi	-287
▁fa	-288
ise	-289
▁un	-290
▁B	-291
▁se	-292
▁We	-293
▁me	-294
su	-295
▁nd	-296
end	-297
▁F	-298
▁Xi	-299
▁Ma	-300
▁si	-301
▁wo	-302
▁Th	-303
ena	-304
mbi	-305
▁imp	-306
oun	-307
▁must	-308
ore	-309
fu	-310
▁lexi	-311
ther	-312
▁al	-313
▁go	-314
ty	-315
▁endla	-316
▁fi	-317
kulu	-318
▁hinkwa	-319
▁hum	-320
▁te	-321
ali	-322
ant	-323
▁ex	-324
▁mati	-325
▁hla	-326
eswi	-327
▁This	-328
▁Swi	-329
kela	-330
lelo	-331
len	-332
▁comm	-333
▁min	-334
tu	-335
so	-336
koka	-337
▁nkarhi	-338
tions	-339
▁has	-340
▁In	-341
▁app	-342
▁sa	-343
▁nyi	-344
▁at	-345
uni	-346
rom	-347
hawu	-348
▁nkoka	-349
▁20	-350
▁par	-351
▁It	-352
our	-353
eriwa	-354
el	-355
fumo	-356
weke	-357
▁can	-358
▁tirh	-359
tive	-360
▁wor	-361
▁tim	-362
fa	-363
velo	-364
dza	-365
▁li	-366
▁di	-367
pi	-368
ist	-369
▁vona	-370
yo	-371
▁swo	-372
▁Ndzi	-373
▁may	-374
▁vanhu	-375
ect	-376
▁hina	-377
du	-378
▁Vu	-379
cal	-380
rd	-381
for	-382
vo	-383
▁ni	-384
▁so	-385
▁ng	-386
▁swinene	-387
yon	-388
ome	-389
sp	-390
cip	-391
▁nts	-392
▁Ti	-393
ad	-394
yen	-395
rhe	-396
ak	-397
▁vula	-398
ow	-399
wile	-400
▁us	-401
▁landz	-402
▁loko	-403
tl	-404
▁O	-405
ties	-406
anga	-407
▁mhaka	-408
riwa	-409
der	-410
▁need	-411
wona	-412
▁sh	-413
ate	-414
ind	-415
▁ema	-416
at	-417
▁all	-418
mbis	-419
xaka	-420
elela	-421
▁ro	-422
▁our	-423
lula	-424
▁leti	-425
▁there	-426
od	-427
ongom	-428
▁from	-429
cial	-430
han	-431
ulu	-432
yimo	-433
tano	-434
tela	-435
▁ab	-436
fun	-437
▁G	-438
ry	-439
▁leri	-440
▁lang	-441
hon	-442
▁sta	-443
▁tl	-444
ff	-445
▁pa	-446
▁should	-447
▁ad	-448
sa	-449
velop	-450
▁st	-451
▁ndlela	-452
▁Y	-453
▁nh	-454
cess	-455
▁comp	-456
low	-457
▁rep	-458
ys	-459
red	-460
onga	-461
ance	-462
▁work	-463
po	-464
ms	-465
les	-466
▁kona	-467
sion	-468
ub	-469
▁been	-470
outh	-471
ven	-472
▁laha	-473
lweni	-474
ula	-475
▁qu	-476
ru	-477
▁also	-478
▁inc	-479
tsh	-480
▁ca	-481
den	-482
keri	-483
ervi	-484
▁xo	-485
▁vi	-486
▁Leswi	-487
out	-488
ves	-489
▁ntirho	-490
ess	-491
mbelo	-492
ear	-493
▁South	-494
kiwa	-495
umb	-496
▁3	-497
▁coun	-498
▁tala	-499
▁whi	-500
▁ve	-501
lan	-502
▁sungu	-503
▁was	-504
▁mo	-505
yenge	-506
▁kahle	-507
ongo	-508
▁endli	-509
ina	-510
▁mfumo	-511
▁U	-512
▁Va	-513
hlweni	-514
▁-	-515
laho	-516
luvu	-517
yis	-518
eswo	-519
▁tir	-520
ting	-521
vern	-522
anihi	-523
▁swona	-524
gn	-525
▁your	-526
leni	-527
▁xiko	-528
andla	-529
zonga	-530
eke	-531
mbirhi	-532
▁cont	-533
pala	-534
▁ho	-535
▁nas	-536
gra	-537
▁tsa	-538
▁De	-539
▁emahlweni	-540
▁Com	-541
▁bo	-542
bi	-543
▁tlhe	-544
mbana	-545
▁mp	-546
ine	-547
▁naswona	-548
▁j	-549
▁pe	-550
▁Ha	-551
▁That	-552
tsa	-553
▁which	-554
ublic	-555
ree	-556
kwalaho	-557
ons	-558
ck	-559
phe	-560
mit	-561
pport	-562
ments	-563
ght	-564
go	-565
▁per	-566
xo	-567
gi	-568
ure	-569
tic	-570
▁nyika	-571
▁xiyimo	-572
▁wena	-573
hlang	-574
▁vuk	-575
▁Loko	-576
ous	-577
byi	-578
id	-579
▁Afrika	-580
▁vo	-581
▁import	-582
fic	-583
▁other	-584
▁develop	-585
sipala	-586
▁200	-587
▁sp	-588
luvuk	-589
▁pfum	-590
▁xin	-591
undzu	-592
vernment	-593
ople	-594
▁Mi	-595
ction	-596
▁co	-597
ul	-598
▁servi	-599
▁their	-600
▁rh	-601
▁nghen	-602
unicip	-603
unity	-604
ence	-605
rou	-606
kaka	-607
▁more	-608
▁exp	-609
▁ring	-610
leri	-611
hleke	-612
unhu	-613
▁issu	-614
▁nhla	-615
▁resp	-616
▁would	-617
▁tanihi	-618
▁sungula	-619
▁yin	-620
▁tirha	-621
▁Na	-622
▁year	-623
▁faneleke	-624
▁they	-625
elana	-626
ard	-627
bo	-628
▁19	-629
▁Ndza	-630
▁amu	-631
▁about	-632
orho	-633
▁these	-634
ran	-635
kongom	-636
ollow	-637
▁fike	-638
yondz	-639
▁people	-640
tshwa	-641
omiti	-642
▁byi	-643
za	-644
tirhi	-645
▁lama	-646
und	-647
lawu	-648
▁karhi	-649
▁vuti	-650
aki	-651
elaka	-652
▁follow	-653
▁cha	-654
▁what	-655
rho	-656
kelo	-657
▁cin	-658
ally	-659
huro	-660
▁mitirho	-661
ary	-662
ved	-663
titu	-664
mis	-665
..	-666
▁sub	-667
int	-668
▁Re	-669
ress	-670
ality	-671
tsongo	-672
▁requ	-673
one	-674
▁any	-675
orhokeri	-676
wulo	-677
▁kuma	-678
ational	-679
hlo	-680
anisa	-681
xoko	-682
▁hambana	-683
bu	-684
tter	-685
▁Africa	-686
▁ag	-687
▁Xana	-688
▁Le	-689
▁who	-690
▁one	-691
ery	-692
▁hundz	-693
▁xiv	-694
▁plan	-695
indz	-696
DP	-697
▁dis	-698
▁Ho	-699
▁pre	-700
xe	-701
ye	-702
fore	-703
▁humelela	-704
▁Ri	-705
gis	-706
▁nt	-707
anelo	-708
kweni	-709
▁An	-710
phi	-711
▁There	-712
▁mayelana	-713
luvukiso	-714
gele	-715
▁tshe	-716
eto	-717
▁langut	-718
▁count	-719
▁kun	-720
telo	-721
isano	-722
tional	-723
▁timhaka	-724
▁tind	-725
art	-726
duc	-727
mus	-728
ingi	-729
▁time	-730
wiri	-731
fundz	-732
indhawu	-733
can	-734
kongomelo	-735
▁teka	-736
▁tiko	-737
▁Sw	-738
con	-739
▁katsa	-740
▁very	-741
min	-742
▁Eka	-743
▁process	-744
▁important	-745
bili	-746
▁4	-747
▁ants	-748
▁sec	-749
ink	-750
mbiswiri	-751
cy	-752
tifi	-753
andle	-754
▁kh	-755
mbiswiritano	-756
▁public	-757
ew	-758
▁pers	-759
▁/	-760
00	-761
mation	-762
▁landzelaka	-763
mplo	-764
▁provi	-765
tation	-766
▁infor	-767
▁Pro	-768
▁make	-769
▁inclu	-770
▁under	-771
▁ndz	-772
▁tiyis	-773
viko	-774
isava	-775
▁some	-776
▁ba	-777
eci	-778
cil	-779
▁tra	-780
kan	-781
▁out	-782
akindhawu	-783
rity	-784
ning	-785
▁bu	-786
lawa	-787
tain	-788
▁lebyi	-789
zi	-790
pe	-791
▁kambe	-792
▁"	-793
▁lula	-794
kokwalaho	-795
ach	-796
▁IDP	-797
angu	-798
▁201	-799
▁commit	-800
▁hak	-801
▁report	-802
hlen	-803
▁like	-804
▁Ka	-805
▁African	-806
▁pla	-807
▁xikombelo	-808
yiso	-809
▁government	-810
▁municip	-811
hany	-812
▁ques	-813
da	-814
▁support	-815
▁sweswo	-816
▁tirhisa	-817
ges	-818
no	-819
▁da	-820
▁sweswi	-821
▁ward	-822
▁community	-823
jec	-824
wan	-825
▁vukorhokeri	-826
▁Mu	-827
▁pfun	-828
ave	-829
▁endliwa	-830
wer	-831
king	-832
hungu	-833
phemu	-834
▁loyi	-835
tsha	-836
▁am	-837
il	-838
ding	-839
khon	-840
▁fana	-841
lana	-842
get	-843
▁its	-844
jeke	-845
leka	-846
▁pri	-847
cus	-848
fer	-849
▁If	-850
ba	-851
lembe	-852
▁vaakindhawu	-853
▁tlhela	-854
per	-855
fanelo	-856
▁ntsena	-857
part	-858
yelo	-859
▁seke	-860
indzu	-861
hlengele	-862
▁mina	-863
▁munhu	-864
gram	-865
▁tsakela	-866
▁than	-867
▁Hambiswiritano	-868
▁suka	-869
now	-870
resi	-871
▁As	-872
▁CB	-873
yondzo	-874
▁nti	-875
angi	-876
umbulu	-877
haku	-878
▁cinca	-879
ject	-880
▁khu	-881
hlamu	-882
ish	-883
▁yona	-884
ings	-885
▁ob	-886
▁development	-887
▁dec	-888
wever	-889
▁acc	-890
khonomi	-891
utiso	-892
▁nawu	-893
kile	-894
▁mali	-895
▁memb	-896
▁respon	-897
est	-898
▁them	-899
▁CBP	-900
▁gi	-901
▁rec	-902
▁Nawu	-903
▁requi	-904
phiq	-905
▁following	-906
tee	-907
alth	-908
wn	-909
▁man	-910
▁En	-911
boho	-912
led	-913
endlelo	-914
ue	-915
hlengeletano	-916
▁new	-917
▁vaaki	-918
▁inter	-919
man	-920
▁loku	-921
▁prov	-922
here	-923
swo	-924
eve	-925
▁hlang	-926
ps	-927
▁appro	-928
phiqo	-929
▁lembe	-930
lication	-931
mbisi	-932
▁swiv	-933
mbisa	-934
▁tumbulu	-935
▁5	-936
▁mav	-937
▁if	-938
▁part	-939
▁xiyenge	-940
▁tik	-941
opfu	-942
liti	-943
▁ke	-944
teri	-945
▁vatirhi	-946
oni	-947
▁yini	-948
hurojeke	-949
tor	-950
▁199	-951
▁langu	-952
gain	-953
▁tsha	-954
mbiso	-955
▁such	-956
rate	-957
mende	-958
all	-959
▁exi	-960
hol	-961
▁information	-962
lob	-963
yste	-964
▁Dzonga	-965
▁ter	-966
▁ehleke	-967
leke	-968
▁two	-969
▁up	-970
ving	-971
▁matiko	-972
▁byo	-973
rhu	-974
▁proble	-975
ganga	-976
ten	-977
ries	-978
▁person	-979
▁malembe	-980
▁mb	-981
nhla	-982
▁chi	-983
▁tho	-984
ration	-985
▁hlay	-986
fe	-987
ded	-988
▁econ	-989
▁tano	-990
▁timali	-991
valeni	-992
▁What	-993
▁kongom	-994
▁nk	-995
▁vut	-996
very	-997
▁Pa	-998
▁matimba	-999
▁es	-1000
▁sc	-1001
▁mar	-1002
▁Act	-1003
ingiri	-1004
ab	-1005
▁masipala	-1006
▁know	-1007
ced	-1008
mbo	-1009
▁For	-1010
irst	-1011
▁wun	-1012
▁tiyisisa	-1013
Dzonga	-1014
▁fin	-1015
rea	-1016
wis	-1017
ision	-1018
▁tip	-1019
tirhisiwa	-1020
lave	-1021
▁tran	-1022
▁take	-1023
▁misava	-1024
uvo	-1025
▁tirhisiwa	-1026
▁henhla	-1027
▁emplo	-1028
▁lave	-1029
ren	-1030
▁nka	-1031
▁kota	-1032
iti	-1033
laveko	-1034
▁conc	-1035
ob	-1036
▁cour	-1037
▁ikhonomi	-1038
lation	-1039
▁hlawu	-1040
▁nge	-1041
risa	-1042
ens	-1043
▁fikelela	-1044
edi	-1045
▁vus	-1046
▁hinkwaswo	-1047
▁but	-1048
bility	-1049
misa	-1050
▁vun	-1051
▁tlula	-1052
mbiwa	-1053
▁kha	-1054
form	-1055
▁endz	-1056
▁mpi	-1057
hang	-1058
gy	-1059
▁mas	-1060
▁numb	-1061
harhu	-1062
▁sha	-1063
▁meet	-1064
▁han	-1065
▁seketela	-1066
▁think	-1067
stitu	-1068
thing	-1069
▁fo	-1070
ongon	-1071
eta	-1072
vis	-1073
▁made	-1074
ingiriko	-1075
▁res	-1076
▁Hikokwalaho	-1077
▁xiviko	-1078
angelo	-1079
ations	-1080
▁cer	-1081
▁service	-1082
kisi	-1083
▁ndhawu	-1084
ji	-1085
▁child	-1086
▁country	-1087
als	-1088
sible	-1089
▁6	-1090
▁No	-1091
▁syste	-1092
▁mit	-1093
▁hava	-1094
▁milawu	-1095
ongonoko	-1096
▁program	-1097
iseka	-1098
▁parti	-1099
lemen	-1100
sure	-1101
hlamuleri	-1102
▁nhluvukiso	-1103
laku	-1104
▁Min	-1105
partment	-1106
hlangano	-1107
▁antsw	-1108
▁ass	-1109
▁tiva	-1110
▁enge	-1111
rhelo	-1112
▁again	-1113
▁maendlelo	-1114
wini	-1115
▁matter	-1116
sul	-1117
▁ele	-1118
tiwa	-1119
▁pfuna	-1120
▁question	-1121
llen	-1122
ffer	-1123
rhela	-1124
▁fe	-1125
ased	-1126
ond	-1127
▁ehleketa	-1128
▁chang	-1129
▁contin	-1130
hy	-1131
▁inte	-1132
▁number	-1133
▁form	-1134
wiko	-1135
▁hinkwayo	-1136
▁They	-1137
).	-1138
xini	-1139
▁mon	-1140
lear	-1141
▁eku	-1142
▁over	-1143
ruct	-1144
▁To	-1145
▁now	-1146
rile	-1147
pos	-1148
▁only	-1149
ok	-1150
▁eff	-1151
mend	-1152
ety	-1153
fambis	-1154
kambe	-1155
rin	-1156
keriwa	-1157
▁vutihlamuleri	-1158
▁So	-1159
▁services	-1160
▁yena	-1161
▁offi	-1162
ector	-1163
▁my	-1164
anyeto	-1165
▁endlelo	-1166
▁Presi	-1167
tara	-1168
▁pfumele	-1169
onelo	-1170
▁ndza	-1171
▁were	-1172
vel	-1173
ric	-1174
▁into	-1175
wadi	-1176
▁grou	-1177
▁rihany	-1178
tiko	-1179
weti	-1180
▁rixaka	-1181
cep	-1182
▁exikarhi	-1183
▁kan	-1184
ni	-1185
ener	-1186
▁speci	-1187
laha	-1188
▁tshemba	-1189
▁swilo	-1190
▁want	-1191
▁health	-1192
▁Par	-1193
▁say	-1194
▁mahungu	-1195
▁National	-1196
ungulo	-1197
▁issue	-1198
wikoti	-1199
melo	-1200
▁kho	-1201
▁good	-1202
▁Go	-1203
omo	-1204
▁vho	-1205
holisi	-1206
▁kungu	-1207
▁het	-1208
ctor	-1209
▁cri	-1210
▁wona	-1211
▁olo	-1212
▁rin	-1213
esi	-1214
hansi	-1215
▁xiphemu	-1216
uring	-1217
▁xiave	-1218
ised	-1219
▁impro	-1220
▁years	-1221
▁see	-1222
▁differ	-1223
▁Sweswo	-1224
▁ntiyiso	-1225
▁lawa	-1226
ung	-1227
ents	-1228
▁mana	-1229
▁Kambe	-1230
▁handle	-1231
▁fika	-1232
▁well	-1233
▁af	-1234
▁Commit	-1235
reat	-1236
▁pres	-1237
tes	-1238
omic	-1239
gement	-1240
▁sime	-1241
dya	-1242
vela	-1243
▁right	-1244
▁switirhisiwa	-1245
▁kume	-1246
pha	-1247
not	-1248
▁way	-1249
▁La	-1250
ord	-1251
▁provin	-1252
tlha	-1253
▁exa	-1254
xokoxoko	-1255
▁therefore	-1256
ural	-1257
ron	-1258
▁7	-1259
▁These	-1260
vula	-1261
row	-1262
▁state	-1263
▁achi	-1264
ks	-1265
▁swiko	-1266
ac	-1267
ture	-1268
▁op	-1269
▁humele	-1270
▁members	-1271
▁application	-1272
cum	-1273
▁cannot	-1274
▁comple	-1275
▁Tim	-1276
musela	-1277
leriwa	-1278
AN	-1279
▁where	-1280
dent	-1281
licy	-1282
ans	-1283
fambiselo	-1284
▁use	-1285
ghts	-1286
▁Van	-1287
▁first	-1288
cate	-1289
▁You	-1290
▁ehansi	-1291
▁tshama	-1292
tives	-1293
elelo	-1294
▁tlaku	-1295
▁how	-1296
rhang	-1297
ures	-1298
▁local	-1299
meri	-1300
omen	-1301
mun	-1302
▁point	-1303
aka	-1304
ler	-1305
hakelo	-1306
▁clear	-1307
iness	-1308
uation	-1309
tiv	-1310
▁sit	-1311
▁reas	-1312
▁However	-1313
ament	-1314
▁agree	-1315
▁needs	-1316
im	-1317
▁hinkwavo	-1318
wanano	-1319
hip	-1320
mela	-1321
▁Ndzawulo	-1322
▁masungulo	-1323
hed	-1324
tsi	-1325
use	-1326
▁He	-1327
unene	-1328
▁hete	-1329
come	-1330
▁wadi	-1331
▁swirho	-1332
▁endzhaku	-1333
▁legis	-1334
ward	-1335
▁issues	-1336
▁communi	-1337
▁SA	-1338
▁system	-1339
▁national	-1340
▁xim	-1341
ph	-1342
▁But	-1343
langi	-1344
▁pas	-1345
▁does	-1346
▁On	-1347
usiness	-1348
▁sector	-1349
▁mani	-1350
▁ar	-1351
▁mak	-1352
▁sti	-1353
yment	-1354
▁beli	-1355
fy	-1356
ankulu	-1357
▁pha	-1358
▁many	-1359
▁bi	-1360
▁dire	-1361
▁social	-1362
SA	-1363
frika	-1364
▁vuswikoti	-1365
ining	-1366
mission	-1367
rough	-1368
ducation	-1369
tivi	-1370
lamende	-1371
▁add	-1372
mbela	-1373
▁done	-1374
▁Mfumo	-1375
▁ensure	-1376
▁nyikiwa	-1377
xt	-1378
cili	-1379
rasi	-1380
twe	-1381
▁council	-1382
hlay	-1383
▁tak	-1384
ful	-1385
▁dyondzo	-1386
▁hinkwawo	-1387
visa	-1388
▁project	-1389
▁Coun	-1390
hani	-1391
teme	-1392
tshala	-1393
000	-1394
▁xiboho	-1395
▁Lexi	-1396
▁rela	-1397
tlho	-1398
▁Develop	-1399
.1	-1400
▁challen	-1401
denti	-1402
ring	-1403
▁amukela	-1404
▁vuy	-1405
▁Ward	-1406
▁Kha	-1407
ular	-1408
▁pfu	-1409
▁ngopfu	-1410
sen	-1411
hlawu	-1412
rimi	-1413
tees	-1414
mbu	-1415
▁much	-1416
mple	-1417
▁consi	-1418
olo	-1419
ners	-1420
▁mpfum	-1421
TI	-1422
▁policy	-1423
▁vile	-1424
gist	-1425
▁terms	-1426
▁xona	-1427
▁siku	-1428
▁pos	-1429
▁here	-1430
▁tindhawu	-1431
erile	-1432
▁matirhelo	-1433
▁enhlo	-1434
▁nj	-1435
▁yisa	-1436
▁enhlokweni	-1437
hensa	-1438
▁problem	-1439
cha	-1440
ection	-1441
ffi	-1442
fhu	-1443
rac	-1444
▁happ	-1445
▁set	-1446
mes	-1447
hek	-1448
gard	-1449
seke	-1450
▁cons	-1451
▁propos	-1452
▁believe	-1453
umu	-1454
▁implemen	-1455
▁Con	-1456
▁Council	-1457
fisi	-1458
▁case	-1459
▁HI	-1460
bindzu	-1461
ehleke	-1462
▁place	-1463
iseki	-1464
▁through	-1465
tab	-1466
▁landza	-1467
▁10	-1468
ern	-1469
oro	-1470
dy	-1471
▁eri	-1472
▁inf	-1473
▁vana	-1474
xiwa	-1475
ective	-1476
able	-1477
ense	-1478
▁xifundz	-1479
▁repres	-1480
▁antswisa	-1481
▁Department	-1482
▁'	-1483
▁being	-1484
▁fund	-1485
▁hetelela	-1486
helo	-1487
▁indi	-1488
▁swilaveko	-1489
hiki	-1490
▁org	-1491
tween	-1492
▁between	-1493
▁ringana	-1494
▁municipality	-1495
cra	-1496
tice	-1497
▁Rixaka	-1498
▁nhlang	-1499
▁against	-1500
▁three	-1501
▁her	-1502
▁discus	-1503
▁deli	-1504
▁twis	-1505
▁vuxokoxoko	-1506
henhla	-1507
▁long	-1508
dente	-1509
▁Nh	-1510
kiweke	-1511
▁level	-1512
▁nakambe	-1513
▁business	-1514
▁far	-1515
▁hel	-1516
▁pi	-1517
Afrika	-1518
table	-1519
tani	-1520
chumu	-1521
▁erivaleni	-1522
▁Cons	-1523
▁said	-1524
tern	-1525
▁sus	-1526
hontlho	-1527
▁laveka	-1528
▁hansi	-1529
ild	-1530
▁each	-1531
▁hungu	-1532
▁economic	-1533
uro	-1534
ticular	-1535
▁different	-1536
inga	-1537
ister	-1538
▁when	-1539
utho	-1540
▁inves	-1541
▁regard	-1542
ual	-1543
anisi	-1544
▁Development	-1545
▁own	-1546
▁resul	-1547
des	-1548
▁Xiko	-1549
▁hakona	-1550
▁engetela	-1551
....	-1552
ough	-1553
▁xikongomelo	-1554
▁tiwadi	-1555
isiteme	-1556
▁tindlela	-1557
ss	-1558
lobye	-1559
▁programme	-1560
ged	-1561
▁Huvo	-1562
▁8	-1563
sirhe	-1564
▁kombisa	-1565
jects	-1566
▁opport	-1567
▁xiphiqo	-1568
▁inv	-1569
▁docum	-1570
▁water	-1571
com	-1572
▁000	-1573
▁particular	-1574
▁mpimo	-1575
▁khensa	-1576
van	-1577
mocra	-1578
inete	-1579
cri	-1580
ency	-1581
▁anga	-1582
▁cor	-1583
▁kutani	-1584
hom	-1585
▁within	-1586
▁area	-1587
▁Wa	-1588
hool	-1589
▁women	-1590
isana	-1591
▁sign	-1592
▁address	-1593
▁suc	-1594
▁still	-1595
ult	-1596
▁tiy	-1597
▁used	-1598
▁tumbuluxa	-1599
▁role	-1600
▁institu	-1601
▁kombela	-1602
by	-1603
teka	-1604
age	-1605
▁committee	-1606
tabl	-1607
ope	-1608
buyelo	-1609
▁gu	-1610
tikweni	-1611
▁nhlayo	-1612
ech	-1613
ources	-1614
▁fambe	-1615
▁particip	-1616
tend	-1617
▁fu	-1618
irhe	-1619
itiz	-1620
▁finan	-1621
litical	-1622
▁situation	-1623
▁concern	-1624
▁same	-1625
▁rights	-1626
urn	-1627
▁perform	-1628
▁help	-1629
▁prom	-1630
▁objec	-1631
▁mafambiselo	-1632
ory	-1633
tial	-1634
▁Parli	-1635
▁khom	-1636
▁Vumbiwa	-1637
▁his	-1638
gress	-1639
▁Constitu	-1640
▁swiyenge	-1641
urther	-1642
viron	-1643
▁lear	-1644
▁phurojeke	-1645
▁regu	-1646
lution	-1647
▁hilaha	-1648
▁Ex	-1649
lain	-1650
ribu	-1651
▁ehenhla	-1652
▁Palamende	-1653
pu	-1654
▁regis	-1655
▁mavonelo	-1656
gingiriko	-1657
▁lulamisa	-1658
▁0	-1659
rest	-1660
▁9	-1661
ctions	-1662
▁vulavula	-1663
cei	-1664
▁areas	-1665
▁nhlengeletano	-1666
▁lavaka	-1667
▁prote	-1668
▁improve	-1669
vironment	-1670
fung	-1671
▁meas	-1672
▁course	-1673
▁Lo	-1674
▁grow	-1675
▁medi	-1676
▁invol	-1677
▁tika	-1678
▁And	-1679
alwa	-1680
hato	-1681
sel	-1682
hold	-1683
▁Sta	-1684
▁kwa	-1685
▁most	-1686
EL	-1687
cc	-1688
day	-1689
▁ntlawa	-1690
▁bud	-1691
▁accoun	-1692
reme	-1693
▁nec	-1694
muntlha	-1695
▁why	-1696
onkulu	-1697
▁job	-1698
▁planning	-1699
▁Di	-1700
siku	-1701
venga	-1702
▁prin	-1703
vha	-1704
yana	-1705
▁Komiti	-1706
▁equ	-1707
gevenga	-1708
▁apply	-1709
▁supp	-1710
read	-1711
▁key	-1712
▁include	-1713
eka	-1714
▁1.	-1715
▁Servi	-1716
▁meeting	-1717
▁change	-1718
kom	-1719
▁leha	-1720
▁taken	-1721
▁just	-1722
▁swiyimo	-1723
▁Xo	-1724
▁fun	-1725
isaka	-1726
seketelo	-1727
andzu	-1728
vabyi	-1729
manana	-1730
▁provide	-1731
▁responsi	-1732
▁posi	-1733
▁those	-1734
isiwile	-1735
▁get	-1736
▁tlhelo	-1737
▁strate	-1738
▁continue	-1739
▁Committee	-1740
wor	-1741
▁marke	-1742
▁refer	-1743
▁before	-1744
▁citiz	-1745
▁month	-1746
▁certifi	-1747
▁Parliament	-1748
▁poli	-1749
riweke	-1750
▁action	-1751
▁progress	-1752
ecu	-1753
wina	-1754
▁political	-1755
▁rhum	-1756
▁could	-1757
▁nchumu	-1758
▁high	-1759
▁democra	-1760
hweti	-1761
▁prio	-1762
▁shall	-1763
▁law	-1764
▁endlaka	-1765
▁Nhluvukiso	-1766
ructure	-1767
▁angarhela	-1768
▁Let	-1769
▁Minister	-1770
ouse	-1771
loko	-1772
▁muganga	-1773
mula	-1774
▁yihi	-1775
▁sirhe	-1776
▁establ	-1777
▁HIV	-1778
▁rele	-1779
▁timfanelo	-1780
reed	-1781
hatla	-1782
inet	-1783
▁school	-1784
▁vutomi	-1785
ill	-1786
yimeri	-1787
eneral	-1788
ris	-1789
▁val	-1790
homi	-1791
▁intern	-1792
▁famba	-1793
ehleketo	-1794
▁Hla	-1795
▁huma	-1796
▁tipo	-1797
▁tiyi	-1798
▁recei	-1799
manyeto	-1800
▁lead	-1801
elangi	-1802
▁xivutiso	-1803
holo	-1804
unguhato	-1805
▁main	-1806
val	-1807
▁deb	-1808
▁men	-1809
▁lawu	-1810
essary	-1811
litiki	-1812
▁education	-1813
hun	-1814
rge	-1815
▁bas	-1816
▁vote	-1817
ism	-1818
▁required	-1819
▁xihatla	-1820
▁countries	-1821
EN	-1822
▁give	-1823
▁order	-1824
▁Municip	-1825
laka	-1826
▁Nas	-1827
ito	-1828
▁Mo	-1829
▁ava	-1830
▁too	-1831
▁App	-1832
▁wihi	-1833
ON	-1834
ast	-1835
sed	-1836
ase	-1837
view	-1838
tirhis	-1839
▁every	-1840
▁Po	-1841
▁ste	-1842
▁projects	-1843
utani	-1844
▁stand	-1845
binete	-1846
▁rihanyu	-1847
dust	-1848
lar	-1849
▁ge	-1850
▁Cab	-1851
▁vumbirhi	-1852
▁khale	-1853
▁ntwanano	-1854
▁build	-1855
demo	-1856
▁after	-1857
▁hundza	-1858
▁Tik	-1859
tical	-1860
▁access	-1861
▁Naswona	-1862
pend	-1863
▁princip	-1864
kaya	-1865
leteri	-1866
▁bindzu	-1867
▁facili	-1868
orisa	-1869
▁Vanhu	-1870
▁amend	-1871
anisiwa	-1872
▁Cabinet	-1873
▁implementation	-1874
▁Kutani	-1875
▁Constitution	-1876
ila	-1877
leswo	-1878
▁financial	-1879
vany	-1880
▁had	-1881
tirhisano	-1882
ep	-1883
isela	-1884
▁consider	-1885
▁Khabinete	-1886
▁migingiriko	-1887
▁require	-1888
▁President	-1889
▁Tin	-1890
kudya	-1891
▁necessary	-1892
stand	-1893
kelelo	-1894
▁mpfumelelo	-1895
▁nghenelela	-1896
werhu	-1897
▁swivutiso	-1898
▁mfanelo	-1899
▁kumeka	-1900
wuri	-1901
ign	-1902
rhangeri	-1903
ud	-1904
hlayiseki	-1905
▁happen	-1906
▁komiti	-1907
▁ans	-1908
▁further	-1909
▁achieve	-1910
▁pholisi	-1911
▁nseketelo	-1912
▁success	-1913
▁12	-1914
lowo	-1915
▁legislation	-1916
tivities	-1917
▁swakudya	-1918
sive	-1919
▁then	-1920
▁children	-1921
tle	-1922
ected	-1923
win	-1924
▁miehleketo	-1925
▁spe	-1926
▁trans	-1927
▁goza	-1928
▁swikongomelo	-1929
▁antswa	-1930
ffic	-1931
▁care	-1932
▁act	-1933
▁nhlangano	-1934
engo	-1935
▁soci	-1936
▁availa	-1937
▁mabindzu	-1938
▁possible	-1939
eti	-1940
ked	-1941
honi	-1942
▁deal	-1943
cation	-1944
▁xivangelo	-1945
▁mil	-1946
▁bene	-1947
fambisi	-1948
▁management	-1949
▁pur	-1950
▁promo	-1951
▁mbuyelo	-1952
vhe	-1953
▁All	-1954
▁fanela	-1955
▁Un	-1956
ints	-1957
▁col	-1958
▁ringan	-1959
▁eAfrika	-1960
ants	-1961
tary	-1962
fhumba	-1963
ner	-1964
▁full	-1965
▁environment	-1966
▁3.	-1967
gin	-1968
ft	-1969
ently	-1970
▁fambelana	-1971
▁ener	-1972
▁swiphiqo	-1973
ef	-1974
▁Bo	-1975
▁rema	-1976
▁group	-1977
▁human	-1978
▁transp	-1979
▁Commission	-1980
▁Government	-1981
▁activities	-1982
▁non	-1983
▁hope	-1984
cted	-1985
yoni	-1986
IN	-1987
▁nto	-1988
hlayo	-1989
isisa	-1990
uture	-1991
gether	-1992
▁section	-1993
▁something	-1994
▁landzele	-1995
pri	-1996
▁ga	-1997
ound	-1998
▁means	-1999
▁pfuma	-2000
▁rivaleni	-2001
▁represen	-2002
▁xikombiso	-2003
hankulu	-2004
▁xidemo	-2005
ek	-2006
rit	-2007
▁hlayisa	-2008
▁mitlawa	-2009
enda	-2010
▁however	-2011
▁training	-2012
▁kuva	-2013
uma	-2014
▁ntl	-2015
ER	-2016
▁cre	-2017
ES	-2018
▁uni	-2019
▁muxaka	-2020
▁available	-2021
khe	-2022
▁future	-2023
lele	-2024
▁Xiyenge	-2025
▁riki	-2026
▁she	-2027
▁office	-2028
▁including	-2029
▁vugevenga	-2030
▁resources	-2031
ated	-2032
▁mis	-2033
▁hlamusela	-2034
▁Ca	-2035
pimelo	-2036
▁world	-2037
cle	-2038
goza	-2039
mbhoni	-2040
leriso	-2041
ctive	-2042
vent	-2043
),	-2044
▁clo	-2045
▁nongonoko	-2046
▁huvo	-2047
landla	-2048
▁hetiseka	-2049
▁2.	-2050
▁view	-2051
▁things	-2052
▁tlakusa	-2053
▁cur	-2054
lls	-2055
▁cla	-2056
▁cent	-2057
landlamu	-2058
▁effective	-2059
▁maj	-2060
▁masiku	-2061
▁Mp	-2062
▁awa	-2063
kirasi	-2064
letelo	-2065
gistration	-2066
▁Kho	-2067
mpi	-2068
▁example	-2069
▁star	-2070
▁tshi	-2071
▁ent	-2072
▁respect	-2073
rol	-2074
the	-2075
▁veka	-2076
▁allow	-2077
up	-2078
oura	-2079
▁aka	-2080
▁disa	-2081
▁even	-2082
isile	-2083
▁citizens	-2084
▁namuntlha	-2085
itor	-2086
mbeko	-2087
▁municipal	-2088
4.	-2089
▁Me	-2090
▁twa	-2091
▁taka	-2092
teko	-2093
▁groups	-2094
ital	-2095
▁appli	-2096
▁swivangelo	-2097
oper	-2098
▁let	-2099
▁Tanihi	-2100
▁second	-2101
oint	-2102
tors	-2103
isiweke	-2104
omy	-2105
▁remain	-2106
gal	-2107
tshun	-2108
vumbeko	-2109
▁assist	-2110
▁certain	-2111
▁prac	-2112
▁focus	-2113
▁provincial	-2114
leyo	-2115
mber	-2116
▁decision	-2117
angala	-2118
▁participation	-2119
▁phe	-2120
▁certificate	-2121
work	-2122
▁wel	-2123
▁ski	-2124
▁mpfun	-2125
▁rhang	-2126
▁performance	-2127
ready	-2128
▁Khomi	-2129
▁going	-2130
▁organisa	-2131
aniso	-2132
ished	-2133
▁hlangana	-2134
rast	-2135
▁tax	-2136
exo	-2137
por	-2138
tis	-2139
xop	-2140
▁dra	-2141
▁tiv	-2142
▁problems	-2143
ffici	-2144
▁katsi	-2145
round	-2146
ID	-2147
▁Ad	-2148
▁Bill	-2149
▁identi	-2150
▁working	-2151
ines	-2152
▁Swo	-2153
phorisa	-2154
▁hink	-2155
▁khomi	-2156
▁xandla	-2157
rame	-2158
▁come	-2159
▁member	-2160
▁sisiteme	-2161
HA	-2162
▁permit	-2163
▁Cha	-2164
▁society	-2165
▁both	-2166
▁already	-2167
▁tihlang	-2168
▁tiphurojeke	-2169
▁today	-2170
▁fomo	-2171
▁makungu	-2172
▁understand	-2173
rito	-2174
▁specific	-2175
▁kusu	-2176
vilelo	-2177
▁miganga	-2178
▁communities	-2179
tumb	-2180
▁questions	-2181
cipa	-2182
minist	-2183
▁hikwalaho	-2184
▁kula	-2185
▁amuke	-2186
sati	-2187
▁Rep	-2188
▁che	-2189
ative	-2190
▁sukela	-2191
▁nyike	-2192
▁olova	-2193
▁adop	-2194
▁budget	-2195
▁indust	-2196
▁hakunene	-2197
esa	-2198
fuwo	-2199
▁peri	-2200
▁hinkwato	-2201
IS	-2202
▁Comp	-2203
▁wish	-2204
▁Mhaka	-2205
▁debate	-2206
▁during	-2207
▁tekiwa	-2208
▁hikokwalaho	-2209
tumbulu	-2210
▁challenges	-2211
ank	-2212
▁tipolitiki	-2213
▁oper	-2214
▁mikarhi	-2215
sic	-2216
riwile	-2217
1)	-2218
ako	-2219
▁back	-2220
▁together	-2221
rastructure	-2222
hala	-2223
▁economy	-2224
▁tirhana	-2225
▁call	-2226
▁Ts	-2227
▁vuhlayiseki	-2228
KA	-2229
mar	-2230
▁fanelangi	-2231
hambana	-2232
▁tekela	-2233
▁accep	-2234
▁ext	-2235
isions	-2236
vate	-2237
▁submit	-2238
road	-2239
▁Our	-2240
▁points	-2241
▁St	-2242
▁hlaya	-2243
▁growth	-2244
▁ndlandlamu	-2245
▁given	-2246
tswa	-2247
▁Mati	-2248
alities	-2249
▁pay	-2250
▁tech	-2251
▁initi	-2252
▁mpimanyeto	-2253
▁nkunguhato	-2254
do	-2255
tered	-2256
intshwa	-2257
▁hundzulu	-2258
vant	-2259
▁sho	-2260
▁Nt	-2261
fety	-2262
▁How	-2263
▁rona	-2264
▁approach	-2265
kho	-2266
cated	-2267
▁official	-2268
▁court	-2269
▁employ	-2270
▁did	-2271
▁better	-2272
▁ximfumo	-2273
3.	-2274
mboro	-2275
▁hand	-2276
opfung	-2277
▁forward	-2278
▁rihanyo	-2279
opfungopfu	-2280
▁ano	-2281
orts	-2282
▁End	-2283
▁answer	-2284
▁vulawuri	-2285
sela	-2286
▁employe	-2287
of	-2288
▁dist	-2289
▁xirho	-2290
▁period	-2291
kuva	-2292
undzuku	-2293
▁proced	-2294
▁Masipala	-2295
▁vamanana	-2296
▁ny	-2297
▁Service	-2298
▁another	-2299
be	-2300
gion	-2301
▁find	-2302
yaka	-2303
▁tivi	-2304
▁30	-2305
ects	-2306
▁deter	-2307
▁great	-2308
▁assess	-2309
▁Nhlangano	-2310
tail	-2311
hum	-2312
uty	-2313
▁desi	-2314
WA	-2315
▁Ta	-2316
▁tas	-2317
▁able	-2318
▁Sweswi	-2319
une	-2320
▁xik	-2321
ession	-2322
ds	-2323
▁look	-2324
1.	-2325
ango	-2326
▁aff	-2327
▁committees	-2328
▁met	-2329
▁kongomisa	-2330
▁tikomiti	-2331
balo	-2332
waka	-2333
anyana	-2334
▁etikweni	-2335
ases	-2336
isation	-2337
▁hunguta	-2338
▁vumbhoni	-2339
▁contribu	-2340
▁participa	-2341
▁swifundz	-2342
hlanganisi	-2343
▁Se	-2344
▁play	-2345
▁hakela	-2346
▁hela	-2347
▁lulam	-2348
▁interest	-2349
che	-2350
cies	-2351
▁nghenisa	-2352
mili	-2353
▁tshemb	-2354
inya	-2355
▁tal	-2356
▁Public	-2357
▁swiboho	-2358
ide	-2359
tima	-2360
▁few	-2361
▁xis	-2362
leswi	-2363
▁Comm	-2364
▁gezi	-2365
tivity	-2366
▁provided	-2367
▁tani	-2368
▁hambanahambana	-2369
▁next	-2370
cing	-2371
ince	-2372
mbewu	-2373
▁tisa	-2374
▁amukeriwa	-2375
hanu	-2376
lor	-2377
tli	-2378
▁ref	-2379
▁vum	-2380
▁life	-2381
ulture	-2382
▁relevant	-2383
bed	-2384
rong	-2385
▁condi	-2386
▁nxa	-2387
ption	-2388
duct	-2389
kisa	-2390
xeko	-2391
▁inst	-2392
▁last	-2393
▁magoza	-2394
▁tihakelo	-2395
▁landzelela	-2396
ging	-2397
▁vava	-2398
qh	-2399
▁Do	-2400
▁partners	-2401
▁Xa	-2402
▁def	-2403
▁put	-2404
▁vari	-2405
mberiwa	-2406
▁Holobye	-2407
lion	-2408
▁tona	-2409
▁wolowo	-2410
ness	-2411
▁capa	-2412
yondzi	-2413
eriweke	-2414
▁koti	-2415
kiwile	-2416
▁vekiwa	-2417
▁xidemokirasi	-2418
▁Wadi	-2419
▁Li	-2420
▁hlanganisa	-2421
▁ur	-2422
lovelo	-2423
▁Af	-2424
▁Fin	-2425
kheti	-2426
▁marito	-2427
▁Hlamusela	-2428
▁responsibility	-2429
wangi	-2430
▁enough	-2431
▁market	-2432
▁mone	-2433
▁produc	-2434
▁measures	-2435
▁agreement	-2436
tshunxo	-2437
▁twisisa	-2438
▁ngopfungopfu	-2439
▁xita	-2440
▁days	-2441
▁Wor	-2442
▁kunguha	-2443
▁4.	-2444
▁yimela	-2445
▁hinkwerhu	-2446
▁Ag	-2447
riwaka	-2448
▁Ntirho	-2449
▁tirhi	-2450
vention	-2451
ange	-2452
▁day	-2453
▁vuts	-2454
▁swimbirhi	-2455
▁registration	-2456
▁Milawu	-2457
▁vutivi	-2458
▁ntirhisano	-2459
▁objectives	-2460
▁KU	-2461
abum	-2462
▁ask	-2463
ender	-2464
▁secu	-2465
▁Misava	-2466
▁16	-2467
▁Tra	-2468
▁hlamus	-2469
dzo	-2470
ards	-2471
umabum	-2472
▁complete	-2473
arch	-2474
▁delivery	-2475
▁food	-2476
▁Vuk	-2477
▁xana	-2478
▁proper	-2479
▁Tikomiti	-2480
▁car	-2481
▁colle	-2482
▁Xikombelo	-2483
dies	-2484
andza	-2485
▁curr	-2486
▁Municipal	-2487
tshalatshala	-2488
semb	-2489
ster	-2490
▁date	-2491
▁kongoma	-2492
▁Khomixini	-2493
ze	-2494
▁stu	-2495
▁list	-2496
▁without	-2497
khu	-2498
ceed	-2499
leko	-2500
▁vumba	-2501
▁kote	-2502
▁kumi	-2503
vekisi	-2504
▁confi	-2505
▁Nawumbisi	-2506
dence	-2507
▁tihlanganisa	-2508
rities	-2509
▁invest	-2510
▁programmes	-2511
▁qui	-2512
▁land	-2513
▁State	-2514
▁njhani	-2515
tact	-2516
inawana	-2517
tifikheti	-2518
▁crime	-2519
hansela	-2520
masipala	-2521
▁timbirhi	-2522
▁vuleteri	-2523
▁international	-2524
unities	-2525
irs	-2526
▁Co	-2527
▁thank	-2528
▁review	-2529
tana	-2530
handle	-2531
tlhelo	-2532
rm	-2533
▁skills	-2534
2.	-2535
kana	-2536
▁fore	-2537
▁months	-2538
rha	-2539
pose	-2540
▁lab	-2541
▁lic	-2542
▁diffic	-2543
tirhweni	-2544
▁swipimelo	-2545
▁infrastructure	-2546
▁real	-2547
▁tirhaka	-2548
LA	-2549
siwa	-2550
▁house	-2551
▁tsundzu	-2552
▁15	-2553
▁ru	-2554
veni	-2555
▁ann	-2556
▁beca	-2557
▁energy	-2558
ghingiriko	-2559
▁kom	-2560
▁kambela	-2561
▁quality	-2562
▁xiswona	-2563
sembly	-2564
▁At	-2565
▁elect	-2566
isiwaka	-2567
▁fambisa	-2568
ane	-2569
▁hl	-2570
duce	-2571
▁open	-2572
▁money	-2573
fication	-2574
▁tru	-2575
▁achie	-2576
yisense	-2577
ating	-2578
▁humesi	-2579
▁security	-2580
▁result	-2581
▁lavekaka	-2582
...	-2583
▁hluvuk	-2584
▁ting	-2585
▁mention	-2586
una	-2587
lomu	-2588
yike	-2589
tention	-2590
▁khumba	-2591
▁reason	-2592
▁vuxaka	-2593
less	-2594
▁reco	-2595
▁incre	-2596
duction	-2597
▁subs	-2598
muselo	-2599
ecutive	-2600
▁democracy	-2601
▁sirhelela	-2602
▁opportunity	-2603
▁hatl	-2604
tirhisi	-2605
▁register	-2606
jisi	-2607
▁seri	-2608
▁komba	-2609
coura	-2610
▁Plan	-2611
co	-2612
ger	-2613
▁ntsengo	-2614
fo	-2615
ately	-2616
▁TH	-2617
misela	-2618
▁ndzing	-2619
▁reasons	-2620
▁Assembly	-2621
kumu	-2622
▁Exp	-2623
▁tse	-2624
▁Mana	-2625
▁sivela	-2626
verty	-2627
▁road	-2628
▁vele	-2629
▁legal	-2630
▁pf	-2631
langu	-2632
reng	-2633
▁Fa	-2634
▁ser	-2635
▁Timhaka	-2636
▁amukeri	-2637
▁mphakelo	-2638
▁Mb	-2639
▁off	-2640
▁vad	-2641
dents	-2642
▁1998	-2643
▁njhe	-2644
▁vehi	-2645
▁Uni	-2646
vious	-2647
▁safety	-2648
uthority	-2649
fied	-2650
▁cho	-2651
▁swiha	-2652
ramework	-2653
hanselara	-2654
sirhelelo	-2655
▁rha	-2656
▁NA	-2657
▁proposal	-2658
tained	-2659
▁least	-2660
0.	-2661
city	-2662
▁Swa	-2663
▁pfa	-2664
▁xikarhi	-2665
eng	-2666
▁Nd	-2667
▁Si	-2668
mall	-2669
mpfi	-2670
▁dri	-2671
▁inde	-2672
▁name	-2673
▁Mitirho	-2674
ising	-2675
▁xexo	-2676
▁hlawuleka	-2677
pfa	-2678
▁emp	-2679
▁resi	-2680
kelela	-2681
tified	-2682
mise	-2683
tshungu	-2684
▁inform	-2685
▁nghena	-2686
yone	-2687
▁xileriso	-2688
lano	-2689
▁vhota	-2690
eriwaka	-2691
▁hofisi	-2692
▁document	-2693
keke	-2694
▁private	-2695
▁tiphe	-2696
▁Presidente	-2697
anyo	-2698
▁police	-2699
▁hlawula	-2700
▁vumbiwa	-2701
residente	-2702
▁responsible	-2703
mer	-2704
▁data	-2705
▁subject	-2706
ET	-2707
rease	-2708
▁basis	-2709
▁strategi	-2710
vin	-2711
pila	-2712
ences	-2713
▁hikuva	-2714
▁monitor	-2715
▁khumb	-2716
amu	-2717
▁When	-2718
▁vhoti	-2719
eriwile	-2720
ody	-2721
then	-2722
▁mambirhi	-2723
▁xilaveko	-2724
▁Dire	-2725
▁common	-2726
▁control	-2727
▁cop	-2728
▁andla	-2729
▁experi	-2730
bilities	-2731
tirhiselo	-2732
▁ntolovelo	-2733
act	-2734
▁fact	-2735
ultural	-2736
▁rhumela	-2737
12	-2738
▁Al	-2739
mulo	-2740
▁speak	-2741
hird	-2742
wihi	-2743
anile	-2744
▁past	-2745
▁final	-2746
▁administ	-2747
sing	-2748
▁doing	-2749
▁read	-2750
▁endlela	-2751
tiga	-2752
▁appropri	-2753
▁involved	-2754
▁xivumbeko	-2755
▁Application	-2756
hurogi	-2757
▁account	-2758
▁Res	-2759
▁Cape	-2760
▁hambi	-2761
▁design	-2762
huresidente	-2763
▁Nhlengeletano	-2764
▁mut	-2765
tswari	-2766
▁vonaka	-2767
ually	-2768
▁less	-2769
▁swiphemu	-2770
▁establish	-2771
til	-2772
comes	-2773
▁conditions	-2774
▁employment	-2775
wele	-2776
▁Pre	-2777
▁enti	-2778
▁prepa	-2779
▁consul	-2780
▁present	-2781
▁const	-2782
▁AN	-2783
visiso	-2784
▁because	-2785
▁special	-2786
▁pfumelela	-2787
▁department	-2788
iwa	-2789
▁ley	-2790
▁First	-2791
▁languta	-2792
▁opportunities	-2793
versi	-2794
▁des	-2795
ances	-2796
▁kwihi	-2797
▁approved	-2798
hurogireme	-2799
▁detail	-2800
▁tirhisana	-2801
▁reso	-2802
▁trade	-2803
▁Some	-2804
selves	-2805
▁ndzawulo	-2806
▁xivandla	-2807
ringanyeto	-2808
▁challenge	-2809
▁ple	-2810
sente	-2811
qhinga	-2812
▁lawula	-2813
taina	-2814
▁voni	-2815
▁nhundzu	-2816
▁poverty	-2817
▁mihlangano	-2818
▁addi	-2819
▁streng	-2820
▁serious	-2821
IC	-2822
gen	-2823
ses	-2824
▁et	-2825
▁im	-2826
▁dem	-2827
▁Committees	-2828
ists	-2829
▁hlo	-2830
▁nhlamulo	-2831
hwa	-2832
▁benefi	-2833
▁contra	-2834
▁follows	-2835
ined	-2836
▁rimbewu	-2837
▁representa	-2838
tsundzu	-2839
▁nhlayiso	-2840
▁tekeriwa	-2841
▁Hikwalaho	-2842
▁matshalatshala	-2843
am	-2844
▁18	-2845
ulani	-2846
▁tava	-2847
▁hundzeke	-2848
........	-2849
▁low	-2850
▁Health	-2851
reedom	-2852
▁discussion	-2853
▁khumbe	-2854
▁encoura	-2855
▁lowukulu	-2856
leki	-2857
▁conf	-2858
▁hoxa	-2859
tshunguri	-2860
ues	-2861
▁glob	-2862
komhaka	-2863
▁mbangu	-2864
▁facilita	-2865
▁cinci	-2866
▁tsala	-2867
mination	-2868
▁mutirhi	-2869
▁ntlhanu	-2870
▁municipalities	-2871
nolo	-2872
▁regula	-2873
▁biha	-2874
dyondzo	-2875
pfhumba	-2876
▁fikela	-2877
▁general	-2878
orted	-2879
▁councillor	-2880
tho	-2881
ross	-2882
▁xip	-2883
iniki	-2884
▁five	-2885
elanga	-2886
▁vuvabyi	-2887
▁vantshwa	-2888
ith	-2889
▁Leyi	-2890
▁poor	-2891
▁sure	-2892
vur	-2893
yondza	-2894
▁mpfuneto	-2895
▁laman	-2896
▁plans	-2897
▁legisla	-2898
▁meetings	-2899
alys	-2900
fairs	-2901
▁vurimi	-2902
maki	-2903
vour	-2904
▁ximunhu	-2905
▁Director	-2906
▁industry	-2907
▁protection	-2908
ne	-2909
ific	-2910
▁ear	-2911
▁hlamula	-2912
▁activity	-2913
▁cost	-2914
hlampfi	-2915
▁govern	-2916
▁pfumelelana	-2917
ates	-2918
moun	-2919
vidu	-2920
▁basic	-2921
▁Swirho	-2922
utes	-2923
▁Whi	-2924
▁contact	-2925
▁pfuneta	-2926
operation	-2927
▁tumbuluxiwa	-2928
ustice	-2929
▁essen	-2930
▁exist	-2931
▁engete	-2932
kin	-2933
emplo	-2934
▁promote	-2935
fikelelo	-2936
▁constitu	-2937
▁Tran	-2938
▁Sa	-2939
▁ty	-2940
hozi	-2941
▁Hak	-2942
▁kuri	-2943
▁khoto	-2944
▁power	-2945
▁recom	-2946
▁small	-2947
▁table	-2948
▁welcome	-2949
▁farm	-2950
▁needed	-2951
▁tsandz	-2952
▁vuvekisi	-2953
ath	-2954
▁gra	-2955
▁based	-2956
▁thing	-2957
tage	-2958
▁Nts	-2959
▁whe	-2960
xiave	-2961
▁four	-2962
▁vusweti	-2963
▁simekiwa	-2964
▁asp	-2965
fession	-2966
▁matters	-2967
▁vavasati	-2968
▁resolution	-2969
▁ide	-2970
yangu	-2971
▁tsak	-2972
▁broad	-2973
▁Phuresidente	-2974
▁xihi	-2975
▁province	-2976
▁subsection	-2977
chu	-2978
line	-2979
rant	-2980
▁Ndz	-2981
▁rej	-2982
▁live	-2983
lhontlho	-2984
7.	-2985
▁Ko	-2986
▁makete	-2987
▁difficult	-2988
▁requirements	-2989
RH	-2990
fit	-2991
risi	-2992
ways	-2993
yingi	-2994
▁baby	-2995
▁capacity	-2996
▁institutions	-2997
na	-2998
▁Su	-2999
hundz	-3000
▁free	-3001
▁jobs	-3002
▁workers	-3003
▁increase	-3004
▁positive	-3005
khom	-3006
▁bri	-3007
erisano	-3008
▁tivisa	-3009
▁interes	-3010
▁parties	-3011
▁request	-3012
▁MA	-3013
site	-3014
▁Africans	-3015
IDS	-3016
ral	-3017
▁SW	-3018
tics	-3019
▁fikeleri	-3020
▁minongonoko	-3021
▁VA	-3022
ledge	-3023
▁kusuhi	-3024
▁move	-3025
▁kwalomu	-3026
▁My	-3027
▁tlu	-3028
indlu	-3029
▁post	-3030
▁leaders	-3031
▁tinxaka	-3032
ume	-3033
▁him	-3034
speci	-3035
▁rest	-3036
OP	-3037
ay	-3038
oin	-3039
▁hamb	-3040
▁licence	-3041
▁thoriwa	-3042
▁maphorisa	-3043
pt	-3044
hamp	-3045
▁lemu	-3046
▁herisa	-3047
▁tinhlengeletano	-3048
dzawulo	-3049
▁dyondza	-3050
▁fambis	-3051
▁labour	-3052
jisitara	-3053
▁Dyondzo	-3054
tal	-3055
miti	-3056
▁registered	-3057
▁Vukorhokeri	-3058
IP	-3059
tiki	-3060
▁ris	-3061
▁Tiko	-3062
▁opini	-3063
▁Xiviko	-3064
▁become	-3065
▁humesa	-3066
▁ringeta	-3067
▁matirhiselo	-3068
▁task	-3069
▁tsar	-3070
▁nandzu	-3071
tro	-3072
hoti	-3073
▁AIDS	-3074
▁young	-3075
▁Timali	-3076
▁ndzhawu	-3077
▁Swoleswo	-3078
▁appropriate	-3079
▁Is	-3080
ource	-3081
▁mean	-3082
▁Maendlelo	-3083
▁essential	-3084
▁functions	-3085
▁hon	-3086
wards	-3087
▁major	-3088
▁tlang	-3089
▁ehandle	-3090
▁kana	-3091
▁nhlo	-3092
ors	-3093
▁making	-3094
▁amendments	-3095
oloji	-3096
▁xibalo	-3097
▁14	-3098
▁best	-3099
▁corre	-3100
▁Republic	-3101
kanerisano	-3102
▁du	-3103
▁cal	-3104
▁2011	-3105
▁visi	-3106
▁conclu	-3107
▁swoleswo	-3108
▁(1)	-3109
▁Euro	-3110
ificant	-3111
▁results	-3112
▁function	-3113
fula	-3114
▁Chi	-3115
lulami	-3116
▁stake	-3117
ination	-3118
▁region	-3119
▁hangala	-3120
soci	-3121
dyangu	-3122
▁Tiwadi	-3123
▁recogn	-3124
▁vonelo	-3125
▁attention	-3126
pimo	-3127
▁Imp	-3128
▁THE	-3129
▁2005	-3130
teriwa	-3131
▁million	-3132
▁tinharhu	-3133
▁vumundzuku	-3134
ice	-3135
▁Sec	-3136
lling	-3137
▁global	-3138
▁really	-3139
▁achieved	-3140
▁langutisa	-3141
ctly	-3142
▁sur	-3143
▁Matiko	-3144
▁relations	-3145
foli	-3146
▁ene	-3147
cally	-3148
▁show	-3149
▁Hambi	-3150
▁conte	-3151
▁endlile	-3152
kanj	-3153
▁ten	-3154
▁pfuxe	-3155
▁quali	-3156
▁Program	-3157
▁language	-3158
▁transport	-3159
▁Ga	-3160
bumabum	-3161
▁purpose	-3162
rhum	-3163
inkulu	-3164
ulation	-3165
▁muholo	-3166
▁navela	-3167
▁simeka	-3168
IT	-3169
pla	-3170
andzi	-3171
eleke	-3172
▁among	-3173
▁levels	-3174
▁struct	-3175
▁xikolo	-3176
▁directive	-3177
hara	-3178
▁step	-3179
mbuyelo	-3180
▁others	-3181
▁vumaki	-3182
bumabumelo	-3183
▁completed	-3184
ling	-3185
▁Xiv	-3186
▁2000	-3187
▁amoun	-3188
▁swihi	-3189
▁record	-3190
▁strategy	-3191
has	-3192
▁11	-3193
▁By	-3194
▁tes	-3195
lines	-3196
▁laya	-3197
▁dyondz	-3198
▁individu	-3199
▁provision	-3200
atho	-3201
hasi	-3202
▁concerns	-3203
▁importance	-3204
▁nsirhelelo	-3205
vhele	-3206
▁allo	-3207
▁share	-3208
▁vehicle	-3209
▁Hakunene	-3210
▁cir	-3211
▁sent	-3212
olonga	-3213
▁attend	-3214
specially	-3215
tumbuluko	-3216
▁building	-3217
thu	-3218
▁Gi	-3219
▁occ	-3220
▁twan	-3221
kanjhek	-3222
leswaku	-3223
▁xihlawu	-3224
▁investment	-3225
▁dise	-3226
▁impact	-3227
▁income	-3228
▁referred	-3229
RS	-3230
mily	-3231
ters	-3232
▁Nyi	-3233
▁sum	-3234
▁found	-3235
▁Europe	-3236
▁Rihany	-3237
fficient	-3238
EC	-3239
ace	-3240
▁vak	-3241
▁term	-3242
▁framework	-3243
▁xikan	-3244
mberi	-3245
▁turn	-3246
vukisi	-3247
▁position	-3248
▁endliwile	-3249
▁xifundzhankulu	-3250
ivi	-3251
▁mats	-3252
▁layisense	-3253
urha	-3254
xiweke	-3255
▁start	-3256
▁effect	-3257
tainable	-3258
▁recommend	-3259
keni	-3260
teur	-3261
▁mune	-3262
▁Vaaki	-3263
▁lahle	-3264
▁whole	-3265
▁especially	-3266
▁tiphesente	-3267
mine	-3268
pers	-3269
rial	-3270
▁Laha	-3271
vation	-3272
▁Nkarhi	-3273
▁tiyisa	-3274
▁principle	-3275
MA	-3276
▁hu	-3277
▁tr	-3278
liki	-3279
▁Per	-3280
alysis	-3281
▁favour	-3282
▁tinyike	-3283
▁household	-3284
▁investiga	-3285
▁swikombiso	-3286
eld	-3287
▁rhi	-3288
akatiko	-3289
vulo	-3290
movha	-3291
▁eval	-3292
▁begin	-3293
▁always	-3294
unge	-3295
tiviso	-3296
▁short	-3297
kwama	-3298
▁lavi	-3299
▁vuyer	-3300
▁Section	-3301
ensi	-3302
▁Local	-3303
▁quite	-3304
sirheleri	-3305
▁vutshunguri	-3306
▁ns	-3307
olen	-3308
▁vav	-3309
▁equi	-3310
vevukisi	-3311
▁whether	-3312
▁fanelanga	-3313
ono	-3314
tatana	-3315
▁hanya	-3316
▁mbula	-3317
▁Xiyimo	-3318
▁fikeleriwa	-3319
▁2013	-3320
▁Nhla	-3321
▁Provin	-3322
mente	-3323
▁down	-3324
▁documents	-3325
▁processes	-3326
▁keep	-3327
os	-3328
▁rapp	-3329
▁words	-3330
▁vulavu	-3331
▁nkateko	-3332
▁ringany	-3333
▁learners	-3334
sts	-3335
kili	-3336
▁yet	-3337
▁agric	-3338
▁cases	-3339
▁established	-3340
6.	-3341
orm	-3342
ove	-3343
own	-3344
cise	-3345
▁May	-3346
▁bal	-3347
▁vito	-3348
orteur	-3349
▁assessment	-3350
mana	-3351
▁aim	-3352
▁hlen	-3353
▁ololo	-3354
formation	-3355
▁rapporteur	-3356
MB	-3357
▁WA	-3358
wisana	-3359
▁party	-3360
mary	-3361
▁yima	-3362
miliyoni	-3363
▁foreign	-3364
▁ntumbuluko	-3365
▁significant	-3366
▁ou	-3367
▁hig	-3368
▁hlu	-3369
▁hous	-3370
▁line	-3371
▁opinion	-3372
▁Xikombiso	-3373
axop	-3374
▁lin	-3375
visisi	-3376
puty	-3377
▁ret	-3378
▁Xikongomelo	-3379
ording	-3380
ungula	-3381
▁close	-3382
▁schools	-3383
▁underta	-3384
▁yim	-3385
ither	-3386
▁xixi	-3387
▁Explain	-3388
rug	-3389
gges	-3390
heka	-3391
▁With	-3392
vuyelo	-3393
▁above	-3394
▁endle	-3395
▁large	-3396
▁Ac	-3397
▁bur	-3398
▁web	-3399
▁issued	-3400
▁hambiswiritano	-3401
enti	-3402
vers	-3403
▁Hin	-3404
xamelo	-3405
▁priority	-3406
▁provides	-3407
▁decisions	-3408
fomo	-3409
▁moya	-3410
▁concerned	-3411
▁Pe	-3412
vuko	-3413
▁ins	-3414
▁ways	-3415
lement	-3416
gration	-3417
▁langutana	-3418
▁Man	-3419
▁held	-3420
▁rules	-3421
▁letter	-3422
▁current	-3423
UN	-3424
▁ever	-3425
▁xilo	-3426
▁since	-3427
▁tirhe	-3428
▁koteka	-3429
▁kombisi	-3430
▁Education	-3431
▁Nongonoko	-3432
▁pfumaleka	-3433
riso	-3434
▁create	-3435
▁Swiko	-3436
▁offic	-3437
▁consum	-3438
▁yaleyo	-3439
▁YA	-3440
hund	-3441
ority	-3442
▁sche	-3443
▁eneji	-3444
▁gener	-3445
▁ntsha	-3446
▁vanga	-3447
▁particularly	-3448
KO	-3449
▁nx	-3450
mfumo	-3451
▁dele	-3452
▁perc	-3453
▁ying	-3454
▁mfikelelo	-3455
20	-3456
uto	-3457
▁rese	-3458
inyana	-3459
ricity	-3460
▁guide	-3461
ference	-3462
▁tindzi	-3463
▁solution	-3464
▁Programme	-3465
▁tirhisiwaka	-3466
lant	-3467
viri	-3468
ctors	-3469
ustom	-3470
▁1994	-3471
▁simp	-3472
▁tive	-3473
nology	-3474
leketli	-3475
▁mbango	-3476
▁unemplo	-3477
▁strengthen	-3478
kanjhekisano	-3479
aneke	-3480
▁para	-3481
▁Kungu	-3482
▁value	-3483
▁authority	-3484
redi	-3485
tori	-3486
▁fanaka	-3487
▁swikolo	-3488
▁fambelanaka	-3489
▁old	-3490
▁wri	-3491
vision	-3492
▁enter	-3493
▁various	-3494
▁nhlawulo	-3495
GA	-3496
▁21	-3497
▁Yi	-3498
medi	-3499
havuko	-3500
tshamo	-3501
▁dinga	-3502
▁movha	-3503
▁third	-3504
▁persons	-3505
partments	-3506
▁vekiweke	-3507
▁implement	-3508
▁humelelaka	-3509
yela	-3510
▁iden	-3511
luvuko	-3512
rhangana	-3513
▁hlengele	-3514
▁mindyangu	-3515
▁communication	-3516
▁organisations	-3517
▁xit	-3518
jenda	-3519
▁tiya	-3520
▁Hinkwa	-3521
▁depend	-3522
misaveni	-3523
▁standards	-3524
viki	-3525
▁youth	-3526
▁taking	-3527
ders	-3528
orob	-3529
▁nku	-3530
▁tis	-3531
▁swik	-3532
▁developed	-3533
▁ematikweni	-3534
▁Mafambiselo	-3535
▁mitlhontlho	-3536
ELO	-3537
kahle	-3538
▁home	-3539
▁costs	-3540
▁metho	-3541
▁pfuni	-3542
▁vutisa	-3543
▁company	-3544
▁nghingiriko	-3545
omes	-3546
ttle	-3547
cable	-3548
hikiz	-3549
winyi	-3550
▁materi	-3551
▁received	-3552
alu	-3553
hlu	-3554
siti	-3555
▁copy	-3556
▁death	-3557
▁treat	-3558
▁Deputy	-3559
dzolonga	-3560
▁requires	-3561
▁rate	-3562
▁xina	-3563
▁funds	-3564
hundzulu	-3565
▁ndyangu	-3566
▁humesiwa	-3567
▁vunharhu	-3568
▁Community	-3569
▁nhlamuselo	-3570
▁OF	-3571
tory	-3572
▁lot	-3573
yengen	-3574
▁tsalwa	-3575
▁profession	-3576
ber	-3577
mined	-3578
▁true	-3579
▁khomiwa	-3580
▁Timfanelo	-3581
▁One	-3582
▁boxa	-3583
▁feel	-3584
▁often	-3585
▁nomboro	-3586
▁employees	-3587
▁swivilelo	-3588
mile	-3589
▁ana	-3590
dered	-3591
endli	-3592
hendz	-3593
yenkulu	-3594
▁nation	-3595
▁competi	-3596
▁remains	-3597
tsundzuxo	-3598
▁mbi	-3599
▁opp	-3600
lated	-3601
uthori	-3602
▁Board	-3603
▁agenda	-3604
▁lwisana	-3605
▁hluvukisa	-3606
▁interests	-3607
▁principles	-3608
AL	-3609
ensus	-3610
inten	-3611
▁khamp	-3612
▁rhula	-3613
▁swiharhi	-3614
▁humelerisa	-3615
▁participate	-3616
NP	-3617
▁Sp	-3618
hiwa	-3619
qing	-3620
etana	-3621
olence	-3622
▁intend	-3623
▁vulaka	-3624
kinoloji	-3625
▁changes	-3626
▁vatatana	-3627
▁emisaveni	-3628
ried	-3629
▁2010	-3630
hawini	-3631
▁Batho	-3632
hlamulo	-3633
▁freedom	-3634
▁tsandzeka	-3635
▁priorities	-3636
lete	-3637
mples	-3638
▁Endz	-3639
lobyenkulu	-3640
▁endliweke	-3641
▁swikombelo	-3642
▁13	-3643
graph	-3644
▁kind	-3645
cribed	-3646
holders	-3647
tirhela	-3648
▁research	-3649
▁langutisisa	-3650
udi	-3651
▁pop	-3652
▁Lowu	-3653
▁reli	-3654
iseriwa	-3655
▁analysis	-3656
▁lulamisiwa	-3657
ED	-3658
mpa	-3659
▁Fi	-3660
▁Gu	-3661
▁Sub	-3662
ariso	-3663
gistra	-3664
▁mambe	-3665
▁policies	-3666
wers	-3667
▁2009	-3668
▁peace	-3669
▁voted	-3670
▁details	-3671
clu	-3672
▁nc	-3673
yini	-3674
eleyo	-3675
▁forms	-3676
▁appoint	-3677
▁antswisiwa	-3678
ser	-3679
heni	-3680
kete	-3681
▁Pele	-3682
▁vang	-3683
yondzisi	-3684
▁brief	-3685
▁grant	-3686
▁rimba	-3687
▁gender	-3688
▁amendment	-3689
▁objective	-3690
▁democratic	-3691
hila	-3692
▁mat	-3693
▁hold	-3694
▁nkarh	-3695
▁return	-3696
▁nothing	-3697
hur	-3698
jek	-3699
goti	-3700
▁Hum	-3701
based	-3702
▁leswin	-3703
▁techni	-3704
▁included	-3705
▁lamanene	-3706
▁monitoring	-3707
lani	-3708
▁Dis	-3709
inary	-3710
▁kuya	-3711
▁rejis	-3712
▁rural	-3713
ruption	-3714
▁Intern	-3715
▁amount	-3716
--	-3717
mate	-3718
▁nave	-3719
▁rhandza	-3720
▁systems	-3721
▁ndzavisiso	-3722
kha	-3723
▁mad	-3724
▁motor	-3725
ruction	-3726
▁living	-3727
▁mavandla	-3728
▁langutela	-3729
▁vadyondzi	-3730
▁tindzawulo	-3731
▁electricity	-3732
▁cap	-3733
▁Inte	-3734
▁komb	-3735
▁remo	-3736
▁tikho	-3737
kambelo	-3738
▁matimu	-3739
▁employer	-3740
▁tshembha	-3741
▁tit	-3742
▁fish	-3743
undzeni	-3744
▁supply	-3745
▁xiviri	-3746
▁mivuyelo	-3747
keti	-3748
▁012	-3749
▁Fund	-3750
▁vika	-3751
lawuri	-3752
▁hlohlo	-3753
▁hundzu	-3754
▁papala	-3755
▁comment	-3756
▁identify	-3757
lf	-3758
law	-3759
lwa	-3760
talo	-3761
ungeto	-3762
▁Endlelo	-3763
▁Ro	-3764
ivil	-3765
sequ	-3766
rheli	-3767
▁khol	-3768
▁katsiwa	-3769
▁hinkwaro	-3770
▁xifundzankulu	-3771
▁17	-3772
ffor	-3773
miwa	-3774
▁Now	-3775
▁fee	-3776
▁kaya	-3777
▁oppo	-3778
▁tool	-3779
qingho	-3780
vanyisa	-3781
▁yeleyo	-3782
▁hatlisa	-3783
▁mimovha	-3784
▁swivandla	-3785
▁mal	-3786
tsong	-3787
venue	-3788
makiwa	-3789
reated	-3790
▁intro	-3791
▁lives	-3792
▁indica	-3793
uku	-3794
TION	-3795
lect	-3796
xelo	-3797
inene	-3798
grated	-3799
▁delega	-3800
dule	-3801
▁Offi	-3802
▁safe	-3803
fforts	-3804
weleti	-3805
▁event	-3806
▁vuntshwa	-3807
▁tidyondzo	-3808
mum	-3809
▁abs	-3810
▁nko	-3811
ortun	-3812
▁beha	-3813
▁using	-3814
▁Identi	-3815
▁reports	-3816
▁towards	-3817
▁Mr	-3818
▁swip	-3819
hundzu	-3820
stances	-3821
▁kamberiwa	-3822
▁commitment	-3823
▁institution	-3824
▁Ne	-3825
▁bir	-3826
▁Indi	-3827
▁feed	-3828
▁demand	-3829
▁Affairs	-3830
▁identified	-3831
anies	-3832
▁cris	-3833
dyambu	-3834
▁proof	-3835
timende	-3836
▁pfumela	-3837
▁kunguhata	-3838
yengentsongo	-3839
▁Of	-3840
▁dia	-3841
hekho	-3842
rhumiwa	-3843
▁family	-3844
hikelelo	-3845
▁products	-3846
lly	-3847
ret	-3848
yed	-3849
ours	-3850
▁paid	-3851
▁aware	-3852
▁while	-3853
versity	-3854
vurisano	-3855
▁Endzhaku	-3856
▁statement	-3857
▁xihlawuhlawu	-3858
▁seen	-3859
▁swikili	-3860
PS	-3861
▁5.	-3862
yili	-3863
▁enga	-3864
▁exer	-3865
▁vuka	-3866
▁Nyika	-3867
▁staff	-3868
gistrar	-3869
▁accept	-3870
▁khombo	-3871
▁yisiwa	-3872
▁clearly	-3873
▁extreme	-3874
▁expected	-3875
▁lokukulu	-3876
▁experience	-3877
hoxo	-3878
yiwa	-3879
▁ori	-3880
▁Cour	-3881
▁rito	-3882
atives	-3883
▁Other	-3884
▁swina	-3885
▁Second	-3886
▁proposals	-3887
OR	-3888
hela	-3889
olve	-3890
▁cli	-3891
▁sto	-3892
mbers	-3893
▁anim	-3894
▁swit	-3895
▁below	-3896
▁wards	-3897
▁strong	-3898
tekaxiave	-3899
▁critical	-3900
▁departments	-3901
▁organisation	-3902
5.	-3903
wen	-3904
oniwa	-3905
entlemen	-3906
▁explain	-3907
▁procedure	-3908
▁mamiliyoni	-3909
▁nkarhinyana	-3910
▁sustainable	-3911
▁age	-3912
▁laun	-3913
▁tata	-3914
▁tele	-3915
ritten	-3916
▁Munhu	-3917
▁media	-3918
intenance	-3919
▁kanetana	-3920
xiya	-3921
▁evi	-3922
yense	-3923
▁ririmi	-3924
▁employee	-3925
▁nhlokomhaka	-3926
xav	-3927
lict	-3928
wane	-3929
▁tshun	-3930
▁Xandla	-3931
▁Vatirhi	-3932
▁Fe	-3933
▁bla	-3934
▁six	-3935
▁stat	-3936
▁Social	-3937
▁crisis	-3938
▁benefit	-3939
▁Management	-3940
▁24	-3941
▁TB	-3942
▁Kwa	-3943
▁hear	-3944
▁tlher	-3945
▁ntshun	-3946
▁developing	-3947
▁Ya	-3948
anya	-3949
kangi	-3950
tiweke	-3951
tshama	-3952
▁tikweni	-3953
▁previous	-3954
▁fundament	-3955
▁procedures	-3956
elf	-3957
▁Tip	-3958
▁heta	-3959
▁protect	-3960
mor	-3961
▁Ab	-3962
sime	-3963
▁mini	-3964
▁bring	-3965
▁lerin	-3966
▁takes	-3967
▁papila	-3968
▁applies	-3969
▁transpar	-3970
▁implemented	-3971
▁Ba	-3972
essa	-3973
itulu	-3974
▁head	-3975
▁tirhela	-3976
▁benefits	-3977
eal	-3978
odo	-3979
▁risk	-3980
▁targe	-3981
▁conduct	-3982
▁tipholisi	-3983
▁Mas	-3984
acher	-3985
▁cong	-3986
▁nghenisiwa	-3987
▁tiyimisela	-3988
RA	-3989
ower	-3990
▁cru	-3991
sions	-3992
▁mint	-3993
▁once	-3994
faniso	-3995
▁ajenda	-3996
▁associ	-3997
▁efforts	-3998
▁kotekaka	-3999
▁leyikulu	-4000
▁el	-4001
▁Yuro	-4002
leleni	-4003
mpaign	-4004
▁negoti	-4005
jekisano	-4006
▁vatswari	-4007
opo	-4008
kiso	-4009
▁nya	-4010
mpimo	-4011
▁sectors	-4012
FA	-4013
funo	-4014
koto	-4015
ratu	-4016
veral	-4017
xiwile	-4018
▁Members	-4019
▁disease	-4020
▁written	-4021
tlhontlho	-4022
▁submitted	-4023
ims	-4024
▁Where	-4025
▁medical	-4026
▁xiyengentsongo	-4027
gue	-4028
hina	-4029
▁lwa	-4030
oroba	-4031
▁Vuti	-4032
xikaya	-4033
▁sugges	-4034
▁environmental	-4035
▁Or	-4036
pter	-4037
wela	-4038
▁ine	-4039
▁char	-4040
▁port	-4041
▁kambis	-4042
▁little	-4043
▁Vuxokoxoko	-4044
▁administration	-4045
iled	-4046
▁ekho	-4047
angeni	-4048
▁officer	-4049
▁Swifundz	-4050
▁Therefore	-4051
▁mimbuyelo	-4052
▁stakeholders	-4053
50	-4054
wet	-4055
rhele	-4056
▁fight	-4057
▁contain	-4058
▁continu	-4059
▁Services	-4060
▁tindzimi	-4061
late	-4062
tely	-4063
tile	-4064
rhuto	-4065
kateko	-4066
ongolo	-4067
▁tindlu	-4068
▁Pholisi	-4069
▁vuyeriwa	-4070
▁gentlemen	-4071
▁mentioned	-4072
▁madzolonga	-4073
▁cooperation	-4074
▁Es	-4075
▁Mit	-4076
▁kala	-4077
andzhaku	-4078
▁involve	-4079
▁minhlangano	-4080
▁Rec	-4081
▁Many	-4082
▁SARS	-4083
▁cate	-4084
fungho	-4085
▁affect	-4086
▁vuriwa	-4087
▁ndlandlamuxa	-4088
asy	-4089
wun	-4090
▁tia	-4091
▁urg	-4092
vered	-4093
▁face	-4094
▁phase	-4095
▁around	-4096
▁tshikelela	-4097
2)	-4098
hl	-4099
▁hard	-4100
person	-4101
▁birth	-4102
▁fully	-4103
▁hluvu	-4104
▁steps	-4105
▁Handle	-4106
▁vandla	-4107
▁Nakambe	-4108
▁nyiketa	-4109
▁amukeleki	-4110
▁treatment	-4111
▁Be	-4112
▁ID	-4113
hips	-4114
hlovo	-4115
velana	-4116
tifiketi	-4117
▁adopted	-4118
▁aspects	-4119
▁payment	-4120
▁matsalwa	-4121
▁vuhlanganisi	-4122
cts	-4123
xavo	-4124
▁2008	-4125
xitulu	-4126
▁centre	-4127
▁includes	-4128
▁kumekaka	-4129
.1.	-4130
gon	-4131
▁40	-4132
▁Acc	-4133
▁wan	-4134
▁body	-4135
▁tima	-4136
▁reques	-4137
▁tikomba	-4138
▁lexikulu	-4139
▁property	-4140
▁assistance	-4141
GO	-4142
wal	-4143
▁Cent	-4144
▁easy	-4145
fortun	-4146
▁accom	-4147
▁total	-4148
▁either	-4149
▁ndzima	-4150
▁yelana	-4151
▁determined	-4152
▁fundamental	-4153
▁Holobyenkulu	-4154
ING	-4155
▁try	-4156
▁emer	-4157
▁limi	-4158
▁mind	-4159
▁longer	-4160
▁vurile	-4161
▁Xifundz	-4162
▁Ra	-4163
▁loo	-4164
▁compli	-4165
▁nature	-4166
▁muthelo	-4167
▁identity	-4168
30	-4169
pes	-4170
ight	-4171
raka	-4172
▁run	-4173
▁byin	-4174
▁reality	-4175
▁receive	-4176
▁endliwaka	-4177
▁vaakitiko	-4178
▁vufambisi	-4179
▁regulation	-4180
▁successful	-4181
rib	-4182
▁sy	-4183
ishe	-4184
▁atta	-4185
▁Endla	-4186
▁muthori	-4187
▁vululami	-4188
▁vundzeni	-4189
▁nyikiweke	-4190
RO	-4191
ched	-4192
huvo	-4193
love	-4194
roni	-4195
▁famb	-4196
▁never	-4197
gangeni	-4198
▁agreed	-4199
▁reduce	-4200
▁discuss	-4201
▁hakeriwa	-4202
▁response	-4203
▁executive	-4204
▁fambisana	-4205
▁dou	-4206
fhuka	-4207
kanyo	-4208
▁custom	-4209
▁context	-4210
▁entirhweni	-4211
ided	-4212
▁due	-4213
▁spa	-4214
edulu	-4215
fully	-4216
▁Swiv	-4217
risiwa	-4218
▁Agric	-4219
▁decla	-4220
entation	-4221
▁learning	-4222
▁prescribed	-4223
▁xitifikheti	-4224
cti	-4225
fact	-4226
▁KNP	-4227
▁Court	-4228
▁pfumala	-4229
▁personal	-4230
▁knowledge	-4231
▁paragraph	-4232
▁vaakatiko	-4233
▁structures	-4234
▁participants	-4235
ENT	-4236
byo	-4237
cept	-4238
heta	-4239
endlo	-4240
sport	-4241
▁gran	-4242
▁rhekho	-4243
▁avelana	-4244
▁swinharhu	-4245
-1	-4246
viwa	-4247
▁nea	-4248
aniwa	-4249
▁soon	-4250
sition	-4251
▁stage	-4252
▁veter	-4253
▁nghozi	-4254
▁notice	-4255
▁xitalo	-4256
▁conflict	-4257
▁extremely	-4258
▁swibumabumelo	-4259
▁disc	-4260
▁tits	-4261
▁xiti	-4262
fumelo	-4263
▁times	-4264
▁vangi	-4265
▁wrong	-4266
▁vision	-4267
▁funding	-4268
▁ndzingano	-4269
▁swinawana	-4270
▁pfumeleriwa	-4271
▁VU	-4272
▁Mali	-4273
suring	-4274
▁satis	-4275
lutions	-4276
▁comply	-4277
▁itself	-4278
▁nearest	-4279
▁ndzimana	-4280
▁vuyimeri	-4281
uses	-4282
xina	-4283
▁AND	-4284
gical	-4285
▁Hofisi	-4286
▁accord	-4287
▁worker	-4288
▁percent	-4289
▁related	-4290
▁nhluvuko	-4291
qui	-4292
uteng	-4293
▁lack	-4294
▁test	-4295
▁organ	-4296
▁simply	-4297
▁crucial	-4298
▁emakumu	-4299
▁outcomes	-4300
▁vatirhisi	-4301
▁NC	-4302
ends	-4303
tshu	-4304
▁ang	-4305
▁emi	-4306
▁nat	-4307
avany	-4308
▁Mahungu	-4309
▁capital	-4310
▁swiviko	-4311
▁Vamanana	-4312
yu	-4313
vhi	-4314
▁pen	-4315
light	-4316
▁guar	-4317
▁mili	-4318
▁note	-4319
ission	-4320
▁kanela	-4321
ditional	-4322
▁campaign	-4323
▁improved	-4324
▁majority	-4325
▁proposed	-4326
▁increased	-4327
▁population	-4328
▁vurhangeri	-4329
▁maintenance	-4330
wama	-4331
iseko	-4332
▁Once	-4333
▁tsakile	-4334
▁committed	-4335
▁simekiweke	-4336
ban	-4337
tso	-4338
dela	-4339
deni	-4340
▁Ina	-4341
▁goods	-4342
▁active	-4343
▁called	-4344
▁manner	-4345
▁voting	-4346
▁correct	-4347
▁housing	-4348
▁mavabyi	-4349
▁tinhlayo	-4350
".	-4351
▁cy	-4352
hangu	-4353
iseni	-4354
▁Mand	-4355
▁ntsa	-4356
▁team	-4357
▁Speci	-4358
▁field	-4359
▁swong	-4360
▁matlhelo	-4361
▁violence	-4362
▁considered	-4363
ng	-4364
yeni	-4365
▁Mar	-4366
▁Spe	-4367
▁week	-4368
cellen	-4369
▁higher	-4370
▁muviki	-4371
▁addition	-4372
▁nkambelo	-4373
▁swonghasi	-4374
▁applicable	-4375
▁evaluation	-4376
▁International	-4377
term	-4378
▁Khoto	-4379
General	-4380
▁Finally	-4381
▁practice	-4382
▁discussed	-4383
ANA	-4384
▁Ng	-4385
alid	-4386
tele	-4387
ufact	-4388
▁ncini	-4389
▁changed	-4390
▁teacher	-4391
▁certainly	-4392
▁varhangeri	-4393
▁Sche	-4394
▁boha	-4395
ointed	-4396
▁circum	-4397
▁matikhom	-4398
land	-4399
rict	-4400
asing	-4401
▁book	-4402
▁Parti	-4403
▁Thank	-4404
▁works	-4405
▁enable	-4406
▁perman	-4407
▁Identify	-4408
▁switsongo	-4409
▁Ar	-4410
▁Nk	-4411
▁TI	-4412
iting	-4413
▁After	-4414
▁Syste	-4415
▁miako	-4416
▁ndzeni	-4417
▁status	-4418
▁minutes	-4419
▁vayimeri	-4420
ned	-4421
anyi	-4422
tsak	-4423
▁mapa	-4424
miseko	-4425
hlayisi	-4426
kumende	-4427
▁everyone	-4428
▁happened	-4429
▁allocated	-4430
▁sungurile	-4431
eleb	-4432
wara	-4433
hundla	-4434
▁World	-4435
▁Ntlawa	-4436
▁letela	-4437
▁parents	-4438
▁congratu	-4439
▁tlangela	-4440
▁ourselves	-4441
▁khumbekaka	-4442
▁pu	-4443
▁enhan	-4444
hlawule	-4445
▁emphas	-4446
irperson	-4447
▁nxaxamelo	-4448
▁strategic	-4449
ages	-4450
self	-4451
zela	-4452
▁draw	-4453
▁tour	-4454
▁annual	-4455
▁xinawu	-4456
hurisano	-4457
▁prevent	-4458
▁fanerile	-4459
▁velekiwa	-4460
▁thekinoloji	-4461
▁contribution	-4462
cs	-4463
▁XI	-4464
▁ite	-4465
▁else	-4466
rative	-4467
▁budge	-4468
▁endleni	-4469
▁proceed	-4470
▁maqhinga	-4471
▁ntsariso	-4472
▁partnership	-4473
EK	-4474
▁kon	-4475
fapfa	-4476
▁koma	-4477
▁messa	-4478
▁until	-4479
▁vhiki	-4480
▁nyimpi	-4481
▁practi	-4482
▁levhele	-4483
CT	-4484
reen	-4485
▁fair	-4486
▁stop	-4487
▁immedi	-4488
▁xivono	-4489
▁talking	-4490
▁manharhu	-4491
▁vuriwaka	-4492
▁rejistara	-4493
▁technical	-4494
▁agricultural	-4495
ap	-4496
ot	-4497
ken	-4498
rum	-4499
▁Are	-4500
▁link	-4501
▁comments	-4502
▁xivilelo	-4503
▁hlayisiwa	-4504
▁strategies	-4505
▁technology	-4506
▁landzelerisa	-4507
hwane	-4508
▁invi	-4509
▁khoma	-4510
▁subst	-4511
▁People	-4512
▁mpfuno	-4513
▁Mandela	-4514
▁kanakana	-4515
▁minkarhi	-4516
▁ntsakelo	-4517
▁Registrar	-4518
▁corruption	-4519
▁ntshikelelo	-4520
▁unemployment	-4521
▁35	-4522
▁Des	-4523
▁SWI	-4524
▁temp	-4525
▁xava	-4526
▁khuta	-4527
▁tiyimis	-4528
▁affected	-4529
tin	-4530
▁Ste	-4531
▁blo	-4532
▁2004	-4533
▁tama	-4534
reater	-4535
▁poten	-4536
▁kholwa	-4537
▁origin	-4538
hikizano	-4539
▁natural	-4540
tirhisani	-4541
▁matirhele	-4542
▁consultation	-4543
je	-4544
▁50	-4545
ises	-4546
▁sex	-4547
▁Nyen	-4548
▁Trans	-4549
chudeni	-4550
▁Office	-4551
▁complain	-4552
▁switirho	-4553
▁improvement	-4554
UL	-4555
▁er	-4556
xana	-4557
orpor	-4558
▁Lembe	-4559
▁civil	-4560
pendent	-4561
▁creation	-4562
▁ringanela	-4563
▁hlohlotela	-4564
lini	-4565
▁vul	-4566
vulavu	-4567
▁celeb	-4568
▁thola	-4569
▁victi	-4570
▁indeed	-4571
▁pfunaka	-4572
▁accordance	-4573
▁kond	-4574
▁Guide	-4575
▁examples	-4576
fortunately	-4577
cin	-4578
plo	-4579
pro	-4580
▁23	-4581
▁2001	-4582
▁mand	-4583
▁tibo	-4584
wangiki	-4585
▁reform	-4586
vumbirhi	-4587
▁endleka	-4588
▁justice	-4589
▁ntokoto	-4590
▁Xinawana	-4591
▁hlayanyana	-4592
tshamaxitulu	-4593
fil	-4594
▁25	-4595
▁Te	-4596
head	-4597
aleko	-4598
▁More	-4599
▁Poli	-4600
▁tino	-4601
▁twala	-4602
andzele	-4603
▁kwalaho	-4604
▁provinces	-4605
▁recommendations	-4606
▁representatives	-4607
solu	-4608
duced	-4609
▁insp	-4610
▁rene	-4611
veness	-4612
endlele	-4613
kulobye	-4614
▁ololoxa	-4615
▁targets	-4616
▁website	-4617
▁Complete	-4618
▁tshamaka	-4619
▁hlanganisiwa	-4620
hana	-4621
kage	-4622
▁Pri	-4623
▁Vut	-4624
▁advan	-4625
quality	-4626
▁regular	-4627
▁khumbaka	-4628
▁60	-4629
back	-4630
mani	-4631
▁Who	-4632
▁nom	-4633
mpopo	-4634
▁Speak	-4635
▁hours	-4636
▁makes	-4637
▁across	-4638
▁koteki	-4639
▁balance	-4640
▁several	-4641
▁understanding	-4642
YI	-4643
pr	-4644
hong	-4645
yiki	-4646
▁mom	-4647
dziha	-4648
▁nkulu	-4649
▁mahala	-4650
▁deliver	-4651
▁etlhelo	-4652
▁existing	-4653
▁manufact	-4654
▁komberiwa	-4655
▁commission	-4656
reak	-4657
▁Why	-4658
▁mec	-4659
▁Tirh	-4660
▁sing	-4661
▁tile	-4662
▁applic	-4663
▁regional	-4664
▁direction	-4665
▁xitshunxo	-4666
▁vusirheleri	-4667
▁Any	-4668
▁Vus	-4669
▁Hink	-4670
▁mode	-4671
▁pima	-4672
▁later	-4673
▁providing	-4674
▁households	-4675
▁production	-4676
▁Switirhisiwa	-4677
pre	-4678
▁adv	-4679
dingo	-4680
▁mfuwo	-4681
▁serve	-4682
▁lemuka	-4683
hekiniki	-4684
▁tsariwa	-4685
▁internal	-4686
▁xifundza	-4687
▁represent	-4688
▁tinyiketela	-4689
▁circumstances	-4690
ls	-4691
▁Ke	-4692
anti	-4693
▁sci	-4694
uniti	-4695
wanga	-4696
▁Siku	-4697
▁hoyo	-4698
▁rifu	-4699
▁Ripha	-4700
▁known	-4701
omestic	-4702
▁exercise	-4703
▁mphikizano	-4704
▁ntshamiseko	-4705
▁rhijisitara	-4706
els	-4707
▁mul	-4708
isiwi	-4709
▁liqu	-4710
▁check	-4711
▁subsi	-4712
▁waste	-4713
hanyelo	-4714
▁Vurimi	-4715
tability	-4716
▁comprom	-4717
▁Planning	-4718
▁Xivutiso	-4719
▁xitiviso	-4720
▁initiative	-4721
▁mintlhontlho	-4722
bly	-4723
chi	-4724
ose	-4725
miso	-4726
tisa	-4727
▁197	-4728
▁avo	-4729
▁mun	-4730
▁Econ	-4731
▁conn	-4732
phepha	-4733
▁fikele	-4734
▁moment	-4735
▁nsinya	-4736
hasipala	-4737
▁writing	-4738
▁Particip	-4739
▁consideration	-4740
Na	-4741
OT	-4742
▁KA	-4743
ured	-4744
▁She	-4745
▁Xin	-4746
▁Your	-4747
▁force	-4748
▁reser	-4749
▁ntikelo	-4750
▁ensuring	-4751
▁leyintshwa	-4752
▁tli	-4753
istic	-4754
▁vaka	-4755
▁valid	-4756
▁vukha	-4757
▁vilela	-4758
▁Ntwanano	-4759
▁excellen	-4760
▁determine	-4761
▁vutleketli	-4762
▁xiringanyeto	-4763
kara	-4764
▁Tat	-4765
▁vol	-4766
▁fall	-4767
▁pfhumba	-4768
▁tsakisa	-4769
▁twanana	-4770
▁election	-4771
▁evidence	-4772
▁nxungeto	-4773
▁effectively	-4774
MS	-4775
hans	-4776
▁brea	-4777
▁raise	-4778
▁Yuropa	-4779
▁famili	-4780
▁climate	-4781
▁contribute	-4782
9.	-4783
onst	-4784
▁Ass	-4785
iture	-4786
▁talk	-4787
mended	-4788
xinara	-4789
▁cause	-4790
▁ntalo	-4791
okodela	-4792
xopaxop	-4793
▁pleased	-4794
▁Training	-4795
▁permanent	-4796
▁rhumeriwa	-4797
▁governance	-4798
▁6.	-4799
▁Vi	-4800
tari	-4801
time	-4802
▁aid	-4803
▁susa	-4804
wandle	-4805
▁abuse	-4806
▁black	-4807
lations	-4808
pimanyeto	-4809
▁yintshwa	-4810
▁Executive	-4811
▁officials	-4812
▁individual	-4813
▁themselves	-4814
gov	-4815
xeka	-4816
▁etc	-4817
riage	-4818
▁Swin	-4819
▁tshika	-4820
dzidziha	-4821
▁potential	-4822
▁provisions	-4823
▁Home	-4824
▁endleke	-4825
▁vukheta	-4826
▁Secondly	-4827
▁langutis	-4828
▁nghenela	-4829
▁hileswaku	-4830
▁tsundzuxa	-4831
▁hlamuseriwa	-4832
▁Municipality	-4833
xin	-4834
▁Cri	-4835
▁Ple	-4836
▁sca	-4837
▁war	-4838
▁nono	-4839
▁absolu	-4840
▁effici	-4841
▁expand	-4842
▁extend	-4843
▁komisa	-4844
▁makumu	-4845
▁vulavisisi	-4846
▁swiringanyeto	-4847
fux	-4848
med	-4849
▁ki	-4850
▁100	-4851
▁Mav	-4852
▁plant	-4853
cations	-4854
▁ntlhontlho	-4855
▁legislature	-4856
RE	-4857
dequ	-4858
layi	-4859
▁NCOP	-4860
▁text	-4861
▁hlela	-4862
▁extent	-4863
▁method	-4864
avanyisi	-4865
▁allowed	-4866
▁express	-4867
▁Hinkwerhu	-4868
▁swiletelo	-4869
thi	-4870
▁IN	-4871
iselo	-4872
▁Inde	-4873
▁Regu	-4874
▁kayi	-4875
▁stri	-4876
▁unac	-4877
▁upon	-4878
▁tindz	-4879
▁Nhlayo	-4880
▁choice	-4881
▁simple	-4882
▁Firstly	-4883
▁actions	-4884
▁katsaka	-4885
▁br	-4886
riwi	-4887
xile	-4888
▁Org	-4889
▁Vum	-4890
▁bar	-4891
▁bor	-4892
▁mor	-4893
isted	-4894
▁deci	-4895
▁duty	-4896
cement	-4897
lotiki	-4898
▁Mbula	-4899
▁study	-4900
▁Rihanyo	-4901
▁respond	-4902
▁tivisiwa	-4903
▁continent	-4904
tla	-4905
lida	-4906
rely	-4907
▁Kuma	-4908
▁mbilu	-4909
vonkulu	-4910
▁kaneta	-4911
▁single	-4912
▁tivaka	-4913
ceptable	-4914
▁tiawara	-4915
fications	-4916
▁lulamile	-4917
▁papalata	-4918
▁vutshila	-4919
▁currently	-4920
▁mahanyelo	-4921
▁vamasipala	-4922
dzidziharisi	-4923
▁swifundzankulu	-4924
way	-4925
▁BI	-4926
▁av	-4927
▁ce	-4928
hile	-4929
xeke	-4930
▁198	-4931
▁Sum	-4932
▁Tod	-4933
▁ren	-4934
▁vit	-4935
▁Tata	-4936
▁cover	-4937
▁mirhi	-4938
▁sense	-4939
▁swimi	-4940
▁tsaka	-4941
▁pfuniwa	-4942
▁informed	-4943
▁timasipala	-4944
▁Agriculture	-4945
ERI	-4946
ror	-4947
▁Kumbe	-4948
▁Nhlang	-4949
▁Rights	-4950
▁mechan	-4951
▁thyaka	-4952
▁chayela	-4953
▁nyiketiwa	-4954
▁practical	-4955
▁solutions	-4956
▁unacceptable	-4957
tt	-4958
elwa	-4959
rayi	-4960
▁ina	-4961
ented	-4962
▁obli	-4963
▁ground	-4964
▁Xiphemu	-4965
▁Namuntlha	-4966
▁according	-4967
▁structure	-4968
▁leadership	-4969
▁initiatives	-4970
Xi	-4971
par	-4972
▁phu	-4973
▁cinc	-4974
tiviwa	-4975
▁tsevu	-4976
▁United	-4977
▁appear	-4978
▁hakelo	-4979
tiveness	-4980
▁Swikongomelo	-4981
OM	-4982
pment	-4983
▁aims	-4984
▁sepa	-4985
▁veke	-4986
▁Today	-4987
▁ntshu	-4988
▁offer	-4989
▁Please	-4990
▁kotaka	-4991
▁Tshwane	-4992
▁measure	-4993
▁mimpimo	-4994
▁Mabindzu	-4995
▁relating	-4996
▁vutshamo	-4997
▁addressed	-4998
ury	-4999
vile	-5000
yamu	-5001
cribe	-5002
▁Goza	-5003
▁away	-5004
▁rihi	-5005
purasi	-5006
yikelo	-5007
▁kondle	-5008
▁tlanga	-5009
ventions	-5010
▁greater	-5011
▁encourage	-5012
▁lahlekeriwa	-5013
▁au	-5014
▁eP	-5015
atal	-5016
cles	-5017
▁fra	-5018
▁vule	-5019
▁yaka	-5020
hovelo	-5021
liniki	-5022
ternal	-5023
▁Mpfum	-5024
▁Women	-5025
▁obser	-5026
▁Police	-5027
▁kumile	-5028
▁navelela	-5029
▁standard	-5030
▁elections	-5031
▁establishment	-5032
................	-5033
hari	-5034
inyi	-5035
kepe	-5036
bliki	-5037
folio	-5038
▁miri	-5039
making	-5040
▁export	-5041
▁xiletelo	-5042
▁vatekaxiave	-5043
LE	-5044
swi	-5045
▁FI	-5046
lity	-5047
matic	-5048
rated	-5049
▁2003	-5050
tlhari	-5051
▁Emplo	-5052
tistics	-5053
▁appeal	-5054
▁qhinga	-5055
▁vuleke	-5056
▁Miganga	-5057
▁reasona	-5058
▁herisiwa	-5059
▁happening	-5060
know	-5061
▁Mak	-5062
▁Vun	-5063
hleri	-5064
poses	-5065
▁figu	-5066
▁onha	-5067
▁sele	-5068
▁2011.	-5069
▁Nkoka	-5070
▁clini	-5071
▁lavan	-5072
▁might	-5073
▁occur	-5074
isekaka	-5075
kankulu	-5076
ungundz	-5077
▁duties	-5078
▁ekhoto	-5079
▁expect	-5080
▁makaya	-5081
▁powers	-5082
▁pulani	-5083
▁consequ	-5084
▁vunyingi	-5085
▁xinawana	-5086
▁amukerile	-5087
▁appointed	-5088
▁councillors	-5089
ELA	-5090
▁TO	-5091
▁Eku	-5092
▁mang	-5093
▁page	-5094
▁Human	-5095
▁enget	-5096
▁raised	-5097
keleriwa	-5098
▁pfuxeta	-5099
▁tikhamp	-5100
▁tirheni	-5101
▁tlakuka	-5102
▁ndhavuko	-5103
▁Da	-5104
▁eK	-5105
▁von	-5106
▁Vana	-5107
▁learn	-5108
▁events	-5109
▁miholo	-5110
▁Chapter	-5111
▁consist	-5112
▁tlhelela	-5113
▁maendlele	-5114
▁Information	-5115
▁Vaakindhawu	-5116
anu	-5117
ying	-5118
▁Mula	-5119
fuxeto	-5120
▁lavis	-5121
▁theme	-5122
▁confirm	-5123
▁elected	-5124
▁Economic	-5125
▁purposes	-5126
▁swimakiwa	-5127
'.	-5128
▁Ob	-5129
▁XA	-5130
▁Exa	-5131
▁Mon	-5132
anela	-5133
dress	-5134
▁dang	-5135
▁ntli	-5136
▁While	-5137
▁equal	-5138
▁noted	-5139
▁message	-5140
▁phakela	-5141
▁tingana	-5142
▁Matirhelo	-5143
▁equipment	-5144
▁kambisisa	-5145
▁nyikiwaka	-5146
▁sunguleni	-5147
▁ntshunxeko	-5148
▁institutional	-5149
yer	-5150
▁ali	-5151
▁1996	-5152
▁Bodo	-5153
istory	-5154
▁clari	-5155
▁influ	-5156
eration	-5157
▁Ndlela	-5158
▁mavito	-5159
▁obtain	-5160
▁parent	-5161
▁Kombisa	-5162
▁Mbuyelo	-5163
▁Speaker	-5164
▁instrum	-5165
▁priorit	-5166
▁distribu	-5167
▁material	-5168
▁beginning	-5169
▁additional	-5170
▁Nghingiriko	-5171
▁hlawuriweke	-5172
asi	-5173
MENT	-5174
▁Phe	-5175
▁don	-5176
pikara	-5177
▁Langu	-5178
▁Provi	-5179
▁forum	-5180
▁prosp	-5181
elonkulu	-5182
▁complex	-5183
▁tindzhawu	-5184
pon	-5185
rid	-5186
▁1:	-5187
thwa	-5188
▁cle	-5189
▁ena	-5190
fambo	-5191
olved	-5192
▁repe	-5193
▁sphe	-5194
▁tiny	-5195
▁type	-5196
▁wahi	-5197
▁Impro	-5198
▁joint	-5199
▁khopi	-5200
▁ntshe	-5201
▁nxavo	-5202
▁rates	-5203
▁reach	-5204
▁tihlo	-5205
▁xavisa	-5206
▁culture	-5207
▁product	-5208
▁testing	-5209
▁Hinkwaswo	-5210
▁byintshwa	-5211
▁dyondzisa	-5212
EP	-5213
xeni	-5214
▁pat	-5215
▁phy	-5216
▁East	-5217
member	-5218
▁visit	-5219
▁decide	-5220
▁values	-5221
xopaxopo	-5222
hakankulu	-5223
▁Ikhonomi	-5224
▁tiyimela	-5225
▁applicant	-5226
▁humelerile	-5227
▁indicators	-5228
▁mbulavurisano	-5229
bor	-5230
ood	-5231
put	-5232
teki	-5233
iseke	-5234
ofisi	-5235
▁harm	-5236
▁took	-5237
▁khume	-5238
▁vatho	-5239
▁Nkwama	-5240
▁prepared	-5241
▁resource	-5242
▁Maphorisa	-5243
▁hlawuriwa	-5244
▁mpfumaleko	-5245
▁transparency	-5246
▁il	-5247
tshe	-5248
▁arr	-5249
▁spi	-5250
andid	-5251
hangala	-5252
hongeri	-5253
isekeke	-5254
▁compet	-5255
▁crimin	-5256
▁direct	-5257
▁settle	-5258
▁khutaza	-5259
▁nyikaka	-5260
▁outcome	-5261
▁languages	-5262
hlawulekisi	-5263
▁compromise	-5264
▁lulamisela	-5265
▁xitifiketi	-5266
▁regulations	-5267
▁professional	-5268
10	-5269
bur	-5270
ought	-5271
▁chan	-5272
▁Every	-5273
▁Prote	-5274
▁range	-5275
▁tools	-5276
▁tsema	-5277
▁susiwa	-5278
▁Tirhisa	-5279
▁Provinces	-5280
▁khanselara	-5281
▁ringanyeta	-5282
▁tiyimiserile	-5283
PI	-5284
nel	-5285
tra	-5286
▁75	-5287
▁Yes	-5288
▁mud	-5289
▁bank	-5290
▁doub	-5291
▁pros	-5292
▁asked	-5293
▁launch	-5294
▁cinciwa	-5295
▁hoyozela	-5296
fapfarhuto	-5297
▁increasing	-5298
▁representative	-5299
▁swifundzhankulu	-5300
RI	-5301
ket	-5302
gree	-5303
▁nsi	-5304
erous	-5305
▁having	-5306
▁rhanga	-5307
▁xihoxo	-5308
▁xixima	-5309
▁Gauteng	-5310
▁created	-5311
▁looking	-5312
▁marriage	-5313
▁vadyondzisi	-5314
MO	-5315
ala	-5316
▁90	-5317
▁Bu	-5318
TIRH	-5319
lled	-5320
wani	-5321
▁Not	-5322
▁1997	-5323
▁pasi	-5324
handzu	-5325
▁byona	-5326
▁coord	-5327
▁pfala	-5328
enthara	-5329
vhesiti	-5330
▁Revenue	-5331
▁longolo	-5332
▁appointment	-5333
▁languteriwa	-5334
▁Commissioner	-5335
▁switsundzuxo	-5336
▁vakhanselara	-5337
);	-5338
jensi	-5339
▁riva	-5340
▁vuyi	-5341
▁Union	-5342
▁exclu	-5343
▁swisi	-5344
▁phepha	-5345
▁Limpopo	-5346
▁criteri	-5347
▁Provincial	-5348
▁conference	-5349
▁facilities	-5350
▁tinhlampfi	-5351
11	-5352
edu	-5353
▁Cer	-5354
famba	-5355
sungu	-5356
wunti	-5357
▁Child	-5358
▁break	-5359
▁byela	-5360
▁helela	-5361
▁tiveka	-5362
▁factors	-5363
TS	-5364
que	-5365
▁big	-5366
▁sea	-5367
▁Then	-5368
▁idea	-5369
▁defini	-5370
▁twisiseka	-5371
▁supporting	-5372
▁nhlanganelo	-5373
KU	-5374
sia	-5375
ubl	-5376
yiti	-5377
▁Pha	-5378
▁inj	-5379
▁jud	-5380
▁Over	-5381
▁kuna	-5382
▁sala	-5383
graphi	-5384
▁cycle	-5385
▁views	-5386
▁hlamar	-5387
▁kurisa	-5388
▁tifomo	-5389
▁Vulawuri	-5390
univhesiti	-5391
▁residents	-5392
▁tsundzuka	-5393
▁vupfhumba	-5394
▁switandzhaku	-5395
DC	-5396
gers	-5397
poto	-5398
wati	-5399
▁affi	-5400
▁teke	-5401
▁compa	-5402
▁providers	-5403
▁legislative	-5404
Act	-5405
mod	-5406
▁08	-5407
Nawu	-5408
▁hun	-5409
▁tsh	-5410
ening	-5411
▁fail	-5412
▁inno	-5413
▁nkhu	-5414
▁pati	-5415
gister	-5416
tiwile	-5417
yisiso	-5418
▁pheji	-5419
▁Facili	-5420
▁Manana	-5421
▁propor	-5422
▁Special	-5423
▁lawuriwa	-5424
▁rhangela	-5425
▁vuyerisa	-5426
▁phurogireme	-5427
▁Unfortunately	-5428
mic	-5429
xavi	-5430
ached	-5431
rises	-5432
▁phasa	-5433
▁phuro	-5434
▁tasks	-5435
xikarhi	-5436
▁Rihanyu	-5437
▁citizen	-5438
▁driving	-5439
▁enawini	-5440
▁primary	-5441
▁mundzuku	-5442
orobankulu	-5443
▁supported	-5444
▁competition	-5445
▁kongomisiwa	-5446
igh	-5447
vey	-5448
kimi	-5449
▁air	-5450
▁Xexo	-5451
▁trust	-5452
▁types	-5453
▁Centre	-5454
▁Strate	-5455
▁effort	-5456
wetlembe	-5457
▁decided	-5458
▁reference	-5459
▁tihlampfi	-5460
usa	-5461
vice	-5462
▁Use	-5463
▁VAT	-5464
▁net	-5465
▁Trade	-5466
▁pfula	-5467
ecurity	-5468
▁Yaleyo	-5469
▁coming	-5470
▁humaka	-5471
politiki	-5472
▁improving	-5473
▁guidelines	-5474
▁swidzidziharisi	-5475
weta	-5476
xame	-5477
▁Inf	-5478
▁mix	-5479
▁mpa	-5480
▁ndze	-5481
▁Kahle	-5482
▁Water	-5483
▁carry	-5484
▁creat	-5485
anyingi	-5486
▁Ladies	-5487
▁expend	-5488
▁history	-5489
▁khampani	-5490
▁hundzuluxa	-5491
▁seketeriwa	-5492
jo	-5493
ilu	-5494
tse	-5495
▁khon	-5496
▁koxa	-5497
▁draft	-5498
▁goals	-5499
▁refle	-5500
▁xinka	-5501
tations	-5502
▁Xedulu	-5503
▁acknow	-5504
▁compla	-5505
▁Project	-5506
▁limited	-5507
▁tshembe	-5508
▁mbulavulo	-5509
HO	-5510
cu	-5511
eks	-5512
▁28	-5513
▁LE	-5514
acob	-5515
sign	-5516
tside	-5517
▁Medi	-5518
▁tell	-5519
▁Chief	-5520
▁humes	-5521
▁leave	-5522
▁ngati	-5523
▁formal	-5524
▁endzeni	-5525
▁directly	-5526
▁nyikiwile	-5527
-2	-5528
fang	-5529
gues	-5530
wise	-5531
xika	-5532
▁emb	-5533
dzile	-5534
▁2012	-5535
inated	-5536
▁Amend	-5537
▁avoid	-5538
▁weeks	-5539
dequate	-5540
ections	-5541
▁Tatana	-5542
▁breast	-5543
▁owners	-5544
▁sayini	-5545
▁travel	-5546
▁ntlangu	-5547
▁approval	-5548
ungundzwana	-5549
▁businesses	-5550
▁everything	-5551
▁tanihilaha	-5552
HL	-5553
kani	-5554
kota	-5555
wisa	-5556
▁rhe	-5557
▁won	-5558
indza	-5559
▁2014	-5560
▁asse	-5561
▁hosp	-5562
▁yoxe	-5563
▁ahead	-5564
▁happy	-5565
▁altern	-5566
▁mother	-5567
▁tlhele	-5568
ciliation	-5569
▁external	-5570
▁kayivela	-5571
▁vuriweke	-5572
▁companies	-5573
3)	-5574
▁TA	-5575
thane	-5576
▁SAPS	-5577
▁bohi	-5578
▁drug	-5579
▁goal	-5580
▁palu	-5581
andlan	-5582
ongomi	-5583
▁ideas	-5584
▁sindz	-5585
ferense	-5586
▁nhloko	-5587
▁useful	-5588
▁tsarisa	-5589
▁elements	-5590
▁excellent	-5591
▁switiviwa	-5592
▁vukhongeri	-5593
▁vuyerisaka	-5594
HAT	-5595
ISI	-5596
▁27	-5597
isms	-5598
▁1.1	-5599
▁Vad	-5600
verse	-5601
▁Town	-5602
▁hele	-5603
lekile	-5604
▁hlula	-5605
endleko	-5606
kanelwa	-5607
▁vukati	-5608
eladyambu	-5609
▁xanisiwa	-5610
▁Authority	-5611
▁efficient	-5612
▁Ntirhisano	-5613
▁matikhomelo	-5614
▁congratulate	-5615
emp	-5616
▁22	-5617
▁31	-5618
ruit	-5619
▁Lab	-5620
▁flo	-5621
▁yan	-5622
milar	-5623
▁volun	-5624
▁rather	-5625
▁mavhiki	-5626
▁workpla	-5627
▁xitirho	-5628
▁accepted	-5629
▁mahlweni	-5630
▁Phurojeke	-5631
▁Mpimanyeto	-5632
▁expenditure	-5633
lid	-5634
▁Ms	-5635
kano	-5636
luko	-5637
riki	-5638
tify	-5639
▁lod	-5640
▁Form	-5641
▁vevu	-5642
▁weak	-5643
gation	-5644
hlahla	-5645
▁Forum	-5646
▁Paper	-5647
▁Indust	-5648
▁Policy	-5649
▁discri	-5650
▁guaran	-5651
▁mfungho	-5652
▁criteria	-5653
▁intended	-5654
▁maintain	-5655
▁milandzu	-5656
▁timakete	-5657
▁regarding	-5658
▁negotiations	-5659
lt	-5660
ash	-5661
ilt	-5662
sit	-5663
▁CC	-5664
▁em	-5665
▁jo	-5666
most	-5667
▁Ema	-5668
▁2007	-5669
▁Land	-5670
▁Lear	-5671
gative	-5672
▁claim	-5673
tsakelo	-5674
▁boheka	-5675
▁andlala	-5676
▁outside	-5677
▁succeed	-5678
▁Security	-5679
▁domestic	-5680
▁mafumelo	-5681
▁construction	-5682
ANG	-5683
bil	-5684
ile	-5685
ins	-5686
cula	-5687
yers	-5688
▁Def	-5689
▁Its	-5690
rehen	-5691
▁2002	-5692
▁publ	-5693
▁tiho	-5694
▁tiso	-5695
▁whom	-5696
▁acces	-5697
▁price	-5698
▁maxelo	-5699
▁transfer	-5700
▁swirhangana	-5701
▁interventions	-5702
▁ww	-5703
hele	-5704
▁www	-5705
▁anti	-5706
▁dest	-5707
▁side	-5708
▁xika	-5709
ulamis	-5710
▁announ	-5711
▁Finance	-5712
▁Mutirhi	-5713
▁Schedule	-5714
▁military	-5715
▁Vuswikoti	-5716
▁yingisela	-5717
▁hlengeleta	-5718
▁kondletela	-5719
▁administrative	-5720
mon	-5721
▁Sc	-5722
long	-5723
yisa	-5724
alana	-5725
▁Kapa	-5726
▁divi	-5727
▁late	-5728
▁send	-5729
unguby	-5730
▁Discus	-5731
▁During	-5732
▁yoleyo	-5733
ensation	-5734
▁Nomboro	-5735
▁phemiti	-5736
▁riqingho	-5737
▁mbhurisano	-5738
▁involvement	-5739
▁ir	-5740
hood	-5741
sical	-5742
▁auth	-5743
▁says	-5744
▁word	-5745
xavisi	-5746
▁House	-5747
▁class	-5748
thanete	-5749
▁accomp	-5750
▁minimum	-5751
▁started	-5752
▁station	-5753
▁ntshovelo	-5754
▁sunguriwa	-5755
▁absolutely	-5756
▁tiyisisiwa	-5757
enen	-5758
▁196	-5759
▁tar	-5760
chini	-5761
▁Here	-5762
▁tsana	-5763
angwini	-5764
pective	-5765
▁Ndhawu	-5766
▁behalf	-5767
▁content	-5768
▁fishing	-5769
▁tourism	-5770
▁employed	-5771
▁khumbeka	-5772
▁mikateko	-5773
▁hatlisisa	-5774
▁UN	-5775
gory	-5776
used	-5777
▁hal	-5778
▁rhur	-5779
though	-5780
yivelo	-5781
▁2013.	-5782
▁Youth	-5783
▁super	-5784
mahungu	-5785
mbisiso	-5786
▁Agency	-5787
▁conduc	-5788
▁manage	-5789
▁central	-5790
▁actually	-5791
▁maphepha	-5792
▁mitlangu	-5793
▁swisiwana	-5794
▁tirhisaka	-5795
WU	-5796
ancy	-5797
side	-5798
kwana	-5799
▁Fore	-5800
hatelo	-5801
▁durha	-5802
▁nyiki	-5803
▁quick	-5804
▁ready	-5805
▁angula	-5806
▁khumbhe	-5807
▁separate	-5808
▁Kavanyisa	-5809
▁difference	-5810
▁engeteleka	-5811
▁Phurogireme	-5812
▁relationship	-5813
▁accountability	-5814
HU	-5815
zo	-5816
tavu	-5817
tulu	-5818
▁bil	-5819
▁gain	-5820
estern	-5821
khombo	-5822
tivisi	-5823
▁recon	-5824
▁sound	-5825
▁signed	-5826
▁bumabum	-5827
▁demonst	-5828
▁anything	-5829
▁Amendment	-5830
▁Hileswaku	-5831
▁vutsoniwa	-5832
▁accountable	-5833
▁traditional	-5834
▁matikoxikaya	-5835
▁358	-5836
▁Nku	-5837
▁fri	-5838
▁lex	-5839
eleni	-5840
isini	-5841
kanya	-5842
▁Vaho	-5843
▁fire	-5844
coming	-5845
urance	-5846
▁exemp	-5847
▁vinyi	-5848
▁animal	-5849
▁likely	-5850
▁passed	-5851
▁titsar	-5852
lawulelo	-5853
tavuxika	-5854
xanisiwa	-5855
▁applied	-5856
▁concept	-5857
▁hanyaka	-5858
▁misinya	-5859
▁vhotela	-5860
▁vukhale	-5861
▁teachers	-5862
wetlembetano	-5863
lay	-5864
▁oc	-5865
yina	-5866
▁dya	-5867
logue	-5868
▁Lava	-5869
▁Such	-5870
▁Tech	-5871
▁xiya	-5872
encies	-5873
funeto	-5874
tiraka	-5875
▁bangi	-5876
▁gives	-5877
▁remar	-5878
ofisiri	-5879
rhalang	-5880
▁compon	-5881
▁Manager	-5882
▁Xiletelo	-5883
▁Xipikara	-5884
▁enelangi	-5885
▁hangalasa	-5886
▁tinhundzu	-5887
▁tisisiteme	-5888
▁Khotavuxika	-5889
▁xitatimende	-5890
▁facilitators	-5891
lamu	-5892
meke	-5893
ream	-5894
wala	-5895
sting	-5896
▁City	-5897
▁left	-5898
▁lost	-5899
▁vuli	-5900
▁alone	-5901
dential	-5902
▁voniwa	-5903
largement	-5904
▁Administ	-5905
▁Mulawuri	-5906
▁prevention	-5907
▁immediately	-5908
kwe	-5909
▁2:	-5910
▁36	-5911
tled	-5912
▁DHA	-5913
▁New	-5914
lwana	-5915
orary	-5916
▁norm	-5917
▁tack	-5918
▁tido	-5919
▁town	-5920
▁Premi	-5921
▁inten	-5922
▁liquor	-5923
anakanyo	-5924
▁Swiyenge	-5925
▁pfuxetiwa	-5926
▁Integrated	-5927
▁tinhlamulo	-5928
▁Environment	-5929
▁Vuhlayiseki	-5930
▁sirheleriwa	-5931
eral	-5932
▁11.	-5933
▁rule	-5934
▁seek	-5935
isteme	-5936
▁China	-5937
▁Inter	-5938
▁affor	-5939
▁early	-5940
isekile	-5941
▁Submit	-5942
▁sekete	-5943
▁tekaka	-5944
▁farmers	-5945
▁vumunhu	-5946
ulamiselo	-5947
▁landzaku	-5948
▁Mbulavulo	-5949
▁nkanerisano	-5950
hisa	-5951
▁muni	-5952
ghting	-5953
▁doubt	-5954
tionary	-5955
tsariwa	-5956
▁Report	-5957
▁kunene	-5958
▁placed	-5959
▁target	-5960
▁Makungu	-5961
▁arrange	-5962
▁empower	-5963
▁Tihakelo	-5964
▁conclusion	-5965
▁constitutional	-5966
khi	-5967
▁Vo	-5968
----	-5969
pril	-5970
rese	-5971
▁Nka	-5972
kumba	-5973
▁FIFA	-5974
tshami	-5975
▁akiwa	-5976
rayivhe	-5977
▁mavoko	-5978
tumbuluxi	-5979
▁tanihileswi	-5980
DL	-5981
eli	-5982
oma	-5983
▁sui	-5984
▁Cont	-5985
▁maxi	-5986
▁About	-5987
▁dealt	-5988
▁leswo	-5989
▁multi	-5990
▁hetisa	-5991
▁recent	-5992
▁rhamba	-5993
▁unless	-5994
▁Matimba	-5995
▁billion	-5996
▁hluleka	-5997
▁ntlimbo	-5998
▁humeleleni	-5999
▁constitution	-6000
ug	-6001
zed	-6002
enge	-6003
gine	-6004
lexi	-6005
yani	-6006
ility	-6007
tious	-6008
▁occa	-6009
vanuna	-6010
▁clean	-6011
▁nyama	-6012
▁roads	-6013
▁vital	-6014
yisweni	-6015
▁though	-6016
▁tiboha	-6017
▁endzela	-6018
▁muendli	-6019
▁reached	-6020
anisiweke	-6021
kongomiso	-6022
operative	-6023
▁xihundla	-6024
▁vutirheli	-6025
▁Nkunguhato	-6026
▁lavatsongo	-6027
▁tinyunguby	-6028
AR	-6029
AT	-6030
ies	-6031
▁(1	-6032
burg	-6033
hone	-6034
kele	-6035
▁fir	-6036
▁ves	-6037
▁Each	-6038
▁fees	-6039
▁pimi	-6040
cident	-6041
gories	-6042
ilding	-6043
▁board	-6044
▁heard	-6045
▁muako	-6046
▁swing	-6047
tsongwa	-6048
▁General	-6049
▁dealing	-6050
▁overall	-6051
▁vathori	-6052
rehensive	-6053
▁Vantshwa	-6054
▁leteriwa	-6055
▁maAfrika	-6056
▁tshamise	-6057
tification	-6058
▁reasonable	-6059
▁independent	-6060
▁xitirhisiwa	-6061
cer	-6062
ple	-6063
erve	-6064
▁(2)	-6065
▁EKA	-6066
▁mid	-6067
enced	-6068
ilure	-6069
▁Leri	-6070
▁news	-6071
alanga	-6072
▁Nghen	-6073
▁byala	-6074
▁nongo	-6075
▁aspect	-6076
▁saying	-6077
▁stress	-6078
▁tekile	-6079
▁thanks	-6080
▁unable	-6081
▁yimisa	-6082
▁Systems	-6083
▁consent	-6084
▁boxiweke	-6085
▁ndzhendz	-6086
▁negative	-6087
hundzuluxi	-6088
▁conducted	-6089
▁makanelwa	-6090
▁humeleleke	-6091
▁individuals	-6092
8.	-6093
MP	-6094
SI	-6095
ert	-6096
hes	-6097
ney	-6098
▁LO	-6099
haps	-6100
sini	-6101
▁Aid	-6102
▁ago	-6103
▁eli	-6104
elson	-6105
langa	-6106
utisa	-6107
▁kule	-6108
▁poso	-6109
▁2014.	-6110
▁ngari	-6111
▁Vumaki	-6112
▁former	-6113
▁mining	-6114
▁yindlu	-6115
▁Further	-6116
▁ndzhaka	-6117
rayivhete	-6118
▁Organisa	-6119
▁Register	-6120
▁senthara	-6121
uthorities	-6122
▁hundzisela	-6123
▁integrated	-6124
tsongwatsong	-6125
sta	-6126
▁EN	-6127
hete	-6128
ziva	-6129
▁Cin	-6130
▁deta	-6131
▁goes	-6132
▁teki	-6133
cember	-6134
▁ekule	-6135
▁hloni	-6136
▁khome	-6137
hansele	-6138
▁corpor	-6139
▁tisola	-6140
▁swifuwo	-6141
▁victims	-6142
▁hakelela	-6143
▁nghenele	-6144
▁workplace	-6145
▁Convention	-6146
▁xirhangana	-6147
▁xithekiniki	-6148
Ku	-6149
vut	-6150
▁ala	-6151
▁reg	-6152
▁yel	-6153
ctory	-6154
tures	-6155
▁tihi	-6156
opaxop	-6157
prises	-6158
siwana	-6159
visiwa	-6160
▁built	-6161
yankulu	-6162
▁exceed	-6163
▁threat	-6164
isheries	-6165
▁growing	-6166
▁adoption	-6167
▁tikeriwa	-6168
▁vambirhi	-6169
▁vaviseka	-6170
▁hinkwabyo	-6171
▁swintshwa	-6172
▁sufficient	-6173
▁represented	-6174
▁vukungundzwana	-6175
lus	-6176
dzam	-6177
▁500	-6178
▁site	-6179
▁April	-6180
▁scale	-6181
▁seems	-6182
▁spend	-6183
timente	-6184
▁grants	-6185
▁mpahla	-6186
▁njheka	-6187
▁nkwama	-6188
▁please	-6189
▁mandate	-6190
▁numbers	-6191
▁someone	-6192
▁tirhisi	-6193
tatimende	-6194
▁December	-6195
▁Tindhawu	-6196
▁acceptable	-6197
▁proportion	-6198
▁vutitivisi	-6199
▁governments	-6200
▁investigation	-6201
▁vutihlanganisi	-6202
GE	-6203
pute	-6204
▁LES	-6205
cking	-6206
enior	-6207
mises	-6208
socha	-6209
▁High	-6210
▁Vona	-6211
▁kasi	-6212
▁pass	-6213
ercial	-6214
tative	-6215
▁Apply	-6216
▁Hlawu	-6217
▁Swilo	-6218
▁White	-6219
▁model	-6220
▁union	-6221
▁engage	-6222
▁tafula	-6223
▁wanted	-6224
khawunti	-6225
▁healthy	-6226
▁sayense	-6227
▁vhotile	-6228
andlanene	-6229
▁muyimeri	-6230
▁khamphani	-6231
▁vatirhela	-6232
▁integration	-6233
▁languteriweke	-6234
▁njhekajekisano	-6235
mpt	-6236
▁win	-6237
kitsi	-6238
▁Work	-6239
morrow	-6240
visory	-6241
▁March	-6242
▁heart	-6243
▁pregn	-6244
enenene	-6245
▁Nelson	-6246
▁candid	-6247
▁tabled	-6248
▁accredi	-6249
▁Business	-6250
▁tomorrow	-6251
▁langutiwa	-6252
▁manyikelo	-6253
▁efficiency	-6254
▁hundzuluxo	-6255
▁amukeriwile	-6256
▁consequences	-6257
▁Swifundzhankulu	-6258
SSA	-6259
cro	-6260
kon	-6261
lli	-6262
hoto	-6263
▁Dec	-6264
▁Inc	-6265
▁pim	-6266
Natal	-6267
▁Most	-6268
▁xite	-6269
cetelo	-6270
▁Inves	-6271
▁paper	-6272
tically	-6273
▁Xikaya	-6274
▁collea	-6275
▁doroba	-6276
▁rhekhodo	-6277
▁hlayiseka	-6278
▁hluvukaka	-6279
▁tlakusiwa	-6280
▁categories	-6281
▁statistics	-6282
▁tipolotiki	-6283
uly	-6284
ecut	-6285
lawo	-6286
mage	-6287
dzana	-6288
▁laws	-6289
▁mach	-6290
▁siva	-6291
▁Dziva	-6292
▁excep	-6293
▁presi	-6294
▁facing	-6295
▁pasisa	-6296
▁Western	-6297
▁advance	-6298
▁affairs	-6299
▁partner	-6300
▁variety	-6301
▁landzela	-6302
▁tiyisiwa	-6303
▁Chairperson	-6304
▁applications	-6305
▁developments	-6306
hume	-6307
lier	-6308
ungh	-6309
▁Gra	-6310
▁NGA	-6311
▁ban	-6312
eding	-6313
lined	-6314
▁Mawu	-6315
▁SADC	-6316
▁easi	-6317
anyisa	-6318
▁comes	-6319
▁occup	-6320
▁worth	-6321
kamberi	-6322
dzamhala	-6323
▁Address	-6324
▁hinkwako	-6325
▁students	-6326
▁hungutiwa	-6327
rhalanganyi	-6328
▁Kahlekahle	-6329
▁Riphabliki	-6330
▁completely	-6331
▁kahlekahle	-6332
▁submission	-6333
mbab	-6334
mbho	-6335
mits	-6336
reci	-6337
vise	-6338
▁Hon	-6339
▁Sci	-6340
▁pac	-6341
hunga	-6342
▁Free	-6343
▁Mats	-6344
▁Only	-6345
▁milk	-6346
▁rero	-6347
▁yile	-6348
fundza	-6349
▁explo	-6350
rations	-6351
▁Summit	-6352
▁causes	-6353
▁kumaka	-6354
▁chavisa	-6355
▁dispute	-6356
▁cultural	-6357
▁feedback	-6358
▁heteleleni	-6359
etro	-6360
tala	-6361
▁quo	-6362
redit	-6363
▁Give	-6364
▁basa	-6365
▁deep	-6366
▁maku	-6367
▁radi	-6368
dzweni	-6369
kisiwa	-6370
▁Mpimo	-6371
▁Since	-6372
untshwa	-6373
▁kumiwa	-6374
▁animals	-6375
▁ndzhaku	-6376
▁vuhleri	-6377
▁materials	-6378
▁hangalasiwa	-6379
▁transformation	-6380
▁Wu	-6381
book	-6382
godi	-6383
yala	-6384
▁Ins	-6385
▁eti	-6386
going	-6387
mbile	-6388
tshan	-6389
▁chava	-6390
▁entry	-6391
▁hlamb	-6392
▁notes	-6393
▁shows	-6394
ourable	-6395
ression	-6396
biliyoni	-6397
ological	-6398
▁Communi	-6399
▁appreci	-6400
▁applying	-6401
▁tivikana	-6402
▁yelanaka	-6403
▁Tanihilaha	-6404
▁confidence	-6405
▁mianakanyo	-6406
▁seketelaka	-6407
▁simekiwile	-6408
▁association	-6409
▁discussions	-6410
▁Xifundzankulu	-6411
▁representation	-6412
,"	-6413
lip	-6414
ths	-6415
mune	-6416
pite	-6417
ront	-6418
▁SWA	-6419
▁Tho	-6420
▁tou	-6421
mbele	-6422
qweta	-6423
▁Find	-6424
▁Tool	-6425
▁self	-6426
kitara	-6427
ourism	-6428
rexini	-6429
▁Rimba	-6430
▁hakeri	-6431
▁kandzi	-6432
▁linked	-6433
alamende	-6434
vulavuri	-6435
▁Tsundzu	-6436
▁ability	-6437
▁amended	-6438
▁happens	-6439
▁produce	-6440
▁vavhoti	-6441
▁dialogue	-6442
▁vonakaka	-6443
hlokomhaka	-6444
hundzuluxo	-6445
▁Masungulo	-6446
▁operation	-6447
▁tikonkulu	-6448
▁landzeleriwa	-6449
ara	-6450
dle	-6451
▁80	-6452
lala	-6453
ored	-6454
▁Non	-6455
▁led	-6456
▁ver	-6457
forms	-6458
isati	-6459
▁fung	-6460
ancial	-6461
hlayis	-6462
▁calls	-6463
▁giving	-6464
▁states	-6465
formance	-6466
lidarity	-6467
▁entitled	-6468
wamapurasi	-6469
▁certified	-6470
▁mitsakelo	-6471
tsongwatsongwana	-6472
qa	-6473
adi	-6474
dra	-6475
andi	-6476
loni	-6477
▁half	-6478
▁woxe	-6479
ground	-6480
▁blood	-6481
▁hlamu	-6482
▁titwa	-6483
orobeni	-6484
▁Foramu	-6485
▁figures	-6486
▁consumer	-6487
▁Vutirheli	-6488
▁agreements	-6489
▁inequality	-6490
▁mechanisms	-6491
▁tidokumende	-6492
kongomelonkulu	-6493
care	-6494
loye	-6495
mpfa	-6496
ology	-6497
▁ambi	-6498
▁mark	-6499
▁proc	-6500
alango	-6501
mbabwe	-6502
rought	-6503
▁light	-6504
etiweke	-6505
▁Assess	-6506
▁discre	-6507
▁equality	-6508
▁diversity	-6509
▁kombisile	-6510
▁tsariweke	-6511
wendzamhala	-6512
.)	-6513
xik	-6514
▁IS	-6515
roud	-6516
viso	-6517
▁Tis	-6518
▁adj	-6519
▁bad	-6520
▁tri	-6521
aneni	-6522
etiwa	-6523
hwalo	-6524
ition	-6525
lorhi	-6526
▁Kuna	-6527
▁near	-6528
▁onge	-6529
▁vady	-6530
nesses	-6531
▁Stand	-6532
komberi	-6533
ographi	-6534
▁Labour	-6535
▁Magoza	-6536
▁obvious	-6537
▁vulavur	-6538
▁nhlayelo	-6539
▁tshembeka	-6540
▁industrial	-6541
▁throughout	-6542
▁Nyenyankulu	-6543
▁authorities	-6544
▁tinyungubyisa	-6545
CC	-6546
ea	-6547
rs	-6548
cks	-6549
dia	-6550
mat	-6551
▁eM	-6552
yeri	-6553
▁GDP	-6554
▁fla	-6555
▁khe	-6556
gence	-6557
▁Fomo	-6558
▁exch	-6559
reness	-6560
▁mahlo	-6561
imbabwe	-6562
▁charac	-6563
▁meaning	-6564
▁resolve	-6565
▁creating	-6566
▁lavisisa	-6567
▁physical	-6568
▁premises	-6569
▁highlight	-6570
▁inthanete	-6571
▁temporary	-6572
▁facilitate	-6573
▁hlamuseriweke	-6574
▁tumbuluxiwile	-6575
."	-6576
FU	-6577
apa	-6578
tha	-6579
fect	-6580
lexo	-6581
mbha	-6582
rugg	-6583
▁shi	-6584
eriwe	-6585
gious	-6586
khuva	-6587
thern	-6588
▁Good	-6589
▁unit	-6590
▁urge	-6591
▁wide	-6592
xekile	-6593
▁Under	-6594
▁magon	-6595
▁mista	-6596
▁moder	-6597
▁masangu	-6598
▁mafundza	-6599
▁mihandzu	-6600
▁vuriwile	-6601
▁akhawunti	-6602
▁fambisiwa	-6603
▁tlhontlho	-6604
▁compliance	-6605
▁murhangeri	-6606
▁enlargement	-6607
▁distribution	-6608
▁discrimination	-6609
ass	-6610
▁32	-6611
▁nu	-6612
▁aud	-6613
dyana	-6614
rable	-6615
foliyo	-6616
yakayo	-6617
▁cross	-6618
▁older	-6619
▁proud	-6620
outhern	-6621
▁assign	-6622
▁mixavo	-6623
▁vulner	-6624
▁Xiphiqo	-6625
▁criminal	-6626
▁hinkwaxo	-6627
▁leyinene	-6628
▁provider	-6629
government	-6630
▁Kumbexana	-6631
▁Transport	-6632
▁inspector	-6633
▁nkayakayo	-6634
▁portfolio	-6635
▁xikambelo	-6636
▁ePalamende	-6637
▁swivumbeko	-6638
▁Directorate	-6639
▁perspective	-6640
▁pfumeleleni	-6641
▁undertaking	-6642
▁vutumbuluxi	-6643
▁partnerships	-6644
▁swihlawulekisi	-6645
(1)	-6646
acy	-6647
bit	-6648
hli	-6649
ump	-6650
▁MI	-6651
▁hy	-6652
pped	-6653
ental	-6654
▁Part	-6655
▁Road	-6656
▁room	-6657
angulo	-6658
hlapfa	-6659
lekaka	-6660
timate	-6661
▁tinyi	-6662
theless	-6663
▁assets	-6664
▁charge	-6665
▁tihuvo	-6666
▁tolove	-6667
leriweke	-6668
sibility	-6669
▁Discuss	-6670
▁summary	-6671
▁Vululami	-6672
▁contract	-6673
▁district	-6674
▁families	-6675
▁followed	-6676
▁mutswari	-6677
▁vuyelela	-6678
▁Framework	-6679
▁Mufambisi	-6680
▁leswinene	-6681
▁vavevukisi	-6682
EKE	-6683
phy	-6684
▁FET	-6685
▁nor	-6686
▁vux	-6687
▁Note	-6688
gional	-6689
▁credi	-6690
▁ekaya	-6691
▁advice	-6692
▁listed	-6693
▁regret	-6694
▁tshiki	-6695
▁designed	-6696
▁fanelaka	-6697
▁hundzuka	-6698
▁opposite	-6699
▁swiendlo	-6700
▁Companies	-6701
▁complaint	-6702
▁continues	-6703
▁ntshuxeko	-6704
▁Environmental	-6705
▁Ve	-6706
huti	-6707
▁chu	-6708
▁wit	-6709
eleko	-6710
▁dign	-6711
▁phen	-6712
▁plen	-6713
aching	-6714
hakeri	-6715
▁Cinca	-6716
▁khoso	-6717
▁secre	-6718
mentary	-6719
▁commen	-6720
▁envisa	-6721
▁spirit	-6722
▁vessel	-6723
▁walowo	-6724
▁Freedom	-6725
▁Ntsengo	-6726
▁contrib	-6727
▁vehicles	-6728
▁endhawini	-6729
▁Hambileswi	-6730
▁Ndzavisiso	-6731
▁solidarity	-6732
▁switshunxo	-6733
▁agriculture	-6734
▁mikanerisano	-6735
▁participatory	-6736
are	-6737
ete	-6738
hind	-6739
laya	-6740
▁hay	-6741
rison	-6742
▁Make	-6743
▁loss	-6744
▁mafu	-6745
▁vuya	-6746
▁evalu	-6747
▁makho	-6748
▁mindz	-6749
▁parli	-6750
▁susum	-6751
▁medium	-6752
▁source	-6753
▁urgent	-6754
▁vuenti	-6755
cription	-6756
▁Premier	-6757
▁Xitirho	-6758
▁methods	-6759
▁olovisa	-6760
▁prepare	-6761
▁reflect	-6762
▁presented	-6763
▁published	-6764
▁swileriso	-6765
AND	-6766
gies	-6767
guva	-6768
romo	-6769
welo	-6770
yisi	-6771
▁Rhi	-6772
▁spo	-6773
chisi	-6774
labor	-6775
▁Port	-6776
▁Post	-6777
▁huge	-6778
ingano	-6779
tiyiso	-6780
walungu	-6781
▁Nation	-6782
▁tekeri	-6783
tsakanyo	-6784
▁formula	-6785
▁Nhlayiso	-6786
▁ndzingan	-6787
▁vavanuna	-6788
▁consumers	-6789
▁swifundza	-6790
▁khumbhekaka	-6791
▁intervention	-6792
▁comprehensive	-6793
17	-6794
▁z	-6795
aly	-6796
bya	-6797
econ	-6798
load	-6799
mali	-6800
▁3.1	-6801
▁div	-6802
▁fea	-6803
pping	-6804
▁item	-6805
fisini	-6806
▁Third	-6807
usayiti	-6808
▁Xiboho	-6809
▁copies	-6810
▁mipimo	-6811
▁rendzo	-6812
▁speech	-6813
lavisisi	-6814
▁Tinxaka	-6815
▁exactly	-6816
▁quickly	-6817
tliliniki	-6818
▁facility	-6819
▁interpre	-6820
▁obtained	-6821
hotifoliyo	-6822
▁influence	-6823
▁Mpfumelelo	-6824
▁designated	-6825
RSA	-6826
zet	-6827
▁lu	-6828
tages	-6829
where	-6830
▁cash	-6831
▁mpha	-6832
▁adver	-6833
▁along	-6834
▁kwala	-6835
wankulu	-6836
▁Improve	-6837
▁Nations	-6838
▁brought	-6839
▁linkage	-6840
▁Facilita	-6841
▁letikulu	-6842
▁passport	-6843
▁hlamarisa	-6844
▁langutisiwa	-6845
▁malulamiselo	-6846
▁qualifications	-6847
UR	-6848
ming	-6849
stry	-6850
▁From	-6851
▁comb	-6852
▁xoxe	-6853
▁vumbi	-6854
▁whose	-6855
▁behind	-6856
▁brings	-6857
▁ntsako	-6858
seketeri	-6859
▁covered	-6860
sunguleni	-6861
▁tinghozi	-6862
▁affecting	-6863
▁character	-6864
▁tsakelaka	-6865
▁colleagues	-6866
▁hakanyingi	-6867
▁tlherisela	-6868
▁Performance	-6869
▁fikeleriwile	-6870
▁Constitutional	-6871
CE	-6872
iry	-6873
pid	-6874
▁Day	-6875
▁Feb	-6876
▁jus	-6877
clear	-6878
endzi	-6879
gency	-6880
tweni	-6881
▁rini	-6882
▁susp	-6883
terile	-6884
verage	-6885
▁2010.	-6886
▁Allow	-6887
▁names	-6888
▁scope	-6889
vations	-6890
▁manager	-6891
▁markets	-6892
▁similar	-6893
▁ehleketi	-6894
▁kaneriwa	-6895
▁thinking	-6896
▁xifaniso	-6897
▁Swinawana	-6898
▁satisfied	-6899
▁xikweleti	-6900
▁recognised	-6901
▁kombisiweke	-6902
▁langutaneke	-6903
▁implementing	-6904
▁vulavurisana	-6905
DA	-6906
ME	-6907
lg	-6908
body	-6909
wula	-6910
▁Bud	-6911
▁Out	-6912
▁Vup	-6913
celwa	-6914
urban	-6915
uteri	-6916
▁code	-6917
▁hafu	-6918
jected	-6919
▁Crime	-6920
▁anama	-6921
▁apart	-6922
▁conso	-6923
▁sport	-6924
chayeri	-6925
▁Tifomo	-6926
▁fikile	-6927
▁strugg	-6928
umalanga	-6929
▁enhance	-6930
▁Mayelana	-6931
▁remember	-6932
▁Swivutiso	-6933
▁commercial	-6934
▁lamatsongo	-6935
▁xipolitiki	-6936
CD	-6937
RIC	-6938
ero	-6939
mal	-6940
▁Am	-6941
ingu	-6942
vele	-6943
▁Two	-6944
▁Vate	-6945
▁buku	-6946
▁cohe	-6947
▁depo	-6948
▁mala	-6949
▁topi	-6950
hurofe	-6951
▁aimed	-6952
▁speed	-6953
▁vuyis	-6954
▁Indeed	-6955
▁author	-6956
▁lulama	-6957
▁Tourism	-6958
▁dignity	-6959
▁michini	-6960
▁nkhensa	-6961
▁offence	-6962
▁qualify	-6963
▁relates	-6964
▁sources	-6965
▁Vuleteri	-6966
▁contrary	-6967
▁detailed	-6968
▁original	-6969
▁employers	-6970
▁ownership	-6971
▁residence	-6972
▁achievement	-6973
TA	-6974
VE	-6975
▁RI	-6976
ason	-6977
fumu	-6978
hati	-6979
rete	-6980
rily	-6981
rust	-6982
▁ANC	-6983
▁Bec	-6984
▁bro	-6985
▁mab	-6986
▁tib	-6987
▁yes	-6988
ghted	-6989
▁euro	-6990
▁hany	-6991
▁outs	-6992
ngopfu	-6993
▁Ameri	-6994
▁added	-6995
▁hands	-6996
▁nhlay	-6997
▁parts	-6998
▁repla	-6999
▁sensi	-7000
hlawulo	-7001
▁Safety	-7002
▁Tsalwa	-7003
▁anyone	-7004
▁clinic	-7005
▁disapp	-7006
▁hayona	-7007
▁ladies	-7008
leriwile	-7009
▁Example	-7010
▁constru	-7011
hampfhuka	-7012
▁burisana	-7013
▁matlhari	-7014
▁Ministers	-7015
▁nkayivelo	-7016
▁tilevhele	-7017
▁proceedings	-7018
▁tikhamphani	-7019
plg	-7020
mati	-7021
wang	-7022
▁Nor	-7023
▁beg	-7024
iring	-7025
ously	-7026
▁Lang	-7027
▁jeka	-7028
▁lova	-7029
▁tshu	-7030
afrika	-7031
▁eKapa	-7032
▁facts	-7033
▁flexi	-7034
▁roles	-7035
▁Bindzu	-7036
▁veleka	-7037
amentary	-7038
chuchisi	-7039
economic	-7040
▁hileswi	-7041
▁heleleke	-7042
▁According	-7043
▁Minhlangano	-7044
▁alternative	-7045
▁hundziseriwa	-7046
HI	-7047
au	-7048
▁39	-7049
▁dz	-7050
▁Key	-7051
▁Yet	-7052
▁got	-7053
▁ill	-7054
anana	-7055
omiso	-7056
other	-7057
▁came	-7058
▁fine	-7059
henelo	-7060
▁2007.	-7061
▁Promo	-7062
▁solve	-7063
▁voice	-7064
▁Hilaha	-7065
▁vonile	-7066
▁gingiri	-7067
▁spheres	-7068
▁difficul	-7069
▁Financial	-7070
indzakhombo	-7071
▁complaints	-7072
▁vatirhisani	-7073
▁hundzuluxiwa	-7074
YA	-7075
▁46	-7076
▁7.	-7077
ator	-7078
ause	-7079
heid	-7080
plan	-7081
▁PRO	-7082
▁vup	-7083
times	-7084
wable	-7085
▁Vito	-7086
▁bear	-7087
▁kuce	-7088
▁mimp	-7089
▁seed	-7090
▁swia	-7091
ducing	-7092
heleko	-7093
▁Eskom	-7094
wakudya	-7095
▁Access	-7096
▁economi	-7097
▁failure	-7098
▁invited	-7099
▁managed	-7100
▁precise	-7101
▁xopaxop	-7102
hlayiselo	-7103
▁pasisiwa	-7104
▁awareness	-7105
▁organised	-7106
▁stability	-7107
▁mihundzuluxo	-7108
tch	-7109
▁LA	-7110
▁ed	-7111
bedl	-7112
hest	-7113
iter	-7114
utri	-7115
year	-7116
▁Tax	-7117
▁xan	-7118
hloko	-7119
onses	-7120
▁Rela	-7121
▁Take	-7122
▁Tind	-7123
▁regi	-7124
▁sani	-7125
▁enfor	-7126
▁extra	-7127
▁vaaka	-7128
▁Corpor	-7129
▁behavi	-7130
▁kavany	-7131
▁scheme	-7132
▁terror	-7133
▁answers	-7134
▁Language	-7135
▁Nhlamulo	-7136
▁swidingo	-7137
▁Vaholobye	-7138
▁consensus	-7139
▁personnel	-7140
▁practition	-7141
▁swikweleti	-7142
▁requirement	-7143
▁nkwetlembetano	-7144
af	-7145
band	-7146
fuge	-7147
haxi	-7148
xihi	-7149
▁ful	-7150
▁haz	-7151
cture	-7152
earch	-7153
phiki	-7154
▁endl	-7155
▁quar	-7156
xekeke	-7157
▁1994.	-7158
▁Febru	-7159
▁Never	-7160
▁comba	-7161
▁items	-7162
▁mathe	-7163
▁story	-7164
▁truth	-7165
▁amongst	-7166
▁vantima	-7167
▁Regional	-7168
▁Tinhlayo	-7169
▁exchange	-7170
▁lavakulu	-7171
▁lerinene	-7172
▁tihofisi	-7173
▁Vufambisi	-7174
▁amukeleka	-7175
▁delegates	-7176
▁nxopaxopo	-7177
▁vafambisi	-7178
▁mabiliyoni	-7179
▁nhlayiseko	-7180
▁operations	-7181
governmental	-7182
▁Tiphurojeke	-7183
▁achievements	-7184
▁Participation	-7185
▁Administration	-7186
IA	-7187
lot	-7188
yin	-7189
▁Ge	-7190
chav	-7191
rink	-7192
▁Xip	-7193
▁bul	-7194
▁eho	-7195
tichi	-7196
▁fear	-7197
▁risi	-7198
▁sets	-7199
▁tsho	-7200
▁exten	-7201
▁integ	-7202
▁Action	-7203
▁koloko	-7204
▁spread	-7205
▁Because	-7206
▁Certifi	-7207
▁morning	-7208
▁spatial	-7209
▁Sisiteme	-7210
▁Swakudya	-7211
▁benefici	-7212
▁relation	-7213
▁kombisaka	-7214
▁promoting	-7215
▁processing	-7216
▁developmental	-7217
ams	-7218
uts	-7219
▁Hu	-7220
kali	-7221
lish	-7222
reet	-7223
▁Stu	-7224
ishes	-7225
isiwe	-7226
orisi	-7227
phasi	-7228
ranch	-7229
▁Even	-7230
▁nkha	-7231
▁told	-7232
anding	-7233
entage	-7234
filung	-7235
holder	-7236
tition	-7237
▁murhi	-7238
▁owner	-7239
▁pursu	-7240
kulorhi	-7241
▁courts	-7242
▁kusuka	-7243
▁laveki	-7244
▁tinhla	-7245
▁highest	-7246
▁setting	-7247
▁sitting	-7248
▁timinete	-7249
▁vevukisa	-7250
▁vilerisa	-7251
▁Swiletelo	-7252
▁contained	-7253
▁envisaged	-7254
▁lebyikulu	-7255
▁marketing	-7256
▁statements	-7257
▁veterinary	-7258
▁xinkadyana	-7259
▁Registration	-7260
ITY	-7261
gwe	-7262
requ	-7263
▁Pan	-7264
▁Tsa	-7265
elexo	-7266
ering	-7267
▁Have	-7268
▁Last	-7269
▁bohe	-7270
▁xiha	-7271
▁SASSA	-7272
▁Those	-7273
▁Xirho	-7274
▁input	-7275
▁kaner	-7276
dyaxihi	-7277
▁Review	-7278
▁xaxame	-7279
▁mimfumo	-7280
▁offices	-7281
istrexini	-7282
▁Exikarhi	-7283
▁involves	-7284
▁mpfuxeto	-7285
▁schedule	-7286
▁vusiwana	-7287
col	-7288
tan	-7289
vit	-7290
dvan	-7291
pula	-7292
puts	-7293
wenu	-7294
yond	-7295
▁lif	-7296
▁mum	-7297
▁Bank	-7298
▁Grou	-7299
▁Year	-7300
▁join	-7301
▁ntse	-7302
▁Offic	-7303
▁track	-7304
▁bohaka	-7305
▁Democra	-7306
▁Institu	-7307
▁granted	-7308
▁treated	-7309
kulukumba	-7310
▁Southern	-7311
▁hetisisa	-7312
▁Mimbuyelo	-7313
▁Mudyaxihi	-7314
▁tinomboro	-7315
▁xifundzha	-7316
▁collective	-7317
▁undertaken	-7318
▁Mutshamaxitulu	-7319
▁Tinhlengeletano	-7320
VU	-7321
gs	-7322
ISA	-7323
kes	-7324
ton	-7325
fund	-7326
▁Cup	-7327
▁MEC	-7328
▁Sep	-7329
ingha	-7330
ulano	-7331
▁List	-7332
▁stay	-7333
▁tila	-7334
humele	-7335
lekeke	-7336
▁Their	-7337
▁endor	-7338
▁etind	-7339
▁grate	-7340
▁highli	-7341
▁option	-7342
▁xikepe	-7343
▁xipano	-7344
▁cincile	-7345
▁finance	-7346
▁focused	-7347
▁maximum	-7348
▁receipt	-7349
▁tshungu	-7350
▁Senthara	-7351
▁agencies	-7352
▁disadvan	-7353
▁dokodela	-7354
▁reported	-7355
▁rhurhela	-7356
▁susumeta	-7357
▁swipfuno	-7358
muneration	-7359
▁promotion	-7360
▁background	-7361
▁Vusirheleri	-7362
▁participating	-7363
hop	-7364
org	-7365
ober	-7366
test	-7367
tiso	-7368
▁Nxa	-7369
▁PMS	-7370
▁Vak	-7371
▁clu	-7372
ronic	-7373
uhari	-7374
▁core	-7375
▁dead	-7376
▁ding	-7377
▁masi	-7378
▁rail	-7379
tember	-7380
▁Again	-7381
▁nyany	-7382
▁white	-7383
kombiso	-7384
▁herile	-7385
▁sayina	-7386
▁vuyele	-7387
ongomiwa	-7388
▁options	-7389
▁tirhile	-7390
▁Children	-7391
▁grateful	-7392
▁hospital	-7393
▁properly	-7394
ectiveness	-7395
▁indicated	-7396
▁consistent	-7397
▁lowuntshwa	-7398
▁Migingiriko	-7399
▁titsarisela	-7400
▁makunguhatelo	-7401
lon	-7402
buku	-7403
lent	-7404
visi	-7405
▁Can	-7406
▁khi	-7407
angwa	-7408
xirho	-7409
▁Char	-7410
▁Dist	-7411
▁Name	-7412
▁Well	-7413
phikiz	-7414
▁Refer	-7415
diarity	-7416
hanyisa	-7417
▁Govern	-7418
▁Vuxaka	-7419
▁Yindlu	-7420
▁basisa	-7421
▁tatiwa	-7422
▁tilula	-7423
▁xelexo	-7424
bedlhele	-7425
hundzulo	-7426
▁Mitlawa	-7427
▁operate	-7428
▁kusuhani	-7429
▁delivered	-7430
▁reporting	-7431
▁requested	-7432
▁substance	-7433
▁Swikombiso	-7434
▁represents	-7435
▁unemployed	-7436
▁Xitifikheti	-7437
▁rhangisiwaka	-7438
US	-7439
sh	-7440
kun	-7441
osi	-7442
▁55	-7443
koma	-7444
teni	-7445
yara	-7446
prise	-7447
▁THAT	-7448
simeki	-7449
▁Clear	-7450
▁leyin	-7451
▁lower	-7452
lamente	-7453
udicial	-7454
▁Associ	-7455
▁Hikuva	-7456
▁School	-7457
▁asking	-7458
▁listen	-7459
▁motion	-7460
▁vukona	-7461
▁Eastern	-7462
▁Perhaps	-7463
▁closely	-7464
▁Research	-7465
▁cohesion	-7466
▁September	-7467
▁Swilaveko	-7468
▁Vugevenga	-7469
▁generally	-7470
▁recognise	-7471
▁xintshunxo	-7472
▁facilitator	-7473
▁manufacture	-7474
▁Nevertheless	-7475
▁Organisation	-7476
PA	-7477
YEN	-7478
ets	-7479
ire	-7480
fare	-7481
hata	-7482
hayi	-7483
hini	-7484
muka	-7485
▁ICT	-7486
▁pak	-7487
dable	-7488
dency	-7489
thisi	-7490
▁Enti	-7491
▁dedi	-7492
▁demo	-7493
▁visa	-7494
▁voxe	-7495
ongeni	-7496
▁exiko	-7497
▁liter	-7498
▁switi	-7499
veryone	-7500
▁boxiwa	-7501
▁shared	-7502
▁vekela	-7503
▁Provide	-7504
▁nkomiso	-7505
▁reduced	-7506
▁science	-7507
▁session	-7508
▁swimila	-7509
▁trained	-7510
wangulano	-7511
▁Although	-7512
▁February	-7513
▁Tindlela	-7514
▁imported	-7515
▁lowunene	-7516
▁mintlawa	-7517
▁movement	-7518
▁Fisheries	-7519
▁achieving	-7520
▁emergency	-7521
▁hambanile	-7522
▁nkucetelo	-7523
▁responses	-7524
▁voluntary	-7525
▁fikelerile	-7526
▁vulavulaka	-7527
▁declaration	-7528
▁differences	-7529
▁operational	-7530
dom	-7531
gum	-7532
nes	-7533
▁70	-7534
▁8.	-7535
ands	-7536
ergy	-7537
many	-7538
mbhi	-7539
▁Tas	-7540
▁aut	-7541
hluri	-7542
lenge	-7543
▁lomu	-7544
▁samp	-7545
▁thus	-7546
▁voko	-7547
▁yimi	-7548
misoko	-7549
▁Bills	-7550
▁lungh	-7551
▁Energy	-7552
▁abroad	-7553
▁actual	-7554
▁houses	-7555
▁repeat	-7556
▁vekisa	-7557
▁Another	-7558
▁effects	-7559
▁lwandle	-7560
▁perfect	-7561
▁plenary	-7562
▁usually	-7563
▁Everyone	-7564
▁fambiselo	-7565
▁kombisiwa	-7566
ehleketweni	-7567
▁engeteriwa	-7568
▁enterprises	-7569
LO	-7570
NA	-7571
pho	-7572
vun	-7573
▁48	-7574
▁eT	-7575
ande	-7576
cked	-7577
gelo	-7578
lest	-7579
▁cut	-7580
▁gen	-7581
▁mus	-7582
atory	-7583
▁Anim	-7584
▁card	-7585
▁city	-7586
▁tife	-7587
buliki	-7588
cating	-7589
kumiwa	-7590
enerali	-7591
tsoniwa	-7592
▁Proper	-7593
▁allows	-7594
▁burden	-7595
▁factor	-7596
▁senior	-7597
▁carried	-7598
▁contemp	-7599
▁fambaka	-7600
chaviseki	-7601
hangalasa	-7602
▁category	-7603
▁informal	-7604
▁patients	-7605
▁ringanana	-7606
▁varhumiwa	-7607
▁Honourable	-7608
▁hetisekeke	-7609
▁vulnerable	-7610
▁Dzivamisoko	-7611
▁prioritised	-7612
▁setifikheti	-7613
▁effectiveness	-7614
Vu	-7615
jhe	-7616
urna	-7617
▁Cor	-7618
▁Hen	-7619
▁muk	-7620
onela	-7621
zette	-7622
▁1999	-7623
▁slow	-7624
ctober	-7625
simeko	-7626
yisisa	-7627
▁2006.	-7628
▁Leswo	-7629
▁foods	-7630
▁karha	-7631
▁shown	-7632
kangiki	-7633
▁expert	-7634
▁foster	-7635
▁tikhom	-7636
▁Contact	-7637
▁nkanelo	-7638
▁nyikile	-7639
▁ongoing	-7640
▁ringani	-7641
▁specifi	-7642
unenenene	-7643
▁Mpfuneto	-7644
▁payments	-7645
▁tekiweke	-7646
▁behaviour	-7647
▁carefully	-7648
▁marungula	-7649
▁operating	-7650
▁seriously	-7651
▁encouraged	-7652
▁hlanganaka	-7653
▁introduced	-7654
▁nkambisiso	-7655
▁preparation	-7656
▁Participants	-7657
gic	-7658
lla	-7659
gidi	-7660
gira	-7661
heri	-7662
ighb	-7663
reas	-7664
umer	-7665
yizi	-7666
▁eye	-7667
▁fix	-7668
▁ign	-7669
mbano	-7670
▁Cong	-7671
▁kept	-7672
▁shor	-7673
▁xivu	-7674
thwaso	-7675
tlhanu	-7676
tshuxo	-7677
▁green	-7678
▁write	-7679
hungasi	-7680
▁Census	-7681
▁belong	-7682
▁kotile	-7683
▁Vantima	-7684
▁planned	-7685
migration	-7686
▁humeleli	-7687
▁mphamelo	-7688
▁supports	-7689
▁Vupfhumba	-7690
▁emphasise	-7691
▁protected	-7692
▁disability	-7693
▁xitsundzuxo	-7694
▁strengthening	-7695
▁Infrastructure	-7696
PO	-7697
ja	-7698
VER	-7699
phu	-7700
▁76	-7701
rain	-7702
selo	-7703
sile	-7704
cates	-7705
rowth	-7706
▁Food	-7707
▁hung	-7708
▁situ	-7709
foramu	-7710
lihood	-7711
▁2008.	-7712
▁Phase	-7713
▁argum	-7714
▁nguva	-7715
sungula	-7716
▁Budget	-7717
▁census	-7718
▁entire	-7719
▁instru	-7720
▁rhurha	-7721
▁farming	-7722
▁helping	-7723
▁lessons	-7724
▁revenue	-7725
▁vavabyi	-7726
▁diseases	-7727
▁released	-7728
▁suitable	-7729
▁swifambo	-7730
▁swirhang	-7731
▁Vadyondzi	-7732
▁endliweni	-7733
▁languteka	-7734
▁muhlayisi	-7735
▁pfumalaka	-7736
▁vurhumiwa	-7737
▁definition	-7738
▁arrangements	-7739
tirhisiwankulu	-7740
▁documentation	-7741
▁recommendation	-7742
RC	-7743
cade	-7744
lipi	-7745
vana	-7746
▁cat	-7747
▁det	-7748
hlamb	-7749
▁Both	-7750
▁dplg	-7751
▁sale	-7752
action	-7753
▁enorm	-7754
▁rapid	-7755
qhingha	-7756
▁concer	-7757
▁mbirhi	-7758
▁mhangu	-7759
▁phikiz	-7760
▁prefer	-7761
▁prices	-7762
▁wonder	-7763
▁October	-7764
▁kandziy	-7765
▁nkuriso	-7766
lications	-7767
▁Describe	-7768
▁launched	-7769
▁resolved	-7770
▁religious	-7771
▁addressing	-7772
▁Entiyisweni	-7773
▁Khomixinara	-7774
▁coordination	-7775
▁phurayivhete	-7776
▁langutisisiwa	-7777
▁tiphurogireme	-7778
▁swirhalanganyi	-7779
19	-7780
nd	-7781
pat	-7782
▁1,	-7783
antl	-7784
fana	-7785
hisi	-7786
karh	-7787
▁2.1	-7788
▁Aug	-7789
▁Tha	-7790
▁cau	-7791
▁vir	-7792
dende	-7793
gwevo	-7794
mbeki	-7795
toria	-7796
▁2006	-7797
▁seem	-7798
ingiso	-7799
visela	-7800
▁Tsala	-7801
▁align	-7802
▁avany	-7803
▁drive	-7804
▁kumis	-7805
▁lines	-7806
▁xirha	-7807
▁beyond	-7808
▁failed	-7809
ikhonomi	-7810
▁Malembe	-7811
▁Without	-7812
▁element	-7813
▁getting	-7814
▁married	-7815
▁ntshamo	-7816
tsundzuxi	-7817
▁Building	-7818
▁hetisiwa	-7819
▁lamakulu	-7820
▁makhombo	-7821
▁occasion	-7822
▁starting	-7823
▁condition	-7824
▁geographi	-7825
▁Employment	-7826
▁sanitation	-7827
▁etindhawini	-7828
▁hluvukisiwa	-7829
▁Mpfapfarhuto	-7830
mind	-7831
ohan	-7832
tate	-7833
▁Col	-7834
▁bat	-7835
▁rhu	-7836
▁twi	-7837
eriwi	-7838
krasi	-7839
tocol	-7840
vants	-7841
▁Pers	-7842
▁Pfum	-7843
▁Read	-7844
▁Step	-7845
▁Vava	-7846
▁accu	-7847
▁disp	-7848
▁emin	-7849
▁enjo	-7850
▁guid	-7851
roniki	-7852
▁2009.	-7853
▁Basic	-7854
▁Rural	-7855
▁breed	-7856
▁drawn	-7857
▁fraud	-7858
▁impor	-7859
▁risks	-7860
▁spent	-7861
▁xintu	-7862
entific	-7863
▁Vateka	-7864
▁ndzilo	-7865
▁rifuwo	-7866
▁vumune	-7867
▁Thirdly	-7868
▁becomes	-7869
▁evening	-7870
▁mission	-7871
▁withdra	-7872
▁declared	-7873
▁pressure	-7874
▁intention	-7875
▁sensitive	-7876
▁fikeleleka	-7877
▁particulars	-7878
▁contemplated	-7879
DI	-7880
ush	-7881
▁26	-7882
▁Tl	-7883
bled	-7884
leli	-7885
uter	-7886
▁gla	-7887
▁hea	-7888
▁thi	-7889
▁ven	-7890
hlele	-7891
irini	-7892
phone	-7893
▁tlha	-7894
▁2000.	-7895
▁enqui	-7896
▁olovi	-7897
▁rhavi	-7898
ability	-7899
▁Henhla	-7900
▁Khombo	-7901
▁critic	-7902
▁neighb	-7903
▁vaxavi	-7904
angameri	-7905
▁nyikela	-7906
▁bohiweke	-7907
▁incorpor	-7908
▁recently	-7909
▁sections	-7910
▁Resources	-7911
▁apartheid	-7912
▁celebrate	-7913
▁mufambisi	-7914
▁mugangeni	-7915
▁practices	-7916
▁pregnancy	-7917
▁vadyuhari	-7918
▁xiyengetsongo	-7919
GU	-7920
IF	-7921
los	-7922
▁RA	-7923
ches	-7924
cket	-7925
▁	-7926
a	-7927
e	-7928
i	-7929
n	-7930
o	-7931
t	-7932
l	-7933
s	-7934
h	-7935
u	-7936
r	-7937
k	-7938
w	-7939
m	-7940
d	-7941
y	-7942
v	-7943
c	-7944
g	-7945
f	-7946
p	-7947
.	-7948
b	-7949
x	-7950
,	-7951
z	-7952
T	-7953
A	-7954
I	-7955
N	-7956
S	-7957
M	-7958
H	-7959
'	-7960
K	-7961
P	-7962
0	-7963
C	-7964
1	-7965
L	-7966
-	-7967
D	-7968
E	-7969
W	-7970
j	-7971
V	-7972
2	-7973
R	-7974
X	-7975
:	-7976
q	-7977
B	-7978
O	-7979
)	-7980
?	-7981
(	-7982
F	-7983
3	-7984
9	-7985
U	-7986
G	-7987
4	-7988
5	-7989
Y	-7990
;	-7991
6	-7992
8	-7993
7	-7994
"	-7995
/	-7996
