<unk>	0
<s>	0
</s>	0
▁t	-0
go	-1
le	-2
▁a	-3
▁b	-4
he	-5
di	-6
re	-7
la	-8
on	-9
▁m	-10
▁go	-11
▁k	-12
▁s	-13
in	-14
▁y	-15
lo	-16
at	-17
an	-18
▁le	-19
en	-20
▁o	-21
▁di	-22
▁the	-23
wa	-24
tš	-25
er	-26
▁ya	-27
▁p	-28
▁ka	-29
▁tš	-30
▁e	-31
or	-32
it	-33
ga	-34
▁f	-35
we	-36
▁c	-37
om	-38
is	-39
▁n	-40
▁of	-41
ion	-42
ha	-43
▁an	-44
es	-45
▁ba	-46
▁se	-47
ro	-48
ic	-49
al	-50
▁in	-51
se	-52
▁w	-53
▁and	-54
▁re	-55
▁ma	-56
ed	-57
ent	-58
▁to	-59
ho	-60
▁mo	-61
ing	-62
▁M	-63
ba	-64
▁tša	-65
ka	-66
et	-67
ra	-68
▁T	-69
iš	-70
▁bo	-71
st	-72
▁ga	-73
ut	-74
▁th	-75
pe	-76
▁be	-77
il	-78
ct	-79
▁A	-80
▁ye	-81
▁d	-82
▁S	-83
ar	-84
ation	-85
▁la	-86
ur	-87
me	-88
▁h	-89
▁wa	-90
un	-91
▁tše	-92
ve	-93
ge	-94
ri	-95
ment	-96
ong	-97
mo	-98
ng	-99
etš	-100
▁B	-101
ko	-102
▁D	-103
ot	-104
▁sa	-105
▁K	-106
ana	-107
▁for	-108
ele	-109
▁me	-110
▁ke	-111
▁C	-112
ja	-113
▁P	-114
na	-115
▁i	-116
ke	-117
ly	-118
ce	-119
ol	-120
▁dit	-121
▁is	-122
▁I	-123
šo	-124
▁pro	-125
▁G	-126
▁na	-127
▁gore	-128
fe	-129
▁The	-130
ona	-131
▁bja	-132
te	-133
eng	-134
pa	-135
ane	-136
ers	-137
du	-138
▁that	-139
▁tla	-140
▁ha	-141
us	-142
bo	-143
po	-144
ith	-145
id	-146
▁con	-147
ile	-148
šom	-149
ir	-150
▁on	-151
ate	-152
▁kgo	-153
ya	-154
▁or	-155
tše	-156
ša	-157
ul	-158
hla	-159
▁Af	-160
▁g	-161
ma	-162
li	-163
▁de	-164
tša	-165
▁ts	-166
▁R	-167
▁Mo	-168
▁yo	-169
▁as	-170
▁we	-171
ter	-172
mp	-173
ts	-174
be	-175
ver	-176
pp	-177
▁are	-178
▁st	-179
▁goba	-180
▁with	-181
ity	-182
▁su	-183
wego	-184
ill	-185
kgo	-186
res	-187
▁N	-188
hi	-189
▁yeo	-190
her	-191
ci	-192
lwa	-193
▁sw	-194
▁com	-195
▁L	-196
iti	-197
▁fa	-198
tšo	-199
▁al	-200
hlo	-201
olo	-202
tšha	-203
ch	-204
▁ge	-205
etše	-206
▁by	-207
ano	-208
▁E	-209
ric	-210
op	-211
gat	-212
▁W	-213
▁Ma	-214
ort	-215
gh	-216
as	-217
▁hlo	-218
gwa	-219
ti	-220
rom	-221
ta	-222
iša	-223
ction	-224
ela	-225
lic	-226
ess	-227
▁Go	-228
▁te	-229
▁will	-230
qu	-231
▁it	-232
ble	-233
▁ex	-234
▁co	-235
▁at	-236
th	-237
▁wo	-238
ire	-239
ist	-240
fa	-241
lat	-242
mme	-243
gwe	-244
sa	-245
▁ne	-246
um	-247
išo	-248
so	-249
▁v	-250
▁ta	-251
lao	-252
long	-253
▁H	-254
ding	-255
▁tl	-256
fic	-257
uth	-258
▁Di	-259
ust	-260
any	-261
ive	-262
art	-263
▁mat	-264
▁swan	-265
▁šom	-266
ete	-267
▁O	-268
up	-269
lan	-270
ago	-271
▁en	-272
▁un	-273
▁bat	-274
to	-275
▁tšwe	-276
ure	-277
▁Afric	-278
phe	-279
tšhaba	-280
▁have	-281
▁wh	-282
ušo	-283
▁swanetše	-284
tši	-285
▁po	-286
▁hla	-287
▁F	-288
▁pa	-289
rika	-290
dimo	-291
▁pe	-292
▁gomme	-293
ant	-294
der	-295
▁Se	-296
▁Ka	-297
▁tshe	-298
de	-299
▁r	-300
fat	-301
▁app	-302
▁pele	-303
ds	-304
▁ti	-305
▁So	-306
▁this	-307
▁not	-308
si	-309
get	-310
ome	-311
ll	-312
▁dik	-313
▁bao	-314
▁Re	-315
▁tse	-316
▁tšeo	-317
▁he	-318
ši	-319
▁In	-320
ume	-321
cc	-322
tšwego	-323
ther	-324
▁from	-325
▁Afrika	-326
▁ao	-327
lago	-328
for	-329
use	-330
tšwe	-331
lele	-332
orwa	-333
▁was	-334
ions	-335
▁man	-336
▁lo	-337
ren	-338
▁bjalo	-339
▁our	-340
cial	-341
ngwe	-342
▁has	-343
▁fi	-344
ational	-345
udu	-346
pha	-347
pi	-348
ice	-349
▁fet	-350
▁you	-351
ub	-352
em	-353
erm	-354
kolo	-355
▁South	-356
▁din	-357
▁ho	-358
▁batho	-359
▁fo	-360
▁res	-361
iv	-362
im	-363
est	-364
wana	-365
▁inc	-366
tšwa	-367
ad	-368
tle	-369
kare	-370
▁dira	-371
and	-372
one	-373
erv	-374
rolo	-375
mušo	-376
▁setšhaba	-377
▁tlo	-378
▁kga	-379
▁ad	-380
eri	-381
▁prov	-382
etša	-383
ations	-384
▁nya	-385
hu	-386
jo	-387
▁so	-388
šomo	-389
hom	-390
▁bona	-391
▁Borwa	-392
etšo	-393
fo	-394
▁1	-395
ans	-396
▁moka	-397
ilego	-398
ated	-399
▁rena	-400
▁imp	-401
▁Le	-402
ich	-403
▁comm	-404
▁sub	-405
ene	-406
tho	-407
▁lego	-408
ry	-409
ow	-410
▁which	-411
emo	-412
felo	-413
lete	-414
▁ca	-415
han	-416
tšego	-417
uld	-418
kwa	-419
▁phe	-420
gan	-421
ata	-422
▁comp	-423
▁kudu	-424
ki	-425
ck	-426
gn	-427
▁wor	-428
umele	-429
oro	-430
pelo	-431
▁2	-432
▁Bo	-433
▁ra	-434
ru	-435
▁š	-436
onom	-437
ities	-438
▁must	-439
ne	-440
ss	-441
▁maba	-442
▁tšwa	-443
ollo	-444
pedi	-445
išwa	-446
ula	-447
▁ile	-448
▁Th	-449
▁li	-450
ilwego	-451
end	-452
ak	-453
lu	-454
form	-455
lop	-456
red	-457
ical	-458
▁dir	-459
atla	-460
gra	-461
velop	-462
▁cont	-463
▁do	-464
pho	-465
ments	-466
▁gona	-467
mb	-468
▁hwe	-469
▁seo	-470
▁all	-471
ght	-472
ance	-473
▁other	-474
ab	-475
▁mor	-476
▁U	-477
edi	-478
vern	-479
▁bole	-480
ip	-481
▁tlha	-482
▁ngwa	-483
▁whe	-484
min	-485
▁also	-486
▁akare	-487
unt	-488
ence	-489
▁gape	-490
▁part	-491
ution	-492
▁can	-493
▁been	-494
ident	-495
ary	-496
▁Ba	-497
she	-498
▁bon	-499
▁pol	-500
ny	-501
je	-502
▁We	-503
▁their	-504
ld	-505
ph	-506
ces	-507
▁Kgo	-508
▁who	-509
pect	-510
sed	-511
stit	-512
▁J	-513
▁acc	-514
iši	-515
ena	-516
▁am	-517
fatša	-518
ine	-519
▁any	-520
belo	-521
the	-522
irelo	-523
ted	-524
▁ro	-525
▁Africa	-526
io	-527
ublic	-528
▁yona	-529
▁were	-530
aneo	-531
kelo	-532
able	-533
▁leb	-534
fi	-535
hlele	-536
▁De	-537
ay	-538
▁l	-539
▁tšwele	-540
ape	-541
▁tra	-542
reng	-543
▁rec	-544
▁pre	-545
▁develop	-546
ite	-547
vernment	-548
▁mmušo	-549
▁exp	-550
lha	-551
▁dis	-552
sion	-553
▁karolo	-554
ide	-555
▁morago	-556
ps	-557
▁reg	-558
▁Ke	-559
▁sho	-560
ok	-561
hut	-562
▁serv	-563
leng	-564
gago	-565
loko	-566
am	-567
▁ntle	-568
hwa	-569
und	-570
▁godimo	-571
▁-	-572
▁African	-573
▁Com	-574
▁mai	-575
ree	-576
▁applic	-577
ign	-578
▁bohlo	-579
▁SA	-580
▁may	-581
ni	-582
ally	-583
▁This	-584
per	-585
▁leo	-586
▁ri	-587
ue	-588
ult	-589
▁work	-590
baka	-591
▁kget	-592
tion	-593
▁dina	-594
▁ph	-595
anyo	-596
haba	-597
eny	-598
ctor	-599
helete	-600
lego	-601
▁rep	-602
ies	-603
ople	-604
▁fe	-605
cess	-606
geng	-607
▁tho	-608
00	-609
od	-610
▁inter	-611
cil	-612
ber	-613
▁inclu	-614
▁inv	-615
tha	-616
kgwa	-617
kologo	-618
▁Pro	-619
hlan	-620
▁cons	-621
golo	-622
ffe	-623
▁under	-624
▁ar	-625
▁nago	-626
tla	-627
▁Ge	-628
▁form	-629
swa	-630
▁gare	-631
▁people	-632
otse	-633
▁St	-634
tain	-635
moge	-636
ugh	-637
ense	-638
▁meet	-639
šwa	-640
erson	-641
rol	-642
▁nako	-643
▁out	-644
▁moo	-645
▁count	-646
tse	-647
ilwe	-648
▁kgopelo	-649
▁Con	-650
dimošo	-651
▁mabapi	-652
▁Y	-653
▁ditš	-654
▁bu	-655
part	-656
ale	-657
ject	-658
mogo	-659
als	-660
ens	-661
▁maemo	-662
▁no	-663
▁dip	-664
resident	-665
▁bjo	-666
▁male	-667
ast	-668
▁requ	-669
▁šoma	-670
▁V	-671
cy	-672
▁sc	-673
ates	-674
mit	-675
▁It	-676
int	-677
▁An	-678
▁qu	-679
▁its	-680
▁bohlokwa	-681
▁len	-682
▁Act	-683
▁Molao	-684
▁dikgo	-685
ise	-686
▁naga	-687
kiš	-688
bedi	-689
▁offic	-690
stitution	-691
▁late	-692
▁dipo	-693
icip	-694
▁such	-695
pedišo	-696
▁mošomo	-697
engwa	-698
▁Me	-699
atši	-700
ina	-701
▁these	-702
ission	-703
felong	-704
▁kop	-705
ced	-706
pport	-707
ish	-708
led	-709
▁Co	-710
very	-711
▁dingwe	-712
▁akaretša	-713
rd	-714
▁mong	-715
▁year	-716
kga	-717
▁commun	-718
pon	-719
▁nngwe	-720
▁spe	-721
▁nyaka	-722
▁sego	-723
▁your	-724
▁hwetša	-725
▁they	-726
tlo	-727
▁sy	-728
▁ban	-729
▁inform	-730
wi	-731
▁ele	-732
ration	-733
▁us	-734
▁molao	-735
▁ag	-736
▁bego	-737
▁kgwe	-738
▁thu	-739
letšo	-740
▁mola	-741
▁there	-742
conom	-743
▁min	-744
ild	-745
ress	-746
▁tsela	-747
▁maatla	-748
▁government	-749
rans	-750
▁new	-751
phodi	-752
king	-753
lation	-754
omo	-755
▁perm	-756
all	-757
rest	-758
▁Dit	-759
lwe	-760
▁more	-761
▁use	-762
išano	-763
phelo	-764
▁dire	-765
▁public	-766
len	-767
▁swana	-768
bollo	-769
▁kgolo	-770
elo	-771
▁motho	-772
phodisa	-773
▁tshedimošo	-774
miš	-775
▁amoge	-776
▁fela	-777
gis	-778
own	-779
▁should	-780
ang	-781
kgat	-782
▁aga	-783
▁into	-784
wane	-785
▁dika	-786
▁act	-787
▁up	-788
konom	-789
▁af	-790
▁memb	-791
atš	-792
pele	-793
anego	-794
▁taolo	-795
botse	-796
wo	-797
stem	-798
▁Min	-799
▁maga	-800
▁gro	-801
wago	-802
▁one	-803
▁person	-804
ys	-805
huta	-806
kgoni	-807
▁thro	-808
▁provin	-809
ach	-810
les	-811
▁met	-812
che	-813
▁ev	-814
wing	-815
▁cha	-816
kgolo	-817
kong	-818
šomi	-819
▁mon	-820
kemiš	-821
loy	-822
ised	-823
▁mohla	-824
ality	-825
ag	-826
▁pla	-827
diš	-828
▁gago	-829
ctions	-830
▁Mr	-831
▁tumele	-832
bil	-833
ia	-834
konomi	-835
▁development	-836
ffic	-837
▁tsen	-838
▁fin	-839
ating	-840
▁ac	-841
ices	-842
▁bet	-843
▁dinya	-844
fsa	-845
ial	-846
ek	-847
kala	-848
▁gagwe	-849
cted	-850
▁follo	-851
nyane	-852
ors	-853
su	-854
▁term	-855
▁application	-856
ket	-857
▁Tš	-858
▁plan	-859
▁progra	-860
hlopha	-861
keng	-862
ved	-863
▁process	-864
ister	-865
wn	-866
▁ent	-867
▁national	-868
lano	-869
▁tloga	-870
hip	-871
igh	-872
ora	-873
▁lebaka	-874
ged	-875
cal	-876
heo	-877
▁sha	-878
uring	-879
▁lefa	-880
▁tšona	-881
kara	-882
▁set	-883
▁tlase	-884
of	-885
▁econom	-886
ud	-887
wan	-888
ou	-889
hire	-890
resent	-891
▁mana	-892
iz	-893
▁Ga	-894
▁To	-895
ener	-896
▁Comm	-897
▁system	-898
mes	-899
▁dumele	-900
el	-901
rib	-902
▁ob	-903
bela	-904
ase	-905
ures	-906
▁mengwa	-907
▁emp	-908
wer	-909
lelo	-910
▁inte	-911
gilego	-912
ning	-913
▁kgat	-914
▁thom	-915
rent	-916
fense	-917
fer	-918
▁200	-919
▁mme	-920
▁legis	-921
▁tšwela	-922
▁over	-923
▁contin	-924
▁if	-925
ila	-926
▁but	-927
▁where	-928
▁through	-929
▁ch	-930
galo	-931
▁country	-932
▁mar	-933
▁trans	-934
gy	-935
ious	-936
▁abo	-937
▁j	-938
▁appro	-939
ran	-940
▁feta	-941
▁maleba	-942
cu	-943
▁19	-944
▁Un	-945
▁ass	-946
▁pri	-947
▁ditirelo	-948
its	-949
▁dec	-950
▁pha	-951
▁produ	-952
▁time	-953
▁tha	-954
▁Cape	-955
▁need	-956
▁phetha	-957
gala	-958
▁kgona	-959
▁dipa	-960
ism	-961
port	-962
tšho	-963
upša	-964
▁efe	-965
išene	-966
▁within	-967
▁would	-968
▁magareng	-969
ving	-970
▁swa	-971
ater	-972
kgatlo	-973
no	-974
▁per	-975
▁Mna	-976
ural	-977
age	-978
mente	-979
▁Mola	-980
▁require	-981
ca	-982
▁As	-983
▁mešomo	-984
kom	-985
▁bodi	-986
▁diti	-987
▁tumelelo	-988
▁bile	-989
▁Kgoro	-990
ty	-991
fore	-992
▁information	-993
▁lefelo	-994
vir	-995
▁tšea	-996
ries	-997
hle	-998
pela	-999
▁than	-1000
hireletšo	-1001
mi	-1002
▁mongwe	-1003
ini	-1004
bile	-1005
stru	-1006
▁nete	-1007
bja	-1008
lega	-1009
▁num	-1010
▁tee	-1011
tšhab	-1012
▁lebele	-1013
uk	-1014
hek	-1015
ves	-1016
▁Pa	-1017
▁cer	-1018
▁Setš	-1019
gement	-1020
rit	-1021
▁latelago	-1022
llo	-1023
sure	-1024
▁service	-1025
ous	-1026
ffect	-1027
▁medi	-1028
▁tikologo	-1029
tshe	-1030
ful	-1031
omelo	-1032
▁terms	-1033
▁National	-1034
ract	-1035
▁Par	-1036
▁conc	-1037
▁tlho	-1038
▁kaona	-1039
otheo	-1040
▁respon	-1041
medi	-1042
elelo	-1043
▁dilo	-1044
▁said	-1045
petšo	-1046
▁fase	-1047
pala	-1048
▁gabotse	-1049
▁Z	-1050
ie	-1051
▁hloka	-1052
alth	-1053
▁two	-1054
unicip	-1055
ks	-1056
▁had	-1057
▁maf	-1058
isation	-1059
▁sec	-1060
▁Setšhaba	-1061
rin	-1062
viron	-1063
▁Tona	-1064
▁dita	-1065
▁child	-1066
▁bašomi	-1067
ative	-1068
▁import	-1069
partment	-1070
▁rom	-1071
▁well	-1072
polo	-1073
▁est	-1074
ban	-1075
▁when	-1076
▁mm	-1077
▁det	-1078
▁employ	-1079
pt	-1080
ular	-1081
hon	-1082
ditše	-1083
▁feto	-1084
▁following	-1085
▁dite	-1086
▁mafelo	-1087
▁He	-1088
▁right	-1089
▁bokgoni	-1090
isi	-1091
uto	-1092
rate	-1093
▁thuša	-1094
sela	-1095
▁being	-1096
ision	-1097
▁"	-1098
▁diphe	-1099
ining	-1100
▁lebo	-1101
▁fihlele	-1102
vironment	-1103
ard	-1104
▁des	-1105
uncil	-1106
▁nakong	-1107
▁tshepedišo	-1108
▁ditla	-1109
ety	-1110
▁his	-1111
sepala	-1112
▁ap	-1113
enyi	-1114
homo	-1115
ives	-1116
ting	-1117
▁3	-1118
tern	-1119
▁about	-1120
▁after	-1121
vent	-1122
▁App	-1123
▁made	-1124
▁bus	-1125
▁fun	-1126
▁mokgwa	-1127
karabelo	-1128
lf	-1129
ms	-1130
▁day	-1131
▁oper	-1132
vel	-1133
▁them	-1134
lement	-1135
▁sp	-1136
▁phethagat	-1137
ithut	-1138
▁both	-1139
▁foko	-1140
▁maloko	-1141
▁members	-1142
▁issu	-1143
kišišo	-1144
▁lenaneo	-1145
hoto	-1146
▁boi	-1147
iness	-1148
nete	-1149
dit	-1150
▁conf	-1151
▁thi	-1152
▁em	-1153
kego	-1154
▁state	-1155
▁ab	-1156
put	-1157
▁pos	-1158
▁šomiša	-1159
nd	-1160
▁again	-1161
▁impro	-1162
gelo	-1163
ners	-1164
reat	-1165
▁hum	-1166
▁tir	-1167
ditšwego	-1168
ten	-1169
dent	-1170
▁support	-1171
▁ditšhelete	-1172
ition	-1173
▁effect	-1174
abl	-1175
ari	-1176
pego	-1177
▁par	-1178
senyi	-1179
▁only	-1180
istration	-1181
še	-1182
▁dirwa	-1183
▁eupša	-1184
▁ensure	-1185
▁permit	-1186
hool	-1187
▁indi	-1188
▁kgwebo	-1189
kag	-1190
rero	-1191
▁gam	-1192
engwe	-1193
karetšo	-1194
duc	-1195
pos	-1196
fied	-1197
▁sus	-1198
letša	-1199
▁meetse	-1200
▁police	-1201
▁dinaga	-1202
kemišetšo	-1203
ven	-1204
graph	-1205
oropo	-1206
▁docu	-1207
▁bana	-1208
▁section	-1209
dišo	-1210
dudi	-1211
▁subse	-1212
▁rea	-1213
▁President	-1214
ween	-1215
▁bolela	-1216
▁lefelong	-1217
▁bea	-1218
▁bi	-1219
▁eme	-1220
▁area	-1221
▁tokelo	-1222
▁Molaotheo	-1223
pen	-1224
▁nt	-1225
▁For	-1226
▁bohla	-1227
▁between	-1228
ner	-1229
ents	-1230
▁bjale	-1231
dir	-1232
▁col	-1233
▁kot	-1234
▁mas	-1235
▁tseba	-1236
dition	-1237
▁number	-1238
ff	-1239
▁rega	-1240
▁Minister	-1241
▁services	-1242
▁tšhelete	-1243
co	-1244
hie	-1245
ron	-1246
wat	-1247
▁her	-1248
etšego	-1249
setšhaba	-1250
psha	-1251
▁organ	-1252
bok	-1253
ined	-1254
nolo	-1255
▁kgetho	-1256
▁netefatša	-1257
▁thek	-1258
sible	-1259
▁polic	-1260
▁Constitution	-1261
ded	-1262
eti	-1263
ishe	-1264
▁mabaka	-1265
▁intern	-1266
▁project	-1267
▁areas	-1268
▁kgone	-1269
cip	-1270
▁im	-1271
▁including	-1272
urt	-1273
▁kn	-1274
▁ngwaga	-1275
▁Commission	-1276
▁tšhireletšo	-1277
alwa	-1278
bility	-1279
va	-1280
▁establ	-1281
▁gammogo	-1282
day	-1283
lated	-1284
▁fiwa	-1285
gi	-1286
▁Ex	-1287
▁kgon	-1288
▁mpsha	-1289
▁ekonomi	-1290
gile	-1291
▁fao	-1292
▁rece	-1293
diša	-1294
▁cor	-1295
atlala	-1296
▁maphodisa	-1297
▁environment	-1298
bi	-1299
ris	-1300
▁gan	-1301
▁khu	-1302
▁take	-1303
residente	-1304
ulo	-1305
▁mananeo	-1306
▁maphelo	-1307
▁implement	-1308
▁management	-1309
▁maikarabelo	-1310
▁many	-1311
▁some	-1312
ual	-1313
cture	-1314
rat	-1315
▁If	-1316
▁prom	-1317
▁tseb	-1318
ragalo	-1319
anya	-1320
stan	-1321
▁Mot	-1322
▁fir	-1323
▁Applic	-1324
dust	-1325
▁Mmušo	-1326
▁economic	-1327
▁subsection	-1328
kane	-1329
eletšo	-1330
▁tlago	-1331
▁Jo	-1332
▁land	-1333
tific	-1334
▁years	-1335
▁non	-1336
▁pas	-1337
▁community	-1338
▁provincial	-1339
oto	-1340
ings	-1341
urban	-1342
▁lefase	-1343
ited	-1344
▁ebile	-1345
▁cre	-1346
ute	-1347
▁tšhom	-1348
kedi	-1349
theo	-1350
▁nyake	-1351
▁mengwaga	-1352
rime	-1353
▁fap	-1354
▁hlalo	-1355
ote	-1356
▁Am	-1357
gato	-1358
hata	-1359
▁fur	-1360
▁here	-1361
ency	-1362
▁Mop	-1363
▁hlohlele	-1364
▁facil	-1365
▁those	-1366
hl	-1367
ges	-1368
lwago	-1369
▁nageng	-1370
ws	-1371
▁pur	-1372
uthor	-1373
▁ident	-1374
▁bobedi	-1375
▁tlhabollo	-1376
▁maikemišetšo	-1377
cus	-1378
gon	-1379
▁boit	-1380
letšwa	-1381
ond	-1382
▁office	-1383
▁Council	-1384
▁Na	-1385
▁jo	-1386
ended	-1387
ising	-1388
urity	-1389
adi	-1390
set	-1391
ament	-1392
▁Tshe	-1393
ory	-1394
▁prin	-1395
▁ok	-1396
▁provid	-1397
masepala	-1398
fatšo	-1399
▁business	-1400
▁mafelong	-1401
▁legislation	-1402
▁ofe	-1403
▁sem	-1404
▁letš	-1405
▁sephe	-1406
▁shall	-1407
▁water	-1408
▁Department	-1409
lela	-1410
tšhi	-1411
▁199	-1412
▁motheo	-1413
gase	-1414
hamp	-1415
▁matš	-1416
eneral	-1417
▁botse	-1418
hout	-1419
▁cur	-1420
▁let	-1421
▁suspect	-1422
▁akaretšwa	-1423
▁inf	-1424
▁pho	-1425
▁demo	-1426
▁report	-1427
▁tšweletša	-1428
urg	-1429
reed	-1430
▁There	-1431
lations	-1432
▁school	-1433
ung	-1434
▁car	-1435
esti	-1436
tšhe	-1437
▁awa	-1438
▁she	-1439
▁woo	-1440
feren	-1441
ganyo	-1442
▁speci	-1443
omen	-1444
uswi	-1445
▁cent	-1446
▁rele	-1447
▁temo	-1448
cut	-1449
des	-1450
pit	-1451
spe	-1452
etšwa	-1453
ional	-1454
▁what	-1455
▁fihla	-1456
▁social	-1457
ily	-1458
▁local	-1459
cts	-1460
ret	-1461
▁used	-1462
ani	-1463
itiz	-1464
▁val	-1465
▁chan	-1466
hlanong	-1467
hlankedi	-1468
pat	-1469
ente	-1470
ific	-1471
ness	-1472
▁men	-1473
por	-1474
sta	-1475
▁gu	-1476
▁diko	-1477
▁sign	-1478
▁order	-1479
rds	-1480
▁Ta	-1481
sele	-1482
▁gat	-1483
▁own	-1484
ished	-1485
▁high	-1486
▁activ	-1487
▁bosenyi	-1488
gae	-1489
ics	-1490
rong	-1491
▁kwe	-1492
▁before	-1493
▁against	-1494
ledi	-1495
padi	-1496
▁wit	-1497
▁allo	-1498
▁fele	-1499
dišano	-1500
komelo	-1501
atšhaba	-1502
▁mmalwa	-1503
▁BI	-1504
▁ut	-1505
lato	-1506
rame	-1507
sadi	-1508
▁ame	-1509
▁Serv	-1510
▁thoma	-1511
▁hlokom	-1512
▁equ	-1513
▁lef	-1514
▁phatlala	-1515
▁ditaba	-1516
▁Cha	-1517
tlalo	-1518
▁most	-1519
▁tswa	-1520
▁human	-1521
▁incre	-1522
PS	-1523
▁my	-1524
▁dint	-1525
▁dihla	-1526
▁level	-1527
ep	-1528
ned	-1529
▁Bja	-1530
▁dikgwe	-1531
▁princip	-1532
com	-1533
eno	-1534
lana	-1535
▁att	-1536
▁šomišwa	-1537
olwa	-1538
▁lek	-1539
▁kgauswi	-1540
▁dinyakwa	-1541
▁programme	-1542
▁ext	-1543
▁kat	-1544
▁assist	-1545
▁health	-1546
▁kakaretšo	-1547
os	-1548
hen	-1549
▁very	-1550
gatong	-1551
pportun	-1552
▁sector	-1553
tšhabatšhaba	-1554
▁ve	-1555
▁capa	-1556
fy	-1557
▁adv	-1558
▁vis	-1559
▁make	-1560
▁para	-1561
longwa	-1562
▁three	-1563
▁amogela	-1564
▁program	-1565
ig	-1566
ord	-1567
palo	-1568
▁like	-1569
▁mathata	-1570
come	-1571
▁beca	-1572
▁dijo	-1573
▁just	-1574
▁indust	-1575
▁represent	-1576
iše	-1577
▁def	-1578
▁ref	-1579
▁thuto	-1580
▁opportun	-1581
eb	-1582
ats	-1583
ste	-1584
▁Ch	-1585
ists	-1586
mela	-1587
▁bas	-1588
anago	-1589
etšwe	-1590
▁stru	-1591
▁first	-1592
▁kaonafatša	-1593
▁sit	-1594
▁deli	-1595
▁commit	-1596
▁kgahlanong	-1597
xt	-1598
▁palo	-1599
▁bontši	-1600
homišene	-1601
▁further	-1602
▁letšatši	-1603
ola	-1604
urs	-1605
▁Ne	-1606
arch	-1607
vers	-1608
▁citiz	-1609
▁hloma	-1610
▁ditshe	-1611
▁dinyakišišo	-1612
▁aro	-1613
▁author	-1614
▁mathomo	-1615
▁certific	-1616
▁Application	-1617
▁main	-1618
onelwa	-1619
▁access	-1620
▁respect	-1621
▁Ro	-1622
ring	-1623
▁bro	-1624
▁cla	-1625
▁int	-1626
▁ntši	-1627
▁taba	-1628
ditšwe	-1629
liament	-1630
▁during	-1631
▁municip	-1632
ath	-1633
ties	-1634
▁And	-1635
▁meas	-1636
▁pres	-1637
▁nnete	-1638
▁dikolo	-1639
▁regard	-1640
▁botlalo	-1641
by	-1642
atho	-1643
ight	-1644
ngwa	-1645
okelo	-1646
▁swane	-1647
▁Durban	-1648
▁Mopresidente	-1649
▁international	-1650
▁Tlha	-1651
▁pedi	-1652
▁Tirelo	-1653
▁add	-1654
▁les	-1655
▁Prov	-1656
▁educ	-1657
ically	-1658
▁admin	-1659
hamphan	-1660
▁concer	-1661
▁required	-1662
wor	-1663
spect	-1664
▁2002	-1665
hansele	-1666
▁profense	-1667
ken	-1668
udi	-1669
cated	-1670
▁beak	-1671
▁bolo	-1672
▁thušo	-1673
▁provide	-1674
tee	-1675
▁Phe	-1676
▁tek	-1677
▁swanetšego	-1678
kra	-1679
pri	-1680
keiti	-1681
▁dithoto	-1682
▁Government	-1683
SA	-1684
rge	-1685
▁sur	-1686
laodi	-1687
▁know	-1688
▁legatong	-1689
ins	-1690
etro	-1691
▁dipe	-1692
ants	-1693
▁law	-1694
▁tem	-1695
ctive	-1696
▁apply	-1697
▁house	-1698
▁tliša	-1699
dirišwa	-1700
▁strate	-1701
hila	-1702
▁fokotša	-1703
▁Be	-1704
wini	-1705
▁Reg	-1706
▁dist	-1707
▁These	-1708
bs	-1709
▁Dik	-1710
▁sen	-1711
gwana	-1712
ilding	-1713
▁world	-1714
▁tirelo	-1715
ese	-1716
lin	-1717
etape	-1718
▁mehla	-1719
fikeiti	-1720
lamente	-1721
▁mohlagase	-1722
▁Ad	-1723
▁clo	-1724
▁ful	-1725
▁soci	-1726
▁nnyane	-1727
▁training	-1728
sour	-1729
▁mak	-1730
tsheko	-1731
▁place	-1732
▁mehuta	-1733
▁sehlopha	-1734
sel	-1735
▁Is	-1736
cing	-1737
kela	-1738
šele	-1739
šong	-1740
▁off	-1741
▁stat	-1742
editše	-1743
icular	-1744
▁thekgo	-1745
hamphani	-1746
▁du	-1747
▁dume	-1748
▁then	-1749
bopego	-1750
▁kgoro	-1751
etapele	-1752
▁arrest	-1753
▁mangwe	-1754
▁Kgopelo	-1755
▁programmes	-1756
ont	-1757
▁No	-1758
▁ik	-1759
▁gwa	-1760
utions	-1761
▁Karolo	-1762
▁boletše	-1763
▁Sa	-1764
▁pot	-1765
ccess	-1766
▁peri	-1767
fatana	-1768
▁improve	-1769
▁bohlatse	-1770
▁fihlelela	-1771
yo	-1772
utha	-1773
▁occ	-1774
▁lead	-1775
▁tema	-1776
▁sephetho	-1777
vi	-1778
land	-1779
▁bene	-1780
era	-1781
ghts	-1782
▁yoo	-1783
▁diri	-1784
▁invol	-1785
za	-1786
ganya	-1787
▁days	-1788
▁hlat	-1789
▁polit	-1790
▁document	-1791
▁countries	-1792
▁particular	-1793
ug	-1794
hopo	-1795
▁Pol	-1796
▁lear	-1797
▁mabo	-1798
▁mmogo	-1799
▁swara	-1800
▁bangwe	-1801
▁itšego	-1802
▁resour	-1803
▁priv	-1804
idence	-1805
▁present	-1806
ecut	-1807
ills	-1808
oura	-1809
getho	-1810
▁communities	-1811
elele	-1812
pital	-1813
▁lefe	-1814
▁long	-1815
▁mela	-1816
▁children	-1817
ets	-1818
ler	-1819
gaka	-1820
kiša	-1821
▁mab	-1822
▁pay	-1823
phara	-1824
▁leko	-1825
▁dipho	-1826
ac	-1827
▁ava	-1828
▁chal	-1829
▁dipha	-1830
▁tlhahlo	-1831
▁fetilego	-1832
▁particip	-1833
▁Khomišene	-1834
relo	-1835
▁nat	-1836
▁sengwe	-1837
▁submit	-1838
▁perform	-1839
ink	-1840
irs	-1841
▁disa	-1842
▁because	-1843
▁security	-1844
hic	-1845
fatanaga	-1846
ili	-1847
▁28	-1848
gela	-1849
iven	-1850
▁supp	-1851
▁tech	-1852
wantšho	-1853
▁Parliament	-1854
▁sk	-1855
hono	-1856
▁Sele	-1857
▁sele	-1858
akanyo	-1859
▁group	-1860
▁tsena	-1861
▁availa	-1862
▁4	-1863
urn	-1864
▁La	-1865
orts	-1866
▁kwa	-1867
ancial	-1868
▁dipro	-1869
arm	-1870
▁En	-1871
diši	-1872
▁They	-1873
eration	-1874
▁temana	-1875
▁include	-1876
▁interest	-1877
city	-1878
▁tle	-1879
▁investi	-1880
▁Palamente	-1881
ara	-1882
bers	-1883
were	-1884
ofolo	-1885
▁Kapa	-1886
▁certificate	-1887
▁cle	-1888
▁sea	-1889
▁issued	-1890
lho	-1891
lig	-1892
man	-1893
our	-1894
▁On	-1895
ross	-1896
▁You	-1897
▁now	-1898
emong	-1899
frika	-1900
krasi	-1901
▁each	-1902
arious	-1903
▁kgale	-1904
▁relev	-1905
▁materi	-1906
▁beilwego	-1907
▁6	-1908
▁Pe	-1909
▁Town	-1910
▁appo	-1911
▁bophara	-1912
ulu	-1913
▁bj	-1914
maga	-1915
▁put	-1916
▁integ	-1917
▁quest	-1918
tšweletšwa	-1919
▁available	-1920
iew	-1921
ils	-1922
mon	-1923
ulti	-1924
▁tax	-1925
▁Bodi	-1926
▁data	-1927
▁lemo	-1928
▁democ	-1929
▁member	-1930
▁ngwana	-1931
ib	-1932
tšeke	-1933
▁open	-1934
bišo	-1935
tiki	-1936
▁bor	-1937
▁fana	-1938
▁basadi	-1939
▁bosetšhaba	-1940
bab	-1941
anta	-1942
ched	-1943
hola	-1944
▁Len	-1945
▁did	-1946
▁phi	-1947
▁sep	-1948
latša	-1949
reign	-1950
▁rema	-1951
▁tiiš	-1952
ithuti	-1953
▁pract	-1954
▁stand	-1955
ecutive	-1956
▁foromo	-1957
▁ditsela	-1958
velopment	-1959
ap	-1960
hol	-1961
▁Te	-1962
išin	-1963
ters	-1964
▁ret	-1965
ffici	-1966
▁leba	-1967
▁week	-1968
▁colle	-1969
▁dipalo	-1970
▁laetša	-1971
oropokgolo	-1972
burg	-1973
dulo	-1974
rant	-1975
galago	-1976
▁comple	-1977
▁relevant	-1978
▁paragraph	-1979
▁5	-1980
▁bar	-1981
▁eba	-1982
▁same	-1983
▁agree	-1984
▁diffe	-1985
▁determ	-1986
▁success	-1987
▁province	-1988
gin	-1989
mar	-1990
ori	-1991
▁Ho	-1992
▁SAPS	-1993
▁lets	-1994
▁seri	-1995
▁vehic	-1996
▁ikemiš	-1997
wth	-1998
hara	-1999
▁hel	-2000
▁way	-2001
▁hand	-2002
▁pass	-2003
▁tlwa	-2004
▁kgeth	-2005
etšwego	-2006
kgopedi	-2007
wed	-2008
bour	-2009
tast	-2010
ually	-2011
▁wona	-2012
▁initi	-2013
▁matla	-2014
anyetšo	-2015
rolwana	-2016
▁mokgatlo	-2017
ye	-2018
▁sol	-2019
▁fedi	-2020
▁hist	-2021
gether	-2022
▁mekgwa	-2023
▁policy	-2024
▁tlalele	-2025
▁without	-2026
gononelwa	-2027
▁tšweletšo	-2028
▁tlhokomelo	-2029
ft	-2030
ues	-2031
▁Or	-2032
▁lea	-2033
▁Cent	-2034
▁life	-2035
▁sepe	-2036
▁address	-2037
gg	-2038
▁Ti	-2039
ason	-2040
elwa	-2041
▁sta	-2042
▁sto	-2043
ently	-2044
ified	-2045
▁dula	-2046
▁prof	-2047
▁condu	-2048
▁current	-2049
cri	-2050
iss	-2051
jor	-2052
anywa	-2053
din	-2054
mano	-2055
▁end	-2056
▁dikga	-2057
▁setšo	-2058
▁merero	-2059
▁mining	-2060
▁period	-2061
agi	-2062
val	-2063
emedi	-2064
▁case	-2065
entshe	-2066
▁could	-2067
▁means	-2068
▁month	-2069
▁environmental	-2070
aka	-2071
uma	-2072
▁10	-2073
tered	-2074
▁kgope	-2075
▁badudi	-2076
▁Service	-2077
▁filwego	-2078
▁capacity	-2079
▁didirišwa	-2080
pla	-2081
lopele	-2082
▁achie	-2083
▁various	-2084
išitšwego	-2085
lie	-2086
pro	-2087
▁Man	-2088
▁Pre	-2089
ebete	-2090
▁fire	-2091
▁role	-2092
kagano	-2093
uation	-2094
▁major	-2095
ditions	-2096
ultural	-2097
▁Maloko	-2098
▁boleng	-2099
▁building	-2100
▁continue	-2101
▁activities	-2102
dula	-2103
▁Sub	-2104
ately	-2105
▁acco	-2106
▁last	-2107
▁design	-2108
▁ditlha	-2109
▁semmušo	-2110
▁tšwetša	-2111
▁political	-2112
▁phethagatša	-2113
mor	-2114
▁At	-2115
pano	-2116
unya	-2117
▁kago	-2118
▁kweš	-2119
ention	-2120
tšwago	-2121
▁among	-2122
hlelelo	-2123
▁tlhago	-2124
▁hlohleletša	-2125
ama	-2126
Thek	-2127
▁bago	-2128
gation	-2129
▁elect	-2130
▁necess	-2131
▁control	-2132
bal	-2133
crib	-2134
mphe	-2135
▁help	-2136
▁laola	-2137
epo	-2138
▁Ag	-2139
lošo	-2140
other	-2141
▁call	-2142
▁kant	-2143
▁maik	-2144
cially	-2145
▁refer	-2146
elelong	-2147
▁Provin	-2148
▁Public	-2149
▁instit	-2150
▁peleng	-2151
▁rights	-2152
▁romela	-2153
Thekwini	-2154
▁Khansele	-2155
▁citizens	-2156
ind	-2157
ral	-2158
▁Al	-2159
togo	-2160
▁get	-2161
bjale	-2162
orong	-2163
wards	-2164
▁reco	-2165
▁want	-2166
▁proper	-2167
▁bophelo	-2168
▁partners	-2169
ady	-2170
▁Wes	-2171
▁mma	-2172
▁leka	-2173
▁kotsi	-2174
▁realo	-2175
▁lengwe	-2176
▁mohuta	-2177
▁nyakago	-2178
▁addition	-2179
▁together	-2180
▁establish	-2181
▁financial	-2182
▁post	-2183
▁prevent	-2184
▁tšhomišo	-2185
bu	-2186
kan	-2187
mat	-2188
uch	-2189
ufa	-2190
▁et	-2191
olla	-2192
▁mait	-2193
▁name	-2194
▁seti	-2195
▁melao	-2196
▁waste	-2197
▁Municip	-2198
ace	-2199
gate	-2200
soci	-2201
molao	-2202
▁impa	-2203
▁leloko	-2204
kudu	-2205
less	-2206
šole	-2207
▁tsh	-2208
▁Comp	-2209
▁back	-2210
šomong	-2211
▁marri	-2212
▁women	-2213
▁ditiro	-2214
▁growth	-2215
▁mohlala	-2216
▁society	-2217
▁ditokelo	-2218
▁melawana	-2219
▁hlokomela	-2220
▁Development	-2221
fap	-2222
fof	-2223
ased	-2224
kgoba	-2225
▁Gape	-2226
▁appe	-2227
▁mang	-2228
ession	-2229
▁contrib	-2230
hwe	-2231
nes	-2232
ches	-2233
gana	-2234
hips	-2235
kano	-2236
▁aim	-2237
▁exa	-2238
▁hol	-2239
▁how	-2240
išago	-2241
▁mafa	-2242
▁rata	-2243
tasteri	-2244
▁conditions	-2245
EC	-2246
▁Mem	-2247
▁Rep	-2248
▁mil	-2249
erale	-2250
legae	-2251
▁alle	-2252
▁baka	-2253
▁past	-2254
▁lehono	-2255
tšhabeng	-2256
▁ikonomi	-2257
▁provided	-2258
cha	-2259
▁ce	-2260
cies	-2261
gale	-2262
hlano	-2263
hlego	-2264
▁Park	-2265
▁cour	-2266
▁fapa	-2267
▁sona	-2268
▁tšho	-2269
▁found	-2270
▁leboga	-2271
▁complete	-2272
▁mekgatlo	-2273
dy	-2274
vo	-2275
hat	-2276
▁30	-2277
▁All	-2278
icket	-2279
atives	-2280
setulo	-2281
▁object	-2282
▁working	-2283
▁important	-2284
line	-2285
▁ona	-2286
▁tso	-2287
ather	-2288
rated	-2289
▁Dire	-2290
▁care	-2291
▁dife	-2292
▁mala	-2293
▁crime	-2294
iki	-2295
ked	-2296
ging	-2297
▁Diti	-2298
▁šire	-2299
▁mahla	-2300
▁khutšo	-2301
▁resources	-2302
upa	-2303
ling	-2304
▁Kom	-2305
▁Sec	-2306
▁say	-2307
anong	-2308
fairs	-2309
tšišo	-2310
vious	-2311
▁Batho	-2312
▁benef	-2313
▁Merero	-2314
▁fapafap	-2315
med	-2316
▁sm	-2317
ster	-2318
▁Mat	-2319
▁him	-2320
▁kho	-2321
elela	-2322
ontle	-2323
▁selo	-2324
▁every	-2325
▁experi	-2326
▁proble	-2327
▁tšwago	-2328
ledišano	-2329
▁kgopela	-2330
▁maemong	-2331
dulasetulo	-2332
ses	-2333
tšu	-2334
abil	-2335
ases	-2336
verty	-2337
▁does	-2338
▁lona	-2339
▁enter	-2340
▁special	-2341
▁ditiragalo	-2342
cks	-2343
cept	-2344
work	-2345
▁air	-2346
▁bong	-2347
▁deta	-2348
▁play	-2349
▁tour	-2350
▁lewat	-2351
▁šomago	-2352
▁private	-2353
▁Republic	-2354
▁specific	-2355
▁relations	-2356
ione	-2357
puty	-2358
ward	-2359
▁Kwa	-2360
▁dia	-2361
▁nom	-2362
▁ste	-2363
hwaro	-2364
ively	-2365
ustom	-2366
ential	-2367
ference	-2368
ination	-2369
▁Western	-2370
▁consult	-2371
▁leaders	-2372
▁suspects	-2373
lla	-2374
ton	-2375
▁UN	-2376
▁che	-2377
gress	-2378
▁pego	-2379
▁issues	-2380
▁bontšha	-2381
▁employe	-2382
▁meeting	-2383
▁includes	-2384
▁kudukudu	-2385
▁education	-2386
idi	-2387
▁hloko	-2388
▁šetše	-2389
ulation	-2390
▁legislat	-2391
▁functions	-2392
▁tshepetšo	-2393
ze	-2394
▁Ar	-2395
bana	-2396
tolo	-2397
utlo	-2398
▁Wor	-2399
▁dri	-2400
gatšo	-2401
▁City	-2402
▁dits	-2403
▁nale	-2404
▁susta	-2405
▁skills	-2406
▁dipoelo	-2407
▁thibela	-2408
▁fapanego	-2409
ods	-2410
▁Po	-2411
▁meb	-2412
▁rev	-2413
ators	-2414
▁adop	-2415
▁dise	-2416
▁kabo	-2417
▁moya	-2418
ording	-2419
▁tsenya	-2420
herišano	-2421
▁appropri	-2422
▁different	-2423
▁eThekwini	-2424
▁dipalopalo	-2425
cep	-2426
ger	-2427
▁sh	-2428
alwe	-2429
fala	-2430
ured	-2431
used	-2432
▁Bot	-2433
▁Spe	-2434
▁flo	-2435
omela	-2436
cribed	-2437
▁Dikgo	-2438
▁given	-2439
▁kaone	-2440
▁lefsa	-2441
▁dipapadi	-2442
▁8	-2443
ati	-2444
šwe	-2445
tswa	-2446
▁Din	-2447
▁Mar	-2448
▁Zim	-2449
▁cop	-2450
babwe	-2451
▁neela	-2452
▁still	-2453
hlongwa	-2454
išitšwe	-2455
▁matter	-2456
▁measures	-2457
▁Maphodisa	-2458
amo	-2459
rob	-2460
sue	-2461
▁But	-2462
▁cal	-2463
▁ses	-2464
▁vio	-2465
bjalo	-2466
išana	-2467
▁bora	-2468
▁diph	-2469
▁gole	-2470
▁inde	-2471
▁large	-2472
▁leano	-2473
▁prote	-2474
▁seabe	-2475
▁invest	-2476
▁kgobok	-2477
▁possible	-2478
eni	-2479
ived	-2480
▁ama	-2481
▁fam	-2482
ordin	-2483
▁atta	-2484
▁down	-2485
andela	-2486
ngwalo	-2487
▁visit	-2488
endment	-2489
▁Section	-2490
▁Zimbabwe	-2491
▁sebopego	-2492
▁institutions	-2493
mego	-2494
raka	-2495
sing	-2496
atšing	-2497
▁grant	-2498
▁molato	-2499
▁parties	-2500
▁quality	-2501
▁karolwana	-2502
000	-2503
ify	-2504
mpa	-2505
oko	-2506
uku	-2507
etla	-2508
lane	-2509
wala	-2510
▁ins	-2511
melwa	-2512
▁date	-2513
▁free	-2514
▁needs	-2515
▁today	-2516
nolotši	-2517
▁dithek	-2518
▁responsible	-2519
atal	-2520
▁eng	-2521
▁Mana	-2522
▁dith	-2523
▁mole	-2524
vement	-2525
▁exist	-2526
▁infra	-2527
▁media	-2528
▁diteko	-2529
▁kgatha	-2530
▁dihlopha	-2531
▁implementation	-2532
mple	-2533
▁Ban	-2534
▁four	-2535
▁lega	-2536
▁polo	-2537
▁redu	-2538
sebišo	-2539
tšhelo	-2540
▁court	-2541
▁power	-2542
▁sebaka	-2543
▁foreign	-2544
▁industry	-2545
▁registration	-2546
bor	-2547
▁ear	-2548
▁gra	-2549
▁see	-2550
▁kala	-2551
▁multi	-2552
▁taken	-2553
▁result	-2554
▁amegago	-2555
▁another	-2556
▁necessary	-2557
▁mafelelong	-2558
ls	-2559
ato	-2560
▁Tra	-2561
▁dep	-2562
phare	-2563
enance	-2564
▁Chair	-2565
▁hlola	-2566
▁kopano	-2567
▁Lenaneo	-2568
▁request	-2569
▁selegae	-2570
specially	-2571
structure	-2572
▁opportunities	-2573
kes	-2574
ises	-2575
semb	-2576
▁enc	-2577
▁glo	-2578
▁pela	-2579
▁team	-2580
reedom	-2581
▁explo	-2582
▁market	-2583
▁perman	-2584
▁Africans	-2585
▁Director	-2586
▁temokrasi	-2587
▁established	-2588
DC	-2589
kha	-2590
not	-2591
ono	-2592
▁op	-2593
ards	-2594
gano	-2595
kome	-2596
▁cost	-2597
▁crit	-2598
selves	-2599
šeleng	-2600
▁accom	-2601
▁ithut	-2602
▁contain	-2603
▁methopo	-2604
▁schools	-2605
intenance	-2606
▁lengwalo	-2607
▁maikutlo	-2608
▁phihlelelo	-2609
berg	-2610
eral	-2611
ught	-2612
▁ple	-2613
etlele	-2614
▁peace	-2615
▁resol	-2616
▁seemo	-2617
▁dinako	-2618
▁Affairs	-2619
▁malebana	-2620
▁municipal	-2621
▁especially	-2622
rs	-2623
▁Do	-2624
eter	-2625
giša	-2626
ille	-2627
gatša	-2628
▁Isra	-2629
▁inst	-2630
▁yena	-2631
▁Taolo	-2632
▁gener	-2633
▁mofsa	-2634
▁Bodikela	-2635
▁baithuti	-2636
▁mašeleng	-2637
eto	-2638
rid	-2639
athi	-2640
bolo	-2641
etši	-2642
▁good	-2643
▁rese	-2644
▁rest	-2645
isions	-2646
kgotla	-2647
▁maite	-2648
alwetši	-2649
▁become	-2650
▁mengwe	-2651
▁dirišwa	-2652
▁poverty	-2653
▁Bosetšhaba	-2654
ads	-2655
uta	-2656
ange	-2657
hing	-2658
lack	-2659
tive	-2660
▁000	-2661
▁cri	-2662
lwana	-2663
▁deal	-2664
▁sent	-2665
▁writ	-2666
▁šupa	-2667
fatšwa	-2668
sembly	-2669
▁Bjale	-2670
▁tsebe	-2671
▁Police	-2672
▁compet	-2673
▁subject	-2674
▁towards	-2675
▁previous	-2676
▁progress	-2677
▁projects	-2678
▁transport	-2679
NC	-2680
bli	-2681
til	-2682
▁Lo	-2683
yalo	-2684
▁epa	-2685
▁tšh	-2686
inted	-2687
▁even	-2688
lwetši	-2689
▁dithe	-2690
▁start	-2691
▁Deputy	-2692
▁magato	-2693
▁thekga	-2694
▁molaong	-2695
▁tokologo	-2696
▁Tonakgolo	-2697
▁mengwageng	-2698
▁setifikeiti	-2699
▁9	-2700
lle	-2701
lus	-2702
heid	-2703
▁lok	-2704
atego	-2705
▁Indi	-2706
fofane	-2707
person	-2708
▁Court	-2709
▁basis	-2710
▁prior	-2711
▁rarol	-2712
▁dintlo	-2713
▁latela	-2714
partheid	-2715
▁strateg	-2716
▁dikgwebo	-2717
▁matšatši	-2718
IV	-2719
▁Ph	-2720
hief	-2721
istr	-2722
wano	-2723
▁dib	-2724
▁host	-2725
▁kelo	-2726
▁seka	-2727
išitše	-2728
▁Offic	-2729
▁while	-2730
▁oketša	-2731
▁arrested	-2732
▁dinageng	-2733
▁principal	-2734
▁theilwego	-2735
ator	-2736
erve	-2737
omme	-2738
racy	-2739
seng	-2740
▁pop	-2741
lotlo	-2742
ongwa	-2743
▁city	-2744
▁hlwe	-2745
▁focus	-2746
▁sekolo	-2747
▁economy	-2748
▁dikgetho	-2749
▁ditšhaba	-2750
▁mafelelo	-2751
▁mabokgoni	-2752
▁facilities	-2753
▁production	-2754
▁substitution	-2755
ince	-2756
orth	-2757
reen	-2758
rict	-2759
▁dra	-2760
▁hlab	-2761
▁hlom	-2762
idents	-2763
▁indic	-2764
▁around	-2765
▁hereby	-2766
▁ngwala	-2767
▁Assembly	-2768
▁challeng	-2769
▁delivery	-2770
▁question	-2771
▁responsi	-2772
▁dirilwego	-2773
▁nyakegago	-2774
▁ditherišano	-2775
▁aba	-2776
ences	-2777
posed	-2778
▁Tšwe	-2779
▁full	-2780
▁State	-2781
▁issue	-2782
▁better	-2783
▁ngwadi	-2784
▁sepele	-2785
▁streng	-2786
itshwaro	-2787
▁certain	-2788
▁dintlha	-2789
▁legislature	-2790
▁ditšweletšwa	-2791
RS	-2792
ua	-2793
zi	-2794
men	-2795
itor	-2796
kepe	-2797
rena	-2798
▁cli	-2799
▁lit	-2800
▁run	-2801
ender	-2802
išong	-2803
▁Ngwa	-2804
▁bewa	-2805
llwane	-2806
▁Premi	-2807
▁abela	-2808
▁appli	-2809
▁forms	-2810
▁small	-2811
▁discus	-2812
▁tirišo	-2813
▁Mandela	-2814
▁dikarolo	-2815
▁documents	-2816
▁permanent	-2817
▁appropriate	-2818
ere	-2819
▁si	-2820
fety	-2821
▁Kop	-2822
antle	-2823
▁come	-2824
ability	-2825
istered	-2826
▁govern	-2827
▁kgethe	-2828
▁lesolo	-2829
▁nyakiš	-2830
▁continu	-2831
▁mokgopedi	-2832
▁therefore	-2833
01	-2834
kh	-2835
ages	-2836
ledge	-2837
lelwa	-2838
▁ener	-2839
▁give	-2840
lating	-2841
▁Gomme	-2842
▁conta	-2843
▁trade	-2844
ramelao	-2845
stances	-2846
▁impact	-2847
standing	-2848
▁katlego	-2849
▁whether	-2850
sc	-2851
▁ny	-2852
ffor	-2853
itive	-2854
▁Dina	-2855
▁hous	-2856
▁real	-2857
etšago	-2858
ulture	-2859
▁Johan	-2860
▁belie	-2861
▁associ	-2862
▁ticket	-2863
▁Members	-2864
▁tsenela	-2865
▁vehicle	-2866
gs	-2867
sh	-2868
tic	-2869
▁Dr	-2870
gišo	-2871
šene	-2872
▁HIV	-2873
▁bom	-2874
uture	-2875
wever	-2876
▁When	-2877
▁based	-2878
▁ditok	-2879
▁laedi	-2880
▁party	-2881
▁treat	-2882
▁levels	-2883
▁dihlapi	-2884
▁encoura	-2885
▁involved	-2886
▁ngwageng	-2887
▁products	-2888
▁tirišano	-2889
▁7	-2890
cle	-2891
▁Fo	-2892
ands	-2893
gare	-2894
gwer	-2895
self	-2896
▁gabo	-2897
▁port	-2898
Afrika	-2899
etrole	-2900
▁short	-2901
▁tsebo	-2902
▁Molaodi	-2903
▁sustain	-2904
struction	-2905
▁diphoofolo	-2906
▁setšhabeng	-2907
here	-2908
rial	-2909
eneng	-2910
gwebo	-2911
▁home	-2912
▁vari	-2913
rolong	-2914
▁force	-2915
▁setho	-2916
▁cannot	-2917
▁mantši	-2918
▁approach	-2919
▁technolo	-2920
▁infrastructure	-2921
son	-2922
▁Ko	-2923
goti	-2924
jeke	-2925
utes	-2926
▁Res	-2927
▁lic	-2928
▁sek	-2929
ering	-2930
▁gopo	-2931
▁much	-2932
▁šedi	-2933
fforts	-2934
▁Ngaka	-2935
▁bantši	-2936
▁hlabollo	-2937
▁lebelela	-2938
▁kgethilwego	-2939
▁requirements	-2940
RC	-2941
reak	-2942
dutha	-2943
vered	-2944
▁boka	-2945
▁rula	-2946
▁kgahl	-2947
ganetšo	-2948
▁bogolo	-2949
▁promot	-2950
▁amanago	-2951
▁malwetši	-2952
▁mošomong	-2953
▁received	-2954
▁matšatšing	-2955
HA	-2956
ick	-2957
inet	-2958
ints	-2959
para	-2960
pose	-2961
rodu	-2962
▁cir	-2963
fetša	-2964
išena	-2965
lence	-2966
▁list	-2967
▁Kgobok	-2968
▁dithut	-2969
▁proced	-2970
▁semolao	-2971
▁peakanyo	-2972
▁Mmasepala	-2973
con	-2974
mer	-2975
tim	-2976
anka	-2977
gang	-2978
ized	-2979
▁Bas	-2980
ctors	-2981
etšhe	-2982
▁Repa	-2983
▁fish	-2984
▁poro	-2985
▁clear	-2986
▁makala	-2987
duthamaga	-2988
operation	-2989
▁effective	-2990
DP	-2991
row	-2992
way	-2993
atha	-2994
▁New	-2995
▁key	-2996
▁kom	-2997
alest	-2998
istic	-2999
išiša	-3000
ready	-3001
▁five	-3002
▁broad	-3003
▁final	-3004
▁leina	-3005
▁maano	-3006
▁swere	-3007
itation	-3008
loganyo	-3009
▁Centre	-3010
▁United	-3011
▁change	-3012
▁future	-3013
▁bothata	-3014
▁efforts	-3015
▁systems	-3016
▁decision	-3017
▁Modulasetulo	-3018
rie	-3019
based	-3020
batši	-3021
▁bone	-3022
▁held	-3023
▁remo	-3024
▁wena	-3025
▁tloša	-3026
▁Health	-3027
▁centre	-3028
▁energy	-3029
▁labour	-3030
▁lekala	-3031
▁selete	-3032
▁Repabli	-3033
▁natural	-3034
▁Sehlopha	-3035
▁dipoledišano	-3036
uru	-3037
▁Sc	-3038
gong	-3039
ided	-3040
ides	-3041
išan	-3042
▁rob	-3043
▁tar	-3044
▁war	-3045
aseng	-3046
lling	-3047
▁recom	-3048
▁action	-3049
▁consid	-3050
▁course	-3051
▁kgonth	-3052
▁kopana	-3053
▁lenane	-3054
▁amended	-3055
▁swanela	-3056
▁Johannes	-3057
▁motšhelo	-3058
▁provision	-3059
hli	-3060
que	-3061
▁ty	-3062
anda	-3063
hold	-3064
iled	-3065
redi	-3066
▁May	-3067
▁Mon	-3068
▁Tše	-3069
iding	-3070
ratic	-3071
tšhwa	-3072
▁Lefa	-3073
▁bola	-3074
▁dele	-3075
▁kete	-3076
▁nepo	-3077
▁event	-3078
▁dirago	-3079
▁dirile	-3080
▁research	-3081
▁agreement	-3082
ema	-3083
mun	-3084
ngu	-3085
gwera	-3086
▁char	-3087
▁done	-3088
▁look	-3089
▁modi	-3090
išetšo	-3091
▁ilego	-3092
raebete	-3093
▁catego	-3094
▁custom	-3095
▁dumela	-3096
▁negoti	-3097
▁already	-3098
▁company	-3099
▁learners	-3100
▁developed	-3101
▁bahlankedi	-3102
da	-3103
erc	-3104
fol	-3105
ots	-3106
▁cho	-3107
▁bala	-3108
▁fact	-3109
▁next	-3110
▁road	-3111
▁meago	-3112
▁Tumele	-3113
▁expect	-3114
▁family	-3115
▁fapana	-3116
▁account	-3117
▁matters	-3118
▁romelwa	-3119
robentshe	-3120
▁prospect	-3121
▁referred	-3122
▁dikgopelo	-3123
▁department	-3124
▁maitshwaro	-3125
▁prescribed	-3126
av	-3127
iri	-3128
cent	-3129
jana	-3130
raro	-3131
▁Ste	-3132
▁bir	-3133
▁bot	-3134
▁happ	-3135
▁meba	-3136
▁hlago	-3137
▁tharo	-3138
išenare	-3139
▁common	-3140
▁direct	-3141
▁dikgoro	-3142
▁function	-3143
▁tiragalo	-3144
▁administration	-3145
".	-3146
nov	-3147
wers	-3148
▁Dis	-3149
▁She	-3150
▁ine	-3151
orafe	-3152
swadi	-3153
▁SARS	-3154
▁kont	-3155
▁took	-3156
morago	-3157
▁Intern	-3158
▁Palest	-3159
▁Submit	-3160
▁effici	-3161
▁fediša	-3162
▁obtain	-3163
▁fetolwa	-3164
▁hlaloša	-3165
▁promote	-3166
formation	-3167
▁official	-3168
▁tšwelago	-3169
▁continent	-3170
▁challenges	-3171
▁registered	-3172
CE	-3173
let	-3174
▁dut	-3175
▁ntwa	-3176
cation	-3177
wanelo	-3178
▁Crime	-3179
▁coast	-3180
▁dihlo	-3181
▁tlogo	-3182
▁global	-3183
▁target	-3184
▁mehutahuta	-3185
▁Tšhireletšo	-3186
bon	-3187
par	-3188
▁far	-3189
▁gae	-3190
itary	-3191
kanyo	-3192
rollo	-3193
▁Iran	-3194
▁beha	-3195
▁radi	-3196
▁stud	-3197
▁ditlho	-3198
▁making	-3199
▁mogolo	-3200
uro	-3201
ahlo	-3202
fela	-3203
kele	-3204
lent	-3205
side	-3206
vidu	-3207
weng	-3208
▁Set	-3209
▁age	-3210
▁dim	-3211
▁ori	-3212
▁rer	-3213
hlako	-3214
light	-3215
mpaign	-3216
▁Dinya	-3217
▁young	-3218
▁sepela	-3219
▁tsheny	-3220
antšwego	-3221
minerale	-3222
▁Phetolo	-3223
▁thibelo	-3224
▁underta	-3225
▁Ditirelo	-3226
▁campaign	-3227
▁dumelela	-3228
▁swanelwa	-3229
▁Executive	-3230
kop	-3231
▁Su	-3232
mate	-3233
sive	-3234
▁Let	-3235
▁Mor	-3236
▁Our	-3237
▁regu	-3238
▁tšewa	-3239
▁export	-3240
▁godiša	-3241
▁capital	-3242
▁communic	-3243
▁Amendment	-3244
▁khamphani	-3245
▁mmasepala	-3246
▁strengthe	-3247
▁municipality	-3248
bin	-3249
irm	-3250
▁Fa	-3251
hern	-3252
pong	-3253
tara	-3254
▁ANC	-3255
▁ete	-3256
▁few	-3257
▁ter	-3258
▁lapa	-3259
▁stre	-3260
▁swar	-3261
▁Bjalo	-3262
▁Chief	-3263
▁conte	-3264
▁since	-3265
letšego	-3266
▁gantši	-3267
▁laolwa	-3268
▁lemoga	-3269
▁mediro	-3270
▁Selegae	-3271
ification	-3272
▁dikamano	-3273
▁register	-3274
▁Tshedimošo	-3275
SC	-3276
wii	-3277
▁ru	-3278
hlwa	-3279
rect	-3280
vert	-3281
asing	-3282
eding	-3283
gical	-3284
umelo	-3285
▁base	-3286
▁body	-3287
▁šome	-3288
▁recon	-3289
▁Romela	-3290
▁dipego	-3291
▁diriša	-3292
▁offici	-3293
▁oketše	-3294
▁reason	-3295
▁sepedi	-3296
▁applicant	-3297
▁employees	-3298
▁Toropokgolo	-3299
▁kgethegilego	-3300
ithi	-3301
▁iša	-3302
▁nna	-3303
▁food	-3304
▁filwe	-3305
▁great	-3306
▁hloke	-3307
General	-3308
omogolo	-3309
▁manufa	-3310
▁recogn	-3311
▁recomm	-3312
▁conflic	-3313
▁facilit	-3314
▁reports	-3315
▁swanago	-3316
▁ditšhila	-3317
▁lefaseng	-3318
▁Tlhabollo	-3319
▁completed	-3320
▁difatanaga	-3321
.;	-3322
low	-3323
▁12	-3324
▁kh	-3325
kgwe	-3326
▁Imp	-3327
▁old	-3328
▁wel	-3329
utiši	-3330
▁Mela	-3331
▁botš	-3332
▁laun	-3333
▁once	-3334
▁Eupša	-3335
▁leago	-3336
▁plans	-3337
tšopele	-3338
▁hlahlo	-3339
▁kgetha	-3340
▁mabedi	-3341
▁abelana	-3342
▁nyakega	-3343
▁identity	-3344
▁democracy	-3345
▁opportunity	-3346
▁ša	-3347
enya	-3348
▁Mok	-3349
▁pat	-3350
anies	-3351
antoro	-3352
ressed	-3353
umente	-3354
▁going	-3355
▁ntlha	-3356
▁tloge	-3357
▁months	-3358
▁Premier	-3359
▁appoint	-3360
▁freedom	-3361
▁monitor	-3362
▁persons	-3363
▁Tikologo	-3364
▁electric	-3365
▁lebanego	-3366
▁regional	-3367
▁tlhokego	-3368
▁concerned	-3369
▁Tshepedišo	-3370
▁akaretšago	-3371
▁employment	-3372
eria	-3373
ones	-3374
▁due	-3375
▁exc	-3376
ivers	-3377
pheng	-3378
▁best	-3379
▁reka	-3380
inente	-3381
▁Commun	-3382
▁ithuta	-3383
▁lekola	-3384
▁tšhila	-3385
bilities	-3386
mination	-3387
▁gabjale	-3388
▁hlongwa	-3389
▁strategy	-3390
▁tiišetša	-3391
▁apartheid	-3392
▁kgatelelo	-3393
▁situation	-3394
▁Provincial	-3395
▁fapafapana	-3396
▁maintenance	-3397
▁kgethologanyo	-3398
-1	-3399
▁14	-3400
▁Nt	-3401
date	-3402
▁har	-3403
Borwa	-3404
aries	-3405
bsite	-3406
saete	-3407
▁bale	-3408
itable	-3409
wantle	-3410
▁Bohla	-3411
▁bahla	-3412
▁dikho	-3413
▁exerc	-3414
▁least	-3415
▁depart	-3416
▁nagana	-3417
▁strong	-3418
▁tekate	-3419
ithomelo	-3420
▁hwetšwa	-3421
▁statist	-3422
▁dirilego	-3423
▁marriage	-3424
▁currently	-3425
▁operations	-3426
▁Kgorotsheko	-3427
▁Johannesburg	-3428
▁Municipality	-3429
iwa	-3430
rup	-3431
Zulu	-3432
enye	-3433
folo	-3434
hate	-3435
rand	-3436
▁amo	-3437
folio	-3438
hlela	-3439
rding	-3440
teral	-3441
▁copy	-3442
▁file	-3443
▁poor	-3444
foromo	-3445
▁Speak	-3446
▁tshwa	-3447
▁across	-3448
▁boloka	-3449
▁manner	-3450
▁Maphelo	-3451
▁hlokago	-3452
▁rarolla	-3453
▁individu	-3454
▁Kgobokano	-3455
▁dinamelwa	-3456
▁kantorong	-3457
▁šireletša	-3458
▁da	-3459
pile	-3460
sign	-3461
▁Any	-3462
▁div	-3463
▁kae	-3464
▁lat	-3465
rents	-3466
▁East	-3467
▁imme	-3468
▁poss	-3469
bakelo	-3470
▁bjang	-3471
▁ditha	-3472
▁limit	-3473
▁resul	-3474
▁works	-3475
▁dibaka	-3476
▁lebelo	-3477
▁general	-3478
▁lenyalo	-3479
▁commission	-3480
▁tlaleletšo	-3481
orm	-3482
ria	-3483
swi	-3484
otho	-3485
pend	-3486
▁Les	-3487
▁ema	-3488
▁nka	-3489
▁sim	-3490
▁vic	-3491
▁šit	-3492
letše	-3493
lwego	-3494
▁Dira	-3495
▁book	-3496
▁emer	-3497
▁eval	-3498
▁sefe	-3499
▁thwa	-3500
iletšo	-3501
▁Trans	-3502
▁staff	-3503
▁think	-3504
▁šišin	-3505
mission	-3506
▁Dinaga	-3507
▁babedi	-3508
▁katolo	-3509
▁second	-3510
▁council	-3511
▁diphedi	-3512
▁increase	-3513
▁treatment	-3514
▁bagononelwa	-3515
▁Commissioner	-3516
▁ditshepedišo	-3517
cum	-3518
emp	-3519
tšh	-3520
▁Ra	-3521
▁pi	-3522
lege	-3523
oria	-3524
rego	-3525
▁Hlo	-3526
▁gob	-3527
▁ike	-3528
enywa	-3529
lines	-3530
poses	-3531
▁Home	-3532
▁dibe	-3533
▁qual	-3534
▁tele	-3535
cience	-3536
▁baswa	-3537
▁boima	-3538
▁equip	-3539
▁region	-3540
▁remain	-3541
▁supply	-3542
polotiki	-3543
▁consist	-3544
▁dirwago	-3545
▁traffic	-3546
▁Repabliki	-3547
▁authority	-3548
▁tšhomišano	-3549
▁phethagatšo	-3550
ME	-3551
bed	-3552
pol	-3553
▁21	-3554
▁Wh	-3555
loša	-3556
▁Yun	-3557
iting	-3558
▁farm	-3559
gareng	-3560
ukwana	-3561
▁amana	-3562
▁botho	-3563
▁plant	-3564
▁thwii	-3565
▁tlwaele	-3566
▁Motlatša	-3567
▁material	-3568
▁property	-3569
▁appointed	-3570
▁swanetšwe	-3571
▁molaomogolo	-3572
ID	-3573
IS	-3574
kat	-3575
khu	-3576
mary	-3577
▁Cab	-3578
▁dru	-3579
▁van	-3580
▁hope	-3581
▁swer	-3582
encies	-3583
išinyo	-3584
▁ditse	-3585
▁bodulo	-3586
▁contra	-3587
▁dipolo	-3588
▁immedi	-3589
▁organis	-3590
▁beakanya	-3591
▁evidence	-3592
▁kgopelwa	-3593
▁statement	-3594
▁ikemišeditše	-3595
kg	-3596
tso	-3597
▁civ	-3598
▁SADC	-3599
▁able	-3600
▁anim	-3601
▁badi	-3602
▁head	-3603
▁live	-3604
▁sche	-3605
▁site	-3606
▁wish	-3607
eletša	-3608
▁boeti	-3609
▁beilwe	-3610
▁alleged	-3611
▁tšwelela	-3612
▁potential	-3613
▁thekontle	-3614
▁tshwanelo	-3615
▁applicable	-3616
▁tumelelano	-3617
▁Chairperson	-3618
▁phatlalatša	-3619
ET	-3620
yc	-3621
dem	-3622
ems	-3623
nel	-3624
ons	-3625
▁Ts	-3626
kišo	-3627
pped	-3628
ruru	-3629
▁DHA	-3630
elano	-3631
fatši	-3632
fully	-3633
illed	-3634
veral	-3635
▁less	-3636
binete	-3637
▁Mohla	-3638
▁photo	-3639
▁stadi	-3640
emogelo	-3641
▁motswa	-3642
▁status	-3643
▁dirilwe	-3644
▁introdu	-3645
▁lehlako	-3646
▁maintain	-3647
▁dihlongwa	-3648
stitutional	-3649
▁theknolotši	-3650
▁applications	-3651
FA	-3652
eds	-3653
▁Ye	-3654
atša	-3655
▁Mai	-3656
▁deb	-3657
▁don	-3658
ither	-3659
▁With	-3660
▁toka	-3661
hatema	-3662
▁banna	-3663
▁bašom	-3664
▁ditšh	-3665
▁enhan	-3666
▁hlogo	-3667
enthara	-3668
▁safety	-3669
ditional	-3670
▁bodiidi	-3671
▁dithuto	-3672
▁lewatle	-3673
▁tsebiša	-3674
▁Complete	-3675
▁existing	-3676
▁diphetogo	-3677
▁intasteri	-3678
▁intervent	-3679
▁submitted	-3680
▁identified	-3681
▁theramelao	-3682
▁performance	-3683
gu	-3684
eld	-3685
foka	-3686
miti	-3687
▁Gab	-3688
▁Khu	-3689
▁Naa	-3690
▁hig	-3691
▁mer	-3692
ances	-3693
iring	-3694
venue	-3695
▁That	-3696
▁diin	-3697
▁pola	-3698
▁rate	-3699
▁sing	-3700
▁frame	-3701
▁ikget	-3702
▁langu	-3703
▁point	-3704
▁taelo	-3705
▁words	-3706
▁youth	-3707
▁Tlatša	-3708
▁crimin	-3709
▁kalafo	-3710
▁mantšu	-3711
▁mentši	-3712
▁Cabinet	-3713
▁bonnete	-3714
▁conduct	-3715
▁defence	-3716
▁forward	-3717
▁mafapha	-3718
▁tickets	-3719
▁website	-3720
▁approved	-3721
▁mabakeng	-3722
▁mellwane	-3723
▁planning	-3724
▁purposes	-3725
▁kgethollo	-3726
▁processes	-3727
bra	-3728
▁Ee	-3729
ened	-3730
ines	-3731
serv	-3732
▁Gro	-3733
▁net	-3734
▁rat	-3735
▁sum	-3736
šetša	-3737
▁find	-3738
▁ingwa	-3739
▁legal	-3740
▁refle	-3741
▁sware	-3742
spector	-3743
▁Commit	-3744
▁struct	-3745
atamente	-3746
▁contact	-3747
▁dikgato	-3748
▁medical	-3749
▁parents	-3750
▁contract	-3751
▁ditefelo	-3752
▁equipment	-3753
▁kgonagalo	-3754
▁šomišwago	-3755
▁sepelelana	-3756
▁responsibility	-3757
▁Ca	-3758
▁Si	-3759
▁Sy	-3760
rust	-3761
selo	-3762
▁Bar	-3763
▁Eng	-3764
▁Hon	-3765
▁aff	-3766
letši	-3767
ville	-3768
▁gate	-3769
▁lwan	-3770
▁claim	-3771
▁goods	-3772
▁hlomp	-3773
▁kgašo	-3774
▁maina	-3775
conomic	-3776
gations	-3777
hlabelo	-3778
▁assess	-3779
▁bonolo	-3780
▁called	-3781
▁nomoro	-3782
▁batswadi	-3783
▁polokego	-3784
▁protšeke	-3785
▁provides	-3786
▁ditlakala	-3787
▁sustainable	-3788
do	-3789
▁60	-3790
▁er	-3791
mber	-3792
onte	-3793
▁Pri	-3794
egelo	-3795
pping	-3796
šitše	-3797
▁Pret	-3798
▁bega	-3799
▁beng	-3800
▁mean	-3801
enkele	-3802
ensive	-3803
▁agric	-3804
▁bafsa	-3805
▁bohle	-3806
▁close	-3807
▁hlama	-3808
▁diffic	-3809
▁fetola	-3810
▁letter	-3811
okobatši	-3812
▁However	-3813
▁stadium	-3814
▁tsenele	-3815
▁hweditše	-3816
▁kgontšha	-3817
▁passport	-3818
▁executive	-3819
OC	-3820
PA	-3821
oms	-3822
pes	-3823
uba	-3824
▁uk	-3825
cast	-3826
▁Pha	-3827
▁Tha	-3828
▁tas	-3829
▁Dipo	-3830
▁dest	-3831
▁tiro	-3832
▁tšhe	-3833
ahlodi	-3834
išwago	-3835
▁above	-3836
▁black	-3837
▁build	-3838
▁dithu	-3839
▁maswi	-3840
▁ntšha	-3841
kanelwa	-3842
▁Lefelo	-3843
▁accord	-3844
▁metšhe	-3845
legilego	-3846
▁Petrole	-3847
▁balaodi	-3848
▁molaleng	-3849
▁violence	-3850
▁boitsebišo	-3851
29	-3852
ique	-3853
▁Acc	-3854
▁abe	-3855
▁etc	-3856
atory	-3857
kahla	-3858
thing	-3859
▁enga	-3860
▁khon	-3861
▁tira	-3862
lwaedi	-3863
▁Metro	-3864
▁Union	-3865
▁birth	-3866
▁ditek	-3867
▁innov	-3868
▁minim	-3869
▁rural	-3870
▁sehlo	-3871
hupetšo	-3872
▁lekana	-3873
▁madulo	-3874
▁magolo	-3875
▁achieve	-3876
▁concern	-3877
▁letseno	-3878
▁tseleng	-3879
▁karolong	-3880
▁policies	-3881
▁problems	-3882
▁semorafe	-3883
▁tletšego	-3884
cumstances	-3885
▁kgokagano	-3886
▁nyakišiša	-3887
▁regarding	-3888
▁increasing	-3889
▁technology	-3890
DF	-3891
cel	-3892
ogo	-3893
hers	-3894
▁hos	-3895
▁ill	-3896
▁ser	-3897
rehen	-3898
rises	-3899
swalo	-3900
▁Dika	-3901
▁bjoo	-3902
▁hard	-3903
▁rela	-3904
▁self	-3905
▁seth	-3906
bišano	-3907
cement	-3908
esense	-3909
isters	-3910
pikara	-3911
▁inten	-3912
▁occup	-3913
▁share	-3914
▁thank	-3915
▁times	-3916
▁tsošo	-3917
▁attend	-3918
▁having	-3919
▁kgwedi	-3920
▁malapa	-3921
▁nation	-3922
▁polelo	-3923
▁KwaZulu	-3924
▁Speaker	-3925
▁housing	-3926
▁lefapha	-3927
▁Kabinete	-3928
▁bolwetši	-3929
▁hlabolla	-3930
▁officials	-3931
▁tšweletše	-3932
▁integrated	-3933
▁population	-3934
den	-3935
sia	-3936
ired	-3937
▁Bus	-3938
▁kok	-3939
▁web	-3940
lenge	-3941
nical	-3942
otshe	-3943
▁High	-3944
▁moso	-3945
ercial	-3946
wanedi	-3947
▁kwano	-3948
▁maoto	-3949
▁pheth	-3950
▁whole	-3951
ffected	-3952
▁Office	-3953
▁dulago	-3954
▁nature	-3955
pedišong	-3956
▁serious	-3957
sehlabelo	-3958
▁benefits	-3959
▁kgahlego	-3960
▁democratic	-3961
▁investment	-3962
▁objectives	-3963
▁tekatekano	-3964
▁tikologong	-3965
▁organisation	-3966
pr	-3967
▁,	-3968
lam	-3969
pet	-3970
pre	-3971
bele	-3972
dget	-3973
kana	-3974
thek	-3975
tošo	-3976
▁Bay	-3977
▁rek	-3978
▁tru	-3979
aneng	-3980
apišo	-3981
iling	-3982
irišo	-3983
▁Just	-3984
▁anti	-3985
▁link	-3986
▁maka	-3987
mogelo	-3988
▁conne	-3989
▁using	-3990
▁appear	-3991
▁mohola	-3992
▁telele	-3993
▁dikgoba	-3994
▁several	-3995
▁according	-3996
▁challenge	-3997
▁maswanedi	-3998
▁structure	-3999
▁dipolotiki	-4000
▁diprofense	-4001
▁diswantšho	-4002
▁sepolotiki	-4003
▁kgorotsheko	-4004
▁International	-4005
AT	-4006
MS	-4007
bly	-4008
rar	-4009
rop	-4010
ump	-4011
cked	-4012
ming	-4013
omet	-4014
oney	-4015
orop	-4016
▁Met	-4017
▁Sum	-4018
▁oba	-4019
▁ren	-4020
▁spa	-4021
▁tri	-4022
lates	-4023
šwago	-4024
▁1998	-4025
▁kolo	-4026
▁lena	-4027
▁temp	-4028
▁util	-4029
lelong	-4030
otledi	-4031
phethe	-4032
▁Dipro	-4033
▁baeti	-4034
▁cause	-4035
▁mahlo	-4036
▁often	-4037
▁value	-4038
ditšego	-4039
▁boitha	-4040
▁taking	-4041
▁mineral	-4042
▁thomile	-4043
▁included	-4044
▁lwantšha	-4045
▁Committee	-4046
▁dipotšišo	-4047
▁operation	-4048
▁sefatanaga	-4049
▁Dinyakišišo	-4050
▁departments	-4051
▁laeditšwego	-4052
▁tšwetšopele	-4053
▁dumeletšwego	-4054
▁municipalities	-4055
eleb	-4056
kget	-4057
llis	-4058
rata	-4059
▁Fin	-4060
▁Ver	-4061
▁jud	-4062
▁phu	-4063
▁tal	-4064
cient	-4065
gwago	-4066
homph	-4067
▁Bill	-4068
▁Part	-4069
▁away	-4070
▁pušo	-4071
uthern	-4072
▁Motho	-4073
▁bahlo	-4074
▁later	-4075
olofolo	-4076
▁budget	-4077
▁mebušo	-4078
▁origin	-4079
▁rekiša	-4080
▁Services	-4081
▁critical	-4082
▁diforomo	-4083
▁military	-4084
▁baetapele	-4085
▁dikgaruru	-4086
▁accordance	-4087
▁diokobatši	-4088
▁mafolofolo	-4089
ash	-4090
edu	-4091
now	-4092
rea	-4093
ders	-4094
ilar	-4095
kany	-4096
lala	-4097
rely	-4098
▁Des	-4099
▁Mab	-4100
▁ide	-4101
▁job	-4102
▁ris	-4103
gwalo	-4104
▁bopa	-4105
▁mose	-4106
afrika	-4107
▁World	-4108
▁etela	-4109
▁occur	-4110
▁proof	-4111
▁thoko	-4112
▁until	-4113
ression	-4114
▁compli	-4115
▁instru	-4116
▁strugg	-4117
▁tekolo	-4118
▁tlatša	-4119
▁tšatši	-4120
▁bolaodi	-4121
▁histori	-4122
▁hlokome	-4123
▁related	-4124
rehensive	-4125
▁Pretoria	-4126
▁ngwadišo	-4127
▁signific	-4128
▁residence	-4129
▁strategic	-4130
▁principles	-4131
▁construction	-4132
MA	-4133
gen	-4134
ids	-4135
▁IC	-4136
▁Ms	-4137
ests	-4138
kete	-4139
melo	-4140
ront	-4141
▁Col	-4142
▁MEC	-4143
▁bul	-4144
▁mis	-4145
▁mot	-4146
▁naa	-4147
▁tre	-4148
putso	-4149
▁Madi	-4150
▁beke	-4151
▁fund	-4152
▁line	-4153
▁mass	-4154
▁mogo	-4155
▁pora	-4156
enseng	-4157
poroto	-4158
▁Ellis	-4159
▁allow	-4160
▁ditho	-4161
▁known	-4162
▁meepo	-4163
▁utswi	-4164
▁Komiti	-4165
▁create	-4166
▁mašole	-4167
▁please	-4168
▁swarwa	-4169
▁outside	-4170
▁conflict	-4171
▁dumelelwa	-4172
▁knowledge	-4173
▁standards	-4174
▁Management	-4175
▁procedures	-4176
▁citizenship	-4177
▁11	-4178
▁15	-4179
▁Pi	-4180
hiri	-4181
lisi	-4182
uses	-4183
▁Bon	-4184
▁ago	-4185
gongo	-4186
ingwa	-4187
ption	-4188
▁Plan	-4189
▁lehu	-4190
▁liqu	-4191
▁madi	-4192
▁town	-4193
istrar	-4194
kanywa	-4195
waneng	-4196
▁China	-4197
▁along	-4198
▁clean	-4199
▁fetiš	-4200
▁offer	-4201
▁prepa	-4202
enyetla	-4203
oropong	-4204
▁Godimo	-4205
▁others	-4206
▁return	-4207
▁tshela	-4208
▁discuss	-4209
▁hlagiša	-4210
▁sepetša	-4211
▁species	-4212
▁station	-4213
▁informed	-4214
▁matswalo	-4215
▁transfer	-4216
▁companies	-4217
▁recommend	-4218
▁assistance	-4219
▁experience	-4220
▁initiatives	-4221
▁maatlafatša	-4222
▁particularly	-4223
CED	-4224
IFA	-4225
ony	-4226
▁CC	-4227
baso	-4228
lamo	-4229
uman	-4230
▁201	-4231
▁Not	-4232
▁dom	-4233
▁fla	-4234
▁kua	-4235
▁mpe	-4236
arian	-4237
nyana	-4238
▁ntše	-4239
▁poll	-4240
▁Maemo	-4241
▁Organ	-4242
▁bonwa	-4243
▁bring	-4244
▁celeb	-4245
▁death	-4246
▁lepat	-4247
▁rates	-4248
▁recor	-4249
getšego	-4250
ourable	-4251
▁Kopano	-4252
▁Mongwa	-4253
▁accomp	-4254
▁living	-4255
▁motšwa	-4256
▁stolen	-4257
▁General	-4258
▁fihlela	-4259
▁licence	-4260
▁šetšego	-4261
▁Mokgatlo	-4262
▁diphetho	-4263
▁gaborena	-4264
▁sethunya	-4265
etifikeiti	-4266
▁Inspector	-4267
▁conducted	-4268
▁commitment	-4269
▁dikhamphani	-4270
▁prospecting	-4271
▁toropokgolo	-4272
IA	-4273
if	-4274
lt	-4275
hib	-4276
log	-4277
ury	-4278
▁18	-4279
▁NE	-4280
laba	-4281
rief	-4282
yara	-4283
▁Hla	-4284
▁Mdi	-4285
▁Tho	-4286
▁ali	-4287
▁vol	-4288
hwama	-4289
kwana	-4290
range	-4291
seter	-4292
table	-4293
ulate	-4294
šetšo	-4295
▁Bank	-4296
▁Unit	-4297
▁comb	-4298
▁coun	-4299
▁kgao	-4300
▁says	-4301
▁sour	-4302
▁amago	-4303
▁cases	-4304
▁class	-4305
▁fight	-4306
▁kgate	-4307
▁stage	-4308
▁white	-4309
issions	-4310
versity	-4311
▁behalf	-4312
▁boloke	-4313
▁compla	-4314
▁holder	-4315
▁melato	-4316
▁season	-4317
mphegago	-4318
ological	-4319
▁baemedi	-4320
▁believe	-4321
▁citizen	-4322
▁coastal	-4323
▁kotsing	-4324
▁variety	-4325
▁lebakeng	-4326
▁dikgopolo	-4327
▁mohlankedi	-4328
▁tšwelopele	-4329
▁maitemogelo	-4330
sha	-4331
▁ja	-4332
goro	-4333
itha	-4334
nthe	-4335
play	-4336
poši	-4337
šweu	-4338
▁Kha	-4339
▁Yes	-4340
▁ask	-4341
▁fri	-4342
▁mes	-4343
arest	-4344
ening	-4345
gated	-4346
gilwe	-4347
rence	-4348
tšong	-4349
▁Polo	-4350
▁WCED	-4351
▁holo	-4352
▁sphe	-4353
▁test	-4354
kgwedi	-4355
▁cover	-4356
▁emela	-4357
▁kgato	-4358
▁phela	-4359
▁either	-4360
▁powers	-4361
▁problem	-4362
▁results	-4363
▁tshenyo	-4364
▁laeditše	-4365
faditšwego	-4366
kgathatema	-4367
▁Municipal	-4368
▁ditlabelo	-4369
▁lebeletše	-4370
▁determined	-4371
▁possession	-4372
▁Environment	-4373
▁consultation	-4374
4.	-4375
ert	-4376
tsi	-4377
▁ko	-4378
▁vi	-4379
chan	-4380
kgof	-4381
road	-4382
seka	-4383
▁six	-4384
▁spo	-4385
▁win	-4386
ights	-4387
mpiri	-4388
▁Dite	-4389
▁Ditš	-4390
▁Temo	-4391
▁West	-4392
▁alwa	-4393
▁boip	-4394
▁boše	-4395
▁pric	-4396
▁proce	-4397
akarolo	-4398
▁Mešomo	-4399
▁kgokag	-4400
▁tefelo	-4401
▁dibetša	-4402
▁example	-4403
▁kantoro	-4404
▁neelana	-4405
▁receive	-4406
▁workers	-4407
▁activity	-4408
▁barutiši	-4409
▁structures	-4410
▁association	-4411
▁electricity	-4412
▁manufacture	-4413
ior	-4414
ize	-4415
khe	-4416
ley	-4417
▁el	-4418
hole	-4419
oper	-4420
rela	-4421
rene	-4422
uthe	-4423
▁kha	-4424
ature	-4425
kollo	-4426
lands	-4427
omoro	-4428
tšene	-4429
▁Aust	-4430
▁Maba	-4431
▁Many	-4432
▁anal	-4433
▁gola	-4434
▁safe	-4435
▁sete	-4436
▁stri	-4437
▁upon	-4438
▁aware	-4439
▁phoko	-4440
▁speak	-4441
išeneng	-4442
▁kgotso	-4443
▁phathi	-4444
▁benefit	-4445
▁officer	-4446
▁sectors	-4447
▁started	-4448
▁written	-4449
gantšwego	-4450
▁menyetla	-4451
▁sepediša	-4452
▁committed	-4453
▁designated	-4454
▁hwetšagala	-4455
▁themselves	-4456
▁ditlabakelo	-4457
▁significant	-4458
26	-4459
BC	-4460
PO	-4461
dra	-4462
ian	-4463
oka	-4464
ota	-4465
reg	-4466
peng	-4467
unds	-4468
▁Seo	-4469
▁lao	-4470
▁led	-4471
▁rwe	-4472
▁yes	-4473
going	-4474
legal	-4475
patšo	-4476
tlele	-4477
itions	-4478
▁aimed	-4479
▁akgof	-4480
▁appre	-4481
▁mollo	-4482
▁never	-4483
▁always	-4484
▁former	-4485
▁modiro	-4486
▁parent	-4487
▁record	-4488
▁reduce	-4489
▁settle	-4490
▁taetšo	-4491
▁travel	-4492
▁charact	-4493
▁correct	-4494
▁details	-4495
▁distrib	-4496
▁granted	-4497
▁kgonago	-4498
▁expected	-4499
▁independ	-4500
▁tharollo	-4501
▁administr	-4502
▁maitekelo	-4503
▁provinces	-4504
▁diprotšeke	-4505
▁matlafatša	-4506
cre	-4507
ery	-4508
has	-4509
lls	-4510
▁16	-4511
▁US	-4512
ends	-4513
ites	-4514
noun	-4515
sequ	-4516
▁ala	-4517
▁eli	-4518
▁top	-4519
inent	-4520
iving	-4521
matic	-4522
mical	-4523
uated	-4524
▁FIFA	-4525
▁Road	-4526
▁ikga	-4527
▁thun	-4528
mphegi	-4529
though	-4530
▁guide	-4531
▁lives	-4532
▁maswa	-4533
▁money	-4534
▁rwala	-4535
▁setlo	-4536
▁theko	-4537
▁thoto	-4538
▁kabelo	-4539
▁threat	-4540
▁šomana	-4541
▁profess	-4542
▁tlogela	-4543
▁tourism	-4544
▁cultural	-4545
▁kgotlele	-4546
▁rerišana	-4547
▁elections	-4548
▁lewatleng	-4549
▁maitapišo	-4550
▁residents	-4551
▁leadership	-4552
▁Setifikeiti	-4553
▁phatlalatšo	-4554
▁investigation	-4555
▁organisations	-4556
ilt	-4557
xim	-4558
▁Gu	-4559
▁Ha	-4560
▁Ri	-4561
▁TB	-4562
▁ir	-4563
cate	-4564
fici	-4565
illi	-4566
kodi	-4567
oman	-4568
teng	-4569
▁Sek	-4570
▁Sup	-4571
▁ann	-4572
▁fra	-4573
▁san	-4574
▁Thek	-4575
▁acqu	-4576
▁near	-4577
▁seek	-4578
▁view	-4579
▁went	-4580
asteri	-4581
faladi	-4582
ilione	-4583
▁Prote	-4584
▁Stats	-4585
▁basic	-4586
▁mohlo	-4587
▁possi	-4588
▁subit	-4589
▁Lekala	-4590
▁Selete	-4591
▁advert	-4592
▁rather	-4593
▁recent	-4594
▁šomela	-4595
▁Kantoro	-4596
▁consent	-4597
▁khuetšo	-4598
▁molaodi	-4599
▁remains	-4600
akanyetšo	-4601
▁affected	-4602
▁consider	-4603
▁dikopano	-4604
▁exercise	-4605
▁majority	-4606
▁mangwalo	-4607
▁Community	-4608
▁Honourable	-4609
IDS	-4610
cer	-4611
mba	-4612
ney	-4613
vis	-4614
wai	-4615
▁ur	-4616
▁ši	-4617
beng	-4618
icro	-4619
mand	-4620
pons	-4621
▁Kat	-4622
▁Som	-4623
▁ela	-4624
▁tur	-4625
cking	-4626
enced	-4627
▁Cons	-4628
▁bape	-4629
▁bare	-4630
▁maša	-4631
▁side	-4632
aching	-4633
dumedi	-4634
ommogo	-4635
parara	-4636
prises	-4637
suring	-4638
▁India	-4639
▁Produ	-4640
▁bjala	-4641
▁cross	-4642
▁decla	-4643
▁monna	-4644
▁press	-4645
▁senya	-4646
▁weeks	-4647
nyegelo	-4648
stitute	-4649
▁Lefase	-4650
▁Mafelo	-4651
▁Mokgwa	-4652
▁Mošomo	-4653
▁School	-4654
▁accoun	-4655
▁ground	-4656
▁groups	-4657
▁megala	-4658
▁modudi	-4659
▁review	-4660
letšwego	-4661
▁accommo	-4662
▁bohloko	-4663
▁bontšhi	-4664
▁tsebišo	-4665
▁Ngwadišo	-4666
▁Security	-4667
▁improved	-4668
▁letelele	-4669
▁vehicles	-4670
▁resolution	-4671
▁bakgathatema	-4672
▁mohlakanelwa	-4673
▁circumstances	-4674
Af	-4675
kt	-4676
bel	-4677
bos	-4678
kol	-4679
lay	-4680
uti	-4681
ably	-4682
hemi	-4683
hodu	-4684
lish	-4685
niki	-4686
ream	-4687
udit	-4688
▁Ira	-4689
▁eta	-4690
▁fee	-4691
▁inj	-4692
▁too	-4693
cknow	-4694
comes	-4695
ggest	-4696
power	-4697
tšago	-4698
▁Lebo	-4699
▁Mole	-4700
▁hlam	-4701
▁hold	-4702
▁mach	-4703
▁prem	-4704
▁Mayor	-4705
▁Thuto	-4706
▁bokga	-4707
▁brief	-4708
▁Summit	-4709
▁corpor	-4710
▁events	-4711
▁masolo	-4712
▁mebedi	-4713
▁mogala	-4714
▁notice	-4715
▁firearm	-4716
▁intensi	-4717
▁nyakego	-4718
▁similar	-4719
kgoparara	-4720
▁Tumelelo	-4721
▁peeletšo	-4722
išanommogo	-4723
▁Registrar	-4724
▁ditlhohlo	-4725
▁ikemišedi	-4726
▁ourselves	-4727
▁personnel	-4728
▁questions	-4729
▁tshepedišong	-4730
▁Environmental	-4731
▁interventions	-4732
ars	-4733
▁23	-4734
▁ID	-4735
eric	-4736
isms	-4737
llig	-4738
▁Mbe	-4739
▁ara	-4740
▁gre	-4741
▁lin	-4742
khale	-4743
posal	-4744
▁Gore	-4745
▁Well	-4746
▁assa	-4747
eletši	-4748
hanele	-4749
mošomo	-4750
▁Inter	-4751
▁Mohlo	-4752
▁Natal	-4753
▁itemo	-4754
▁repla	-4755
▁Bašomi	-4756
▁histor	-4757
▁instal	-4758
▁kgwele	-4759
▁mechan	-4760
▁ntlong	-4761
▁Justice	-4762
▁kgopolo	-4763
▁regular	-4764
▁setlogo	-4765
gongorego	-4766
homphutha	-4767
▁dikgwedi	-4768
▁framework	-4769
▁materials	-4770
▁technical	-4771
▁facilitate	-4772
▁ditlamorago	-4773
▁hweditšwego	-4774
▁immediately	-4775
▁kgatelopele	-4776
▁negotiations	-4777
▁participation	-4778
7.	-4779
imi	-4780
atic	-4781
icha	-4782
kere	-4783
moso	-4784
▁Mus	-4785
▁abs	-4786
olong	-4787
rants	-4788
▁Iraq	-4789
▁cong	-4790
▁fago	-4791
▁laol	-4792
▁left	-4793
▁norm	-4794
▁ruta	-4795
idered	-4796
katshe	-4797
▁Motse	-4798
▁accep	-4799
▁bomen	-4800
▁carry	-4801
▁fully	-4802
▁light	-4803
▁valid	-4804
vention	-4805
▁Rights	-4806
▁acknow	-4807
▁bonala	-4808
▁dimela	-4809
▁prepar	-4810
▁thakgo	-4811
▁toropo	-4812
economic	-4813
▁mention	-4814
▁phetogo	-4815
▁product	-4816
▁purpose	-4817
▁Ditokelo	-4818
▁Profense	-4819
▁hlakahla	-4820
▁Dikgopelo	-4821
▁poraebete	-4822
▁additional	-4823
▁considered	-4824
▁lebeletšwe	-4825
▁monitoring	-4826
▁Information	-4827
▁institution	-4828
▁agricultural	-4829
▁comprehensive	-4830
yn	-4831
šu	-4832
dis	-4833
oth	-4834
vey	-4835
▁Ao	-4836
anel	-4837
hlaa	-4838
irit	-4839
sana	-4840
than	-4841
uter	-4842
▁Sha	-4843
▁bop	-4844
▁rac	-4845
cting	-4846
▁Dist	-4847
▁Form	-4848
▁fihl	-4849
▁otle	-4850
▁phum	-4851
▁read	-4852
▁seba	-4853
coming	-4854
dation	-4855
ulated	-4856
▁Dipho	-4857
▁baagi	-4858
▁boela	-4859
▁break	-4860
▁maphe	-4861
▁phepo	-4862
▁separ	-4863
▁sport	-4864
▁šomiš	-4865
kaganya	-4866
ruption	-4867
▁Progra	-4868
▁amount	-4869
▁bilego	-4870
▁comply	-4871
▁dikelo	-4872
▁dintši	-4873
▁hlahla	-4874
▁observ	-4875
▁unless	-4876
▁values	-4877
▁context	-4878
▁nearest	-4879
▁numbers	-4880
▁reasons	-4881
▁tlwaelo	-4882
▁lekanego	-4883
▁ngwadiši	-4884
▁practice	-4885
▁hweditšwe	-4886
▁developing	-4887
▁permission	-4888
hn	-4889
bong	-4890
taba	-4891
term	-4892
▁Kga	-4893
▁ina	-4894
▁mur	-4895
▁wal	-4896
aring	-4897
enale	-4898
eteng	-4899
holds	-4900
▁Cont	-4901
▁Medi	-4902
▁enjo	-4903
▁exch	-4904
▁mera	-4905
▁ralo	-4906
▁seen	-4907
▁tshw	-4908
▁turn	-4909
▁šoro	-4910
anding	-4911
ontšho	-4912
ughout	-4913
▁Coast	-4914
▁Local	-4915
▁fetša	-4916
▁morwa	-4917
▁whose	-4918
cturing	-4919
ization	-4920
▁Mabapi	-4921
▁enable	-4922
▁mathom	-4923
▁seripa	-4924
▁single	-4925
▁Mananeo	-4926
▁dihlare	-4927
▁witness	-4928
▁criminal	-4929
▁meetings	-4930
▁ngwadiša	-4931
▁struggle	-4932
▁determine	-4933
▁difficult	-4934
▁molaotheo	-4935
▁providing	-4936
▁tiragatšo	-4937
▁kontinente	-4938
▁tlaleletša	-4939
▁partnership	-4940
▁fapafapanego	-4941
▁phethagatšwa	-4942
▁tseneletšego	-4943
IT	-4944
dia	-4945
gro	-4946
xed	-4947
▁Ja	-4948
hala	-4949
kile	-4950
kiši	-4951
mino	-4952
paro	-4953
ruit	-4954
ucle	-4955
▁Mrs	-4956
▁One	-4957
▁fre	-4958
▁lod	-4959
▁sex	-4960
▁vot	-4961
erika	-4962
lefsa	-4963
rison	-4964
▁Bana	-4965
▁Educ	-4966
▁clin	-4967
▁face	-4968
▁news	-4969
▁nolo	-4970
▁rile	-4971
▁risk	-4972
▁soon	-4973
illion	-4974
▁Agric	-4975
▁takes	-4976
etšwago	-4977
▁announ	-4978
▁conclu	-4979
▁fetoša	-4980
▁golega	-4981
▁higher	-4982
▁launch	-4983
▁senior	-4984
lligence	-4985
▁central	-4986
▁consequ	-4987
▁disease	-4988
▁married	-4989
▁gannyane	-4990
▁kamogelo	-4991
▁resident	-4992
▁boetapele	-4993
▁commercial	-4994
▁supporting	-4995
▁integration	-4996
▁kgonthišiša	-4997
▁professional	-4998
▁establishment	-4999
SS	-5000
ita	-5001
lak	-5002
psh	-5003
▁hu	-5004
bogo	-5005
moka	-5006
mong	-5007
omes	-5008
ried	-5009
year	-5010
▁Ele	-5011
▁Pho	-5012
▁eff	-5013
▁nne	-5014
▁ten	-5015
eries	-5016
hlobi	-5017
itche	-5018
kanya	-5019
monst	-5020
ronic	-5021
▁arri	-5022
▁drug	-5023
▁emba	-5024
▁guar	-5025
kolong	-5026
▁North	-5027
▁ahlaa	-5028
▁defin	-5029
▁emiša	-5030
▁extra	-5031
▁lahle	-5032
▁moswa	-5033
related	-5034
▁Americ	-5035
▁agreed	-5036
▁hlatse	-5037
▁income	-5038
▁itself	-5039
▁lefela	-5040
▁things	-5041
katsheko	-5042
▁demonst	-5043
▁justice	-5044
▁mission	-5045
▁writing	-5046
▁amogetše	-5047
▁dibopego	-5048
▁dithunya	-5049
▁ensuring	-5050
▁kgafetša	-5051
▁matlotlo	-5052
▁positive	-5053
▁relating	-5054
▁committee	-5055
▁customary	-5056
▁increased	-5057
▁dipeeletšo	-5058
▁industrial	-5059
▁successful	-5060
▁throughout	-5061
▁phrobentshe	-5062
▁partnerships	-5063
abi	-5064
ird	-5065
win	-5066
▁Li	-5067
etse	-5068
puku	-5069
rese	-5070
temp	-5071
▁Mme	-5072
▁Mos	-5073
▁Sep	-5074
▁ans	-5075
▁blo	-5076
▁dif	-5077
▁eas	-5078
▁pen	-5079
▁yet	-5080
ranch	-5081
where	-5082
▁batš	-5083
▁thop	-5084
oswere	-5085
▁After	-5086
▁Child	-5087
▁Somal	-5088
▁amega	-5089
▁batše	-5090
▁below	-5091
▁letla	-5092
▁range	-5093
▁sehla	-5094
fetšego	-5095
▁bodudi	-5096
▁demand	-5097
▁gender	-5098
▁intera	-5099
▁mošomi	-5100
▁papadi	-5101
▁plants	-5102
▁suppli	-5103
šitšwego	-5104
▁adopted	-5105
▁ikgetha	-5106
▁underst	-5107
ingwadišo	-5108
▁akgofiša	-5109
▁bonnyane	-5110
▁gatelela	-5111
▁tirišong	-5112
pharephare	-5113
▁allocated	-5114
▁improving	-5115
▁phadišano	-5116
▁phraebete	-5117
▁reference	-5118
▁Diprofense	-5119
▁provisions	-5120
▁traditional	-5121
▁ikemišeditšego	-5122
af	-5123
uka	-5124
▁Bi	-5125
▁OP	-5126
▁PA	-5127
▁je	-5128
atch	-5129
gers	-5130
heng	-5131
koto	-5132
uted	-5133
view	-5134
▁Sam	-5135
▁ess	-5136
▁mus	-5137
▁nno	-5138
▁vac	-5139
kgafo	-5140
leswa	-5141
loyed	-5142
risis	-5143
▁Aowa	-5144
▁Euro	-5145
▁Naga	-5146
▁Pego	-5147
▁foot	-5148
▁ikop	-5149
▁mona	-5150
▁nepa	-5151
▁phet	-5152
▁sure	-5153
▁theo	-5154
dišana	-5155
irates	-5156
▁polao	-5157
▁thibe	-5158
▁thome	-5159
▁thula	-5160
▁tlile	-5161
kgonthe	-5162
▁komiti	-5163
▁mehola	-5164
▁receip	-5165
▁search	-5166
olofatši	-5167
▁appreci	-5168
▁confirm	-5169
▁golegwa	-5170
▁hlabolo	-5171
▁mehlare	-5172
▁segwera	-5173
▁sephiri	-5174
▁subitem	-5175
▁welcome	-5176
▁Maafrika	-5177
▁adoption	-5178
▁amogelwa	-5179
▁bitšwago	-5180
▁kopanong	-5181
▁learning	-5182
▁molawana	-5183
▁policing	-5184
▁premises	-5185
▁character	-5186
▁households	-5187
▁implemented	-5188
▁contribution	-5189
sp	-5190
rep	-5191
ssy	-5192
yer	-5193
anyi	-5194
gola	-5195
iles	-5196
ires	-5197
ital	-5198
load	-5199
šago	-5200
▁Cor	-5201
▁PSC	-5202
▁dev	-5203
▁pub	-5204
dates	-5205
entle	-5206
erous	-5207
ileng	-5208
ports	-5209
▁Bago	-5210
▁Demo	-5211
▁Pele	-5212
▁Tlho	-5213
▁boso	-5214
▁mara	-5215
▁mare	-5216
▁phen	-5217
▁saen	-5218
▁teac	-5219
▁told	-5220
illing	-5221
lished	-5222
ontein	-5223
▁Mbeki	-5224
▁civil	-5225
▁depos	-5226
▁emerg	-5227
▁relig	-5228
▁rules	-5229
▁tsama	-5230
▁gongwe	-5231
▁sešole	-5232
▁spirit	-5233
▁tumelo	-5234
▁arrange	-5235
▁kwešiše	-5236
▁bokamoso	-5237
▁category	-5238
▁facility	-5239
▁interests	-5240
▁diminerale	-5241
▁protection	-5242
▁ditšhišinyo	-5243
▁mogononelwa	-5244
▁administrative	-5245
ex	-5246
▁Mm	-5247
▁My	-5248
▁Of	-5249
▁hi	-5250
▁il	-5251
ibes	-5252
llow	-5253
▁Mid	-5254
▁Two	-5255
▁afe	-5256
▁low	-5257
▁sup	-5258
erals	-5259
onter	-5260
uteng	-5261
▁Dita	-5262
▁What	-5263
▁duty	-5264
▁fall	-5265
▁mats	-5266
▁mere	-5267
▁task	-5268
enyane	-5269
kanego	-5270
selara	-5271
uclear	-5272
▁candi	-5273
▁kholo	-5274
▁leswa	-5275
▁motor	-5276
▁parts	-5277
▁roads	-5278
▁ukang	-5279
nonelwa	-5280
▁attemp	-5281
▁engine	-5282
▁extent	-5283
▁otlela	-5284
▁purcha	-5285
kgafetša	-5286
▁actions	-5287
▁centres	-5288
▁illegal	-5289
▁payment	-5290
▁potšišo	-5291
▁receipt	-5292
▁approval	-5293
▁difofane	-5294
▁employer	-5295
▁katološa	-5296
▁position	-5297
▁ukangwego	-5298
▁Ditšhelete	-5299
▁dumeletšwe	-5300
▁kgwebišano	-5301
▁lehlakoreng	-5302
▁represented	-5303
are	-5304
iry	-5305
ser	-5306
▁EM	-5307
▁es	-5308
face	-5309
išwe	-5310
rabo	-5311
▁Hos	-5312
▁Sud	-5313
▁ape	-5314
▁maš	-5315
▁tum	-5316
asona	-5317
break	-5318
omane	-5319
orter	-5320
▁AIDS	-5321
▁Char	-5322
▁Sete	-5323
▁came	-5324
▁conv	-5325
▁dama	-5326
▁feed	-5327
▁loss	-5328
▁teko	-5329
eterin	-5330
inated	-5331
kilego	-5332
komedi	-5333
roniki	-5334
vision	-5335
▁Every	-5336
▁Other	-5337
▁colla	-5338
▁micro	-5339
▁nnoši	-5340
▁setla	-5341
▁sites	-5342
fontein	-5343
▁boradi	-5344
▁gobane	-5345
▁inthan	-5346
▁lesome	-5347
▁racism	-5348
cription	-5349
ilateral	-5350
išitšego	-5351
▁Nations	-5352
▁bokgabo	-5353
▁climate	-5354
▁fishing	-5355
▁maiteko	-5356
▁produce	-5357
▁dipolelo	-5358
▁followed	-5359
▁holofela	-5360
▁meetseng	-5361
▁officers	-5362
▁Education	-5363
▁Ministers	-5364
▁bomenetša	-5365
▁efficient	-5366
▁household	-5367
▁dikgahlego	-5368
▁encouraged	-5369
▁kgoboketša	-5370
▁strengthen	-5371
▁cooperation	-5372
▁dikgokagano	-5373
▁setatamente	-5374
▁Maikemišetšo	-5375
▁Registration	-5376
▁implementing	-5377
▁ditshenyegelo	-5378
ham	-5379
ito	-5380
phi	-5381
tal	-5382
une	-5383
▁cl	-5384
biša	-5385
enti	-5386
gego	-5387
iamo	-5388
reme	-5389
room	-5390
wood	-5391
▁lot	-5392
▁mmo	-5393
▁urg	-5394
Natal	-5395
getše	-5396
lathe	-5397
šetši	-5398
▁2004	-5399
▁Once	-5400
▁Supp	-5401
▁dibo	-5402
▁ipsh	-5403
▁mess	-5404
▁rene	-5405
▁seke	-5406
▁unit	-5407
ctoral	-5408
unding	-5409
▁Ditha	-5410
▁Sudan	-5411
▁artic	-5412
▁begin	-5413
▁costs	-5414
▁labor	-5415
▁maxim	-5416
▁mmala	-5417
▁night	-5418
▁paper	-5419
▁urban	-5420
▁Ditona	-5421
▁Kgwebo	-5422
▁boraro	-5423
▁caused	-5424
▁charge	-5425
▁crisis	-5426
▁expand	-5427
▁gopola	-5428
▁little	-5429
▁morero	-5430
▁ratago	-5431
▁advance	-5432
▁coordin	-5433
▁dibjalo	-5434
▁hlokega	-5435
▁palelwa	-5436
▁primary	-5437
hemikhale	-5438
▁boikgafo	-5439
▁directly	-5440
▁praebete	-5441
presidente	-5442
▁broadcast	-5443
▁decisions	-5444
▁kgonegago	-5445
▁Diphoofolo	-5446
▁initiative	-5447
▁kaonafatšo	-5448
▁appointment	-5449
▁participate	-5450
▁constitutional	-5451
EA	-5452
MME	-5453
feš	-5454
isa	-5455
off	-5456
ror	-5457
yun	-5458
▁Ab	-5459
▁Yo	-5460
lers	-5461
mini	-5462
sets	-5463
stra	-5464
void	-5465
ware	-5466
▁Nel	-5467
▁SAN	-5468
▁bur	-5469
▁gas	-5470
▁rap	-5471
▁vul	-5472
išani	-5473
urism	-5474
▁Cong	-5475
▁Prof	-5476
▁Your	-5477
▁mase	-5478
▁ntlo	-5479
▁tšha	-5480
balano	-5481
▁Apply	-5482
▁boagi	-5483
▁certi	-5484
▁enfor	-5485
▁expla	-5486
▁field	-5487
▁influ	-5488
▁oblig	-5489
▁table	-5490
▁tlala	-5491
loyment	-5492
▁atlega	-5493
▁bararo	-5494
▁bušele	-5495
▁dibeke	-5496
▁ditulo	-5497
▁emphas	-5498
▁fiwago	-5499
▁gatele	-5500
▁kamano	-5501
▁mother	-5502
▁tsheko	-5503
▁Israele	-5504
▁allowed	-5505
▁dealing	-5506
▁invited	-5507
▁kgethwa	-5508
▁kgolego	-5509
▁kwešišo	-5510
▁measure	-5511
▁spheres	-5512
▁thulano	-5513
▁Senthara	-5514
▁Southern	-5515
▁bonagala	-5516
▁employee	-5517
▁laesense	-5518
▁reported	-5519
▁Programme	-5520
▁amogetšwe	-5521
▁attention	-5522
▁lenaneong	-5523
▁pasporoto	-5524
▁Diminerale	-5525
▁hlokomelwa	-5526
▁submission	-5527
▁discussions	-5528
▁governments	-5529
▁moragonyana	-5530
▁outstanding	-5531
▁tšhoganetšo	-5532
▁developments	-5533
OR	-5534
ain	-5535
ole	-5536
oni	-5537
ancy	-5538
falo	-5539
illa	-5540
lama	-5541
miša	-5542
rian	-5543
ying	-5544
▁Exp	-5545
▁Pla	-5546
▁Sta	-5547
▁lwe	-5548
▁red	-5549
išane	-5550
pheth	-5551
▁Geor	-5552
▁Palo	-5553
▁cell	-5554
▁prec	-5555
▁repe	-5556
ducing	-5557
gatišo	-5558
▁Mlaba	-5559
▁affor	-5560
▁excel	-5561
▁incor	-5562
▁optim	-5563
▁potla	-5564
▁tlhom	-5565
▁tsene	-5566
▁tšere	-5567
▁upgra	-5568
▁Bontši	-5569
▁Indust	-5570
▁bekeng	-5571
▁dinepo	-5572
▁dipuku	-5573
▁gagolo	-5574
▁keteka	-5575
▁maleme	-5576
▁masome	-5577
▁mosadi	-5578
▁segolo	-5579
fficient	-5580
ktroniki	-5581
▁Amerika	-5582
▁Bosenyi	-5583
▁animals	-5584
▁changes	-5585
▁ditaelo	-5586
▁limited	-5587
▁obamela	-5588
▁phemiti	-5589
▁pukwana	-5590
cientific	-5591
hanselara	-5592
▁election	-5593
▁swerwego	-5594
▁bathobaso	-5595
▁intensify	-5596
▁kwagalago	-5597
▁practices	-5598
▁industries	-5599
▁maithomelo	-5600
▁Khuduthamaga	-5601
▁tlwaelegilego	-5602
73	-5603
bit	-5604
iso	-5605
nya	-5606
ule	-5607
upi	-5608
▁Um	-5609
fadi	-5610
gies	-5611
lass	-5612
ompi	-5613
šana	-5614
▁Bra	-5615
▁Ram	-5616
▁art	-5617
▁bio	-5618
▁sla	-5619
▁vir	-5620
house	-5621
inger	-5622
itiki	-5623
kwane	-5624
orary	-5625
▁2008	-5626
▁John	-5627
▁bose	-5628
▁ever	-5629
▁fair	-5630
▁jobs	-5631
▁keep	-5632
▁seve	-5633
▁tate	-5634
▁thwe	-5635
▁wide	-5636
istics	-5637
▁armed	-5638
▁doing	-5639
▁mmino	-5640
▁neigh	-5641
▁radio	-5642
▁somet	-5643
ception	-5644
iveness	-5645
udicial	-5646
▁Israel	-5647
▁bagolo	-5648
▁bolaya	-5649
▁fetoga	-5650
▁lokiša	-5651
▁mainly	-5652
▁manane	-5653
▁mararo	-5654
▁sekepe	-5655
entlemen	-5656
fešenale	-5657
onafatšo	-5658
position	-5659
seterata	-5660
▁applies	-5661
▁diaparo	-5662
▁dikotsi	-5663
▁letsogo	-5664
▁mothopo	-5665
▁ngwalwa	-5666
▁thekgwa	-5667
kakaretšo	-5668
▁ditumele	-5669
▁laolwago	-5670
▁resource	-5671
▁response	-5672
▁tlhalošo	-5673
▁tsamaišo	-5674
▁Palestini	-5675
▁dithekete	-5676
▁hlokomelo	-5677
▁matlakala	-5678
▁ngwadišwa	-5679
▁nolofatša	-5680
▁portfolio	-5681
▁prevention	-5682
▁ditšhupetšo	-5683
▁Applications	-5684
▁hlohleletšwa	-5685
IP	-5686
sy	-5687
ern	-5688
hop	-5689
▁CP	-5690
dequ	-5691
elds	-5692
mane	-5693
most	-5694
othe	-5695
spek	-5696
wise	-5697
zamb	-5698
▁Rus	-5699
▁fer	-5700
▁fil	-5701
▁mid	-5702
▁mok	-5703
erman	-5704
habil	-5705
kwago	-5706
ridge	-5707
thara	-5708
watle	-5709
▁Inte	-5710
▁Kgwe	-5711
▁audi	-5712
▁babo	-5713
▁cash	-5714
▁dila	-5715
▁hlag	-5716
▁hlao	-5717
▁mobu	-5718
▁molo	-5719
▁stop	-5720
lontle	-5721
▁Agree	-5722
▁Black	-5723
▁Const	-5724
▁Panel	-5725
▁bitša	-5726
▁early	-5727
▁engwa	-5728
▁khopi	-5729
▁leboa	-5730
▁negat	-5731
▁thopa	-5732
▁Maatla	-5733
▁Mozamb	-5734
▁dingwa	-5735
▁legolo	-5736
kakanywa	-5737
onteraka	-5738
▁Gauteng	-5739
▁beakany	-5740
▁bohlale	-5741
▁theilwe	-5742
▁Business	-5743
▁District	-5744
▁Hospital	-5745
▁Lekgotla	-5746
▁chemical	-5747
▁identify	-5748
▁laetšago	-5749
▁personal	-5750
▁Tšweletšo	-5751
▁diragatša	-5752
▁indicated	-5753
▁requested	-5754
▁Motlatšamo	-5755
▁efficiency	-5756
▁hlomilwego	-5757
▁individual	-5758
▁photograph	-5759
▁statistics	-5760
šwasehlabelo	-5761
▁authorities	-5762
▁boikarabelo	-5763
▁boingwadišo	-5764
▁ditokumente	-5765
▁khuduthamaga	-5766
",	-5767
RO	-5768
apa	-5769
gas	-5770
sen	-5771
thu	-5772
ura	-5773
▁Bu	-5774
▁Es	-5775
▁Tl	-5776
ccer	-5777
fort	-5778
mere	-5779
pola	-5780
▁Bat	-5781
▁Cup	-5782
▁Est	-5783
▁aut	-5784
sters	-5785
verse	-5786
▁Dint	-5787
▁SABC	-5788
▁bogo	-5789
▁mono	-5790
▁move	-5791
▁paid	-5792
▁pati	-5793
▁phys	-5794
▁proc	-5795
▁ways	-5796
▁Green	-5797
▁Human	-5798
▁Leano	-5799
▁breed	-5800
▁enjoy	-5801
▁items	-5802
▁joint	-5803
▁letha	-5804
▁maeto	-5805
▁occas	-5806
▁pursu	-5807
▁recre	-5808
▁stake	-5809
▁thous	-5810
dasteri	-5811
▁Secret	-5812
▁States	-5813
▁Supply	-5814
▁assign	-5815
▁confir	-5816
▁indeed	-5817
▁thwala	-5818
▁vulner	-5819
▁Gabotse	-5820
▁Pirates	-5821
▁Revenue	-5822
▁bohloki	-5823
▁kopanya	-5824
▁nuclear	-5825
▁tlilego	-5826
▁tsenywa	-5827
kgobapuku	-5828
▁prepared	-5829
▁requires	-5830
▁seleteng	-5831
▁According	-5832
▁continues	-5833
▁dithulano	-5834
▁setlwaedi	-5835
▁strategies	-5836
▁Agriculture	-5837
▁Bagononelwa	-5838
▁Mohlomphegi	-5839
▁diintasteri	-5840
▁statistical	-5841
▁motšwaoswere	-5842
▁authorisation	-5843
IC	-5844
LA	-5845
▁z	-5846
ose	-5847
pok	-5848
▁Mp	-5849
▁Wo	-5850
▁br	-5851
hipi	-5852
holo	-5853
huma	-5854
ians	-5855
ible	-5856
inct	-5857
lini	-5858
qual	-5859
rich	-5860
time	-5861
tims	-5862
▁Che	-5863
▁Dip	-5864
▁Now	-5865
▁cut	-5866
▁efo	-5867
▁saw	-5868
▁try	-5869
epong	-5870
estic	-5871
gistr	-5872
hekgi	-5873
kotla	-5874
lance	-5875
llect	-5876
lwane	-5877
secut	-5878
▁Over	-5879
▁elwa	-5880
▁ikgo	-5881
▁infe	-5882
▁tšer	-5883
ganego	-5884
gating	-5885
šitšwe	-5886
▁River	-5887
▁Trade	-5888
▁badir	-5889
▁borwa	-5890
▁kopan	-5891
▁might	-5892
▁socio	-5893
▁towns	-5894
faditše	-5895
reprene	-5896
▁agency	-5897
▁analys	-5898
▁coming	-5899
▁effort	-5900
▁fasana	-5901
▁fetiša	-5902
▁formal	-5903
▁linked	-5904
▁meraro	-5905
▁placed	-5906
▁points	-5907
ervation	-5908
▁applied	-5909
▁content	-5910
▁hlokego	-5911
▁kgatišo	-5912
thephethe	-5913
▁designed	-5914
▁employed	-5915
▁hwetšago	-5916
▁porojeke	-5917
▁selected	-5918
▁certified	-5919
▁condition	-5920
▁dimilione	-5921
▁kholofelo	-5922
▁languages	-5923
▁objective	-5924
▁rulaganya	-5925
▁thobalano	-5926
▁tshwarelo	-5927
▁Mohlankedi	-5928
▁Tumelelano	-5929
▁bjalobjalo	-5930
▁collection	-5931
▁contribute	-5932
▁importance	-5933
▁tšwelelago	-5934
▁bommasepala	-5935
▁investigate	-5936
▁arrangements	-5937
▁strengthening	-5938
Mo	-5939
ams	-5940
eta	-5941
itu	-5942
met	-5943
ols	-5944
ums	-5945
una	-5946
▁Fe	-5947
▁Ng	-5948
▁PS	-5949
anye	-5950
ared	-5951
ithu	-5952
izer	-5953
mony	-5954
pana	-5955
pper	-5956
tial	-5957
▁Car	-5958
▁Dla	-5959
▁Emp	-5960
▁sal	-5961
bjana	-5962
scale	-5963
tšeng	-5964
works	-5965
▁1996	-5966
▁2010	-5967
▁Fund	-5968
▁NEPA	-5969
▁Some	-5970
▁gave	-5971
▁sale	-5972
▁subs	-5973
▁susp	-5974
kopano	-5975
letšwe	-5976
respon	-5977
▁Mahla	-5978
▁While	-5979
▁funds	-5980
▁gatee	-5981
▁laela	-5982
▁sekga	-5983
▁sense	-5984
▁veget	-5985
gilwego	-5986
▁Lesolo	-5987
▁dipola	-5988
▁lentšu	-5989
▁longer	-5990
▁pejana	-5991
▁sengwa	-5992
▁series	-5993
▁street	-5994
▁tlošwa	-5995
▁šomiše	-5996
▁Station	-5997
▁brought	-5998
▁constru	-5999
▁counter	-6000
▁dikoloi	-6001
▁ditshwa	-6002
▁hlompha	-6003
▁kwešiša	-6004
▁lefaufa	-6005
▁lethabo	-6006
▁located	-6007
▁moemedi	-6008
▁overall	-6009
▁protect	-6010
gistrates	-6011
▁metšhene	-6012
▁motswadi	-6013
▁presence	-6014
▁tlhagišo	-6015
▁dipeelano	-6016
▁mafapheng	-6017
▁mathomong	-6018
▁pollution	-6019
▁Mozambique	-6020
▁assessment	-6021
▁boithabišo	-6022
▁innovation	-6023
▁profenseng	-6024
▁independent	-6025
▁beakantšwego	-6026
▁relationship	-6027
▁Constitutional	-6028
▁ngwadišitšwego	-6029
▁sephethephethe	-6030
IN	-6031
bj	-6032
▁.	-6033
oma	-6034
uri	-6035
▁AU	-6036
aged	-6037
enda	-6038
gage	-6039
iews	-6040
irst	-6041
judi	-6042
lier	-6043
šeng	-6044
▁Dir	-6045
▁Mma	-6046
▁Nam	-6047
▁Tse	-6048
▁War	-6049
▁boy	-6050
▁haz	-6051
▁hot	-6052
▁mmu	-6053
▁mut	-6054
▁won	-6055
arily	-6056
fatše	-6057
hlolo	-6058
inery	-6059
istan	-6060
pholo	-6061
▁Gaza	-6062
▁Inde	-6063
▁Kabo	-6064
▁babe	-6065
▁bank	-6066
▁bele	-6067
▁bula	-6068
▁dang	-6069
▁game	-6070
▁ment	-6071
▁mots	-6072
▁sena	-6073
▁weak	-6074
dišiša	-6075
iation	-6076
lusion	-6077
ograph	-6078
▁Leboa	-6079
▁hlano	-6080
▁liber	-6081
▁lower	-6082
▁ntšhi	-6083
▁seven	-6084
▁tiiša	-6085
lateral	-6086
reišene	-6087
▁Bobedi	-6088
▁Dipalo	-6089
▁Europe	-6090
▁accept	-6091
▁affect	-6092
▁appeal	-6093
▁bottle	-6094
▁emetše	-6095
▁follow	-6096
▁lokolo	-6097
▁manage	-6098
▁murder	-6099
▁owners	-6100
▁signed	-6101
▁tsebja	-6102
▁tšeago	-6103
▁Tourism	-6104
▁bokaone	-6105
▁carried	-6106
▁complex	-6107
▁congrat	-6108
▁deliver	-6109
▁mehlala	-6110
▁meputso	-6111
▁pampiri	-6112
▁suggest	-6113
▁Although	-6114
▁MaAfrika	-6115
▁balwetši	-6116
▁benefici	-6117
▁bogareng	-6118
▁bolelago	-6119
▁dikolong	-6120
▁diphathi	-6121
▁situated	-6122
▁stations	-6123
▁students	-6124
▁continued	-6125
▁categories	-6126
▁kgotlelelo	-6127
▁mmakgonthe	-6128
▁elektroniki	-6129
▁kopantšwego	-6130
▁undertaking	-6131
▁batšeakarolo	-6132
▁ditekanyetšo	-6133
▁understanding	-6134
▁representatives	-6135
'.	-6136
-5	-6137
ER	-6138
acc	-6139
cro	-6140
dle	-6141
leb	-6142
out	-6143
wal	-6144
▁20	-6145
▁El	-6146
▁ec	-6147
▁hy	-6148
dium	-6149
emed	-6150
ensi	-6151
gadi	-6152
otso	-6153
tees	-6154
uble	-6155
wele	-6156
▁Dar	-6157
▁Pot	-6158
▁Win	-6159
▁bed	-6160
▁buš	-6161
▁der	-6162
▁eya	-6163
▁fue	-6164
▁leg	-6165
▁mos	-6166
abane	-6167
demic	-6168
itišo	-6169
ondon	-6170
petši	-6171
uting	-6172
▁disc	-6173
▁feel	-6174
▁gase	-6175
▁insp	-6176
▁itek	-6177
▁mahu	-6178
▁pelo	-6179
▁rome	-6180
▁tefo	-6181
▁whom	-6182
magadi	-6183
otshwa	-6184
rating	-6185
▁Chris	-6186
▁Democ	-6187
▁Diphe	-6188
▁NEPAD	-6189
▁ikgaf	-6190
▁kgobo	-6191
▁makhu	-6192
▁mmele	-6193
▁names	-6194
ertific	-6195
holders	-6196
laganyo	-6197
▁Associ	-6198
▁London	-6199
▁abroad	-6200
▁active	-6201
▁attack	-6202
▁bitšwa	-6203
▁bolele	-6204
▁consum	-6205
▁copies	-6206
▁courts	-6207
▁dikete	-6208
▁father	-6209
▁forces	-6210
▁houses	-6211
▁kalafi	-6212
▁kopane	-6213
fication	-6214
phethiši	-6215
▁Dlamini	-6216
▁Manager	-6217
▁culture	-6218
▁display	-6219
▁friends	-6220
▁funding	-6221
▁history	-6222
▁leading	-6223
▁nakwana	-6224
▁pelaelo	-6225
▁peoples	-6226
▁pholisi	-6227
▁substan	-6228
▁targets	-6229
▁withdra	-6230
▁district	-6231
▁incident	-6232
▁kgahliša	-6233
▁obtained	-6234
▁recently	-6235
▁solution	-6236
▁standard	-6237
▁dirišwago	-6238
▁practical	-6239
▁Mongwadiši	-6240
▁Petroleamo	-6241
▁boledišana	-6242
▁dipeakanyo	-6243
▁entreprene	-6244
▁evaluation	-6245
▁kgahlišago	-6246
▁processing	-6247
▁vulnerable	-6248
▁hlomphegago	-6249
▁improvement	-6250
▁setšweletšwa	-6251
▁recommendations	-6252
AF	-6253
ON	-6254
dv	-6255
law	-6256
lue	-6257
nds	-6258
ssi	-6259
vio	-6260
dies	-6261
fase	-6262
stic	-6263
usly	-6264
▁Ple	-6265
▁loc	-6266
▁mom	-6267
▁smo	-6268
▁swe	-6269
▁uni	-6270
▁ver	-6271
▁ves	-6272
fence	-6273
ishes	-6274
otlha	-6275
petša	-6276
using	-6277
▁Both	-6278
▁Brit	-6279
▁Land	-6280
▁Stop	-6281
▁Tech	-6282
▁aims	-6283
▁dedi	-6284
▁dimp	-6285
▁else	-6286
▁laka	-6287
▁milk	-6288
▁mode	-6289
dvanta	-6290
kgahlo	-6291
urance	-6292
▁Richa	-6293
▁Where	-6294
▁diyun	-6295
▁ipile	-6296
▁makes	-6297
▁pepen	-6298
▁proud	-6299
▁sound	-6300
▁speed	-6301
▁total	-6302
▁users	-6303
entšene	-6304
▁Basson	-6305
▁Morago	-6306
▁answer	-6307
▁became	-6308
▁crimes	-6309
▁except	-6310
▁lekale	-6311
▁passed	-6312
▁tlišwa	-6313
▁yester	-6314
faditšwe	-6315
▁Austral	-6316
▁Bolaodi	-6317
▁Phanele	-6318
▁botseta	-6319
▁concent	-6320
▁empower	-6321
▁kakanyo	-6322
▁makhura	-6323
▁mehlano	-6324
▁morning	-6325
▁passeng	-6326
▁running	-6327
▁thabile	-6328
▁thekišo	-6329
▁thwalwa	-6330
▁usually	-6331
▁Regional	-6332
▁actually	-6333
▁banamedi	-6334
▁collabor	-6335
▁elements	-6336
▁hlwekiša	-6337
▁language	-6338
▁lebopong	-6339
homišenare	-6340
▁Agreement	-6341
▁Palestina	-6342
▁Provinces	-6343
▁allegedly	-6344
▁directive	-6345
▁dithekisi	-6346
▁ditseleng	-6347
▁fundament	-6348
▁gentlemen	-6349
▁intellect	-6350
▁inthanete	-6351
▁lepatlelo	-6352
▁published	-6353
▁recovered	-6354
▁sephodisa	-6355
otshepedišo	-6356
▁agreements	-6357
▁boletšwego	-6358
▁disadvanta	-6359
▁ditšhabeng	-6360
▁godimodimo	-6361
▁proceeding	-6362
▁profession	-6363
▁Molaokakanywa	-6364
▁communication	-6365
▁participating	-6366
ij	-6367
alo	-6368
eli	-6369
opi	-6370
pel	-6371
pot	-6372
▁NP	-6373
aled	-6374
arms	-6375
atis	-6376
ered	-6377
kola	-6378
mine	-6379
more	-6380
rain	-6381
tšat	-6382
šing	-6383
▁Bur	-6384
▁Cle	-6385
▁Jan	-6386
▁Swa	-6387
▁Wit	-6388
▁cru	-6389
▁gon	-6390
▁lar	-6391
▁tit	-6392
▁wea	-6393
▁šup	-6394
dated	-6395
lando	-6396
mples	-6397
▁Than	-6398
▁bela	-6399
▁dign	-6400
▁gard	-6401
▁goal	-6402
▁malo	-6403
▁mine	-6404
▁page	-6405
▁poso	-6406
▁reli	-6407
bonolo	-6408
dišišo	-6409
ending	-6410
gatšwa	-6411
lative	-6412
legago	-6413
reness	-6414
▁Board	-6415
▁Boeti	-6416
▁Bohlo	-6417
▁Eskom	-6418
▁abuse	-6419
▁award	-6420
▁colon	-6421
▁comes	-6422
▁diplo	-6423
▁entit	-6424
▁estim	-6425
▁itlha	-6426
▁libra	-6427
▁moago	-6428
▁mokgo	-6429
▁thuba	-6430
▁During	-6431
▁Foromo	-6432
▁Lehono	-6433
▁Nelson	-6434
▁Second	-6435
▁Sekolo	-6436
▁Social	-6437
▁bohodu	-6438
▁bošego	-6439
▁depend	-6440
▁dilete	-6441
▁direga	-6442
▁diteng	-6443
▁mesong	-6444
▁seriti	-6445
▁swerwe	-6446
humagadi	-6447
thekniki	-6448
▁Orlando	-6449
▁ability	-6450
▁created	-6451
▁ikemego	-6452
▁koketšo	-6453
▁magaeng	-6454
▁mahlako	-6455
▁meaning	-6456
▁offices	-6457
▁records	-6458
▁science	-6459
▁transpa	-6460
▁bathekgi	-6461
▁hospital	-6462
▁mebaraka	-6463
▁movement	-6464
keditšwego	-6465
▁Petroleum	-6466
▁emergency	-6467
▁encourage	-6468
▁essential	-6469
▁feleletša	-6470
▁ingwadiša	-6471
▁kgolegong	-6472
▁mabenkele	-6473
▁otherwise	-6474
▁associated	-6475
▁businesses	-6476
▁conference	-6477
▁continuing	-6478
▁understand	-6479
▁Dithaetlele	-6480
▁individuals	-6481
▁ngwadilwego	-6482
cm	-6483
SDP	-6484
gal	-6485
ict	-6486
nam	-6487
uge	-6488
usi	-6489
▁By	-6490
▁Ce	-6491
▁Du	-6492
▁Sp	-6493
dern	-6494
dule	-6495
ebru	-6496
hwal	-6497
ingu	-6498
kers	-6499
laga	-6500
olid	-6501
pter	-6502
rete	-6503
urup	-6504
▁Kho	-6505
▁Tod	-6506
▁ena	-6507
▁shi	-6508
▁tro	-6509
▁why	-6510
anied	-6511
forms	-6512
langa	-6513
phone	-6514
uries	-6515
▁Dipa	-6516
▁Insp	-6517
▁Mang	-6518
▁dete	-6519
▁item	-6520
▁noši	-6521
▁pers	-6522
▁pono	-6523
▁ruma	-6524
▁vote	-6525
olotši	-6526
tšhila	-6527
▁Febru	-6528
▁Tšhom	-6529
▁asked	-6530
▁gives	-6531
▁serve	-6532
▁space	-6533
▁trust	-6534
hlegelo	-6535
uration	-6536
▁Angola	-6537
▁Author	-6538
▁Chiefs	-6539
▁Mitche	-6540
▁Please	-6541
▁Strate	-6542
▁altern	-6543
▁attain	-6544
▁databa	-6545
▁dintwa	-6546
▁entire	-6547
▁hwetše	-6548
▁letšho	-6549
▁tekano	-6550
▁Freedom	-6551
▁Lefapha	-6552
▁Produce	-6553
▁becomes	-6554
▁growing	-6555
▁keletšo	-6556
▁mandate	-6557
▁mobotse	-6558
▁permits	-6559
▁rehabil	-6560
▁release	-6561
ciliation	-6562
▁February	-6563
▁concrete	-6564
▁dinomoro	-6565
▁exchange	-6566
▁gabonolo	-6567
▁mahlatse	-6568
▁mašaledi	-6569
▁relative	-6570
▁Bohlabela	-6571
▁amendment	-6572
▁dingwalwa	-6573
▁mentioned	-6574
▁stability	-6575
▁collective	-6576
▁dikgweding	-6577
▁pepeneneng	-6578
▁tsebagatša	-6579
▁Maintenance	-6580
▁dinolofatši	-6581
▁intelligence	-6582
▁representative	-6583
▁batšwasehlabelo	-6584
-9	-6585
hy	-6586
ik	-6587
dor	-6588
ffs	-6589
lip	-6590
opo	-6591
▁50	-6592
agga	-6593
head	-6594
hong	-6595
lani	-6596
pite	-6597
undi	-6598
šupo	-6599
▁Bao	-6600
▁Hol	-6601
▁Leb	-6602
▁Non	-6603
▁Wil	-6604
▁gen	-6605
▁got	-6606
▁peo	-6607
▁pra	-6608
▁ran	-6609
▁teb	-6610
▁tom	-6611
▁tsa	-6612
ading	-6613
ivity	-6614
logue	-6615
lying	-6616
point	-6617
rency	-6618
tions	-6619
urses	-6620
▁Khon	-6621
▁colo	-6622
▁rein	-6623
▁sens	-6624
▁taxi	-6625
▁tear	-6626
▁thus	-6627
untain	-6628
utwana	-6629
▁Dipha	-6630
▁Group	-6631
▁Mpuma	-6632
▁avoid	-6633
▁built	-6634
▁dirwe	-6635
▁drive	-6636
▁exten	-6637
▁green	-6638
▁judge	-6639
▁kgath	-6640
▁kgole	-6641
▁koloi	-6642
▁matso	-6643
▁mobil	-6644
▁owner	-6645
▁pheto	-6646
▁ready	-6647
▁unemp	-6648
gantšho	-6649
olitiki	-6650
tšatona	-6651
▁Custom	-6652
▁abelwa	-6653
▁bareki	-6654
▁dikepe	-6655
▁hospit	-6656
▁leader	-6657
▁mabone	-6658
▁madira	-6659
▁offers	-6660
▁remove	-6661
▁vessel	-6662
▁vision	-6663
antorong	-6664
hwalithi	-6665
iversity	-6666
ulations	-6667
▁Mineral	-6668
▁Somalia	-6669
▁amongst	-6670
▁boemedi	-6671
▁botšiša	-6672
▁contemp	-6673
▁ditheko	-6674
▁however	-6675
▁maximum	-6676
▁moletlo	-6677
▁phetošo	-6678
▁reasona	-6679
▁respond	-6680
▁tiilego	-6681
▁victims	-6682
emafofane	-6683
▁Sekhwama	-6684
▁achieved	-6685
▁applying	-6686
▁computer	-6687
▁hlomilwe	-6688
▁humanity	-6689
▁khansele	-6690
▁lebogiša	-6691
▁managers	-6692
▁mererong	-6693
▁oketšega	-6694
▁sekolong	-6695
▁senthara	-6696
▁tsebišwa	-6697
▁twantšho	-6698
▁Institute	-6699
▁bolelwago	-6700
▁presented	-6701
▁promotion	-6702
▁tsebegago	-6703
▁batšwantle	-6704
▁boipiletšo	-6705
▁bonagalago	-6706
▁mongmošomo	-6707
▁Palestinian	-6708
▁enterprises	-6709
▁legislative	-6710
▁bolokegilego	-6711
▁transformation	-6712
RA	-6713
sk	-6714
ass	-6715
chi	-6716
cmd	-6717
col	-6718
ego	-6719
iny	-6720
mbu	-6721
thi	-6722
xic	-6723
yel	-6724
zil	-6725
▁Lu	-6726
gedi	-6727
lymp	-6728
pole	-6729
walo	-6730
▁Mer	-6731
▁Nka	-6732
▁Tit	-6733
▁Tre	-6734
▁aca	-6735
▁bak	-6736
▁rub	-6737
aches	-6738
ented	-6739
hlobo	-6740
itsha	-6741
lined	-6742
ollwa	-6743
uropa	-6744
šaedi	-6745
▁Port	-6746
▁Rese	-6747
▁Sche	-6748
▁Stat	-6749
▁dikh	-6750
▁fear	-6751
▁feat	-6752
▁fiša	-6753
▁išwa	-6754
▁karo	-6755
▁kota	-6756
▁maro	-6757
▁nama	-6758
▁onto	-6759
▁ruri	-6760
▁sebo	-6761
▁spot	-6762
▁symb	-6763
mitted	-6764
pološo	-6765
uranta	-6766
▁Impro	-6767
▁Olymp	-6768
▁Table	-6769
▁Three	-6770
▁Under	-6771
▁Water	-6772
▁datha	-6773
▁memor	-6774
▁ngang	-6775
hwekišo	-6776
irelong	-6777
issance	-6778
itarian	-6779
kanyana	-6780
▁Khayel	-6781
▁Safety	-6782
▁System	-6783
▁actual	-6784
▁animal	-6785
▁dipese	-6786
▁diporo	-6787
▁duties	-6788
▁elimin	-6789
▁emelwa	-6790
▁fertil	-6791
▁khonth	-6792
▁mabopo	-6793
▁metses	-6794
▁rilego	-6795
▁saying	-6796
▁English	-6797
▁attacks	-6798
▁defined	-6799
▁emetšwe	-6800
▁enhance	-6801
▁finance	-6802
▁kgonthe	-6803
▁khirišo	-6804
▁kopanyo	-6805
▁laolago	-6806
▁maabane	-6807
▁morwalo	-6808
▁ongoing	-6809
▁papatšo	-6810
▁petrole	-6811
▁potlako	-6812
▁rwelego	-6813
▁tlatšwa	-6814
▁tšwetše	-6815
eterinary	-6816
▁intended	-6817
▁internal	-6818
▁lekgotla	-6819
▁phokotšo	-6820
▁physical	-6821
▁priority	-6822
▁produced	-6823
▁tatelano	-6824
▁teachers	-6825
▁visitors	-6826
otshepetšo	-6827
▁Afrikaans	-6828
▁awareness	-6829
▁gapeletša	-6830
▁incidents	-6831
▁letlakala	-6832
▁organised	-6833
▁Mpumalanga	-6834
▁compliance	-6835
▁delegation	-6836
▁governance	-6837
▁kgokaganya	-6838
▁scientific	-6839
▁Khayelitsha	-6840
▁accompanied	-6841
▁acknowledge	-6842
▁allegations	-6843
▁involvement	-6844
▁phatlalatšwa	-6845
▁determination	-6846
▁identification	-6847
▁tšweleditšwego	-6848
20	-6849
50	-6850
FP	-6851
RP	-6852
dom	-6853
ifi	-6854
ino	-6855
itz	-6856
tra	-6857
▁lu	-6858
▁mi	-6859
-529	-6860
bert	-6861
fare	-6862
gane	-6863
pers	-6864
▁Ass	-6865
▁CPI	-6866
▁DRC	-6867
▁Den	-6868
▁Moo	-6869
▁Sch	-6870
▁dig	-6871
▁eco	-6872
▁fis	-6873
▁gwe	-6874
▁ima	-6875
▁tlh	-6876
▁tok	-6877
▁ton	-6878
ander	-6879
eleng	-6880
hlogo	-6881
itude	-6882
ompie	-6883
oring	-6884
ously	-6885
▁Darf	-6886
▁Moka	-6887
▁Mong	-6888
▁Obed	-6889
▁Oper	-6890
▁Toka	-6891
▁fees	-6892
▁goga	-6893
▁kind	-6894
▁reta	-6895
▁seph	-6896
▁show	-6897
▁soil	-6898
▁word	-6899
anyana	-6900
balelo	-6901
diture	-6902
encing	-6903
išetša	-6904
leledi	-6905
▁First	-6906
▁beach	-6907
▁bohwa	-6908
▁dikat	-6909
▁entry	-6910
▁envis	-6911
▁exhib	-6912
▁festi	-6913
▁hands	-6914
▁metho	-6915
▁modir	-6916
▁remin	-6917
▁seats	-6918
▁train	-6919
▁unity	-6920
anegelo	-6921
redited	-6922
▁discri	-6923
▁driver	-6924
▁enetši	-6925
▁highly	-6926
▁metheo	-6927
▁opened	-6928
▁racial	-6929
▁saense	-6930
▁seswai	-6931
▁soccer	-6932
▁though	-6933
ensation	-6934
▁Foreign	-6935
▁Israeli	-6936
▁Stompie	-6937
▁charges	-6938
▁hlolago	-6939
▁lahlege	-6940
▁setting	-6941
▁tekanyo	-6942
▁thomiša	-6943
▁šišinya	-6944
ferentshe	-6945
▁imported	-6946
▁informal	-6947
▁kganetšo	-6948
▁launched	-6949
▁mannyane	-6950
▁original	-6951
▁sebakeng	-6952
▁sedumedi	-6953
▁tlišwago	-6954
entšeneere	-6955
▁materiale	-6956
▁procedure	-6957
▁solutions	-6958
▁thousands	-6959
▁transform	-6960
▁yesterday	-6961
▁Conference	-6962
▁concerning	-6963
▁definition	-6964
▁dikarolong	-6965
▁ditokomane	-6966
▁dumelelana	-6967
▁generation	-6968
▁kgoboketšo	-6969
▁khomphutha	-6970
▁previously	-6971
▁tekanyetšo	-6972
▁exploration	-6973
▁kgonagalago	-6974
▁proceedings	-6975
▁regulations	-6976
▁consequences	-6977
▁constitution	-6978
▁dingongorego	-6979
▁distribution	-6980
▁recreational	-6981
▁stakeholders	-6982
▁Mokhomišenare	-6983
ime	-6984
ker	-6985
san	-6986
utu	-6987
▁Ac	-6988
▁EU	-6989
▁pu	-6990
hind	-6991
mare	-6992
mišo	-6993
rang	-6994
vest	-6995
wide	-6996
▁196	-6997
▁Blo	-6998
▁Lab	-6999
▁Meb	-7000
▁Nya	-7001
▁Ser	-7002
▁cra	-7003
▁log	-7004
▁sco	-7005
▁wep	-7006
ables	-7007
field	-7008
hutšo	-7009
onsta	-7010
rikan	-7011
rough	-7012
tšana	-7013
▁abja	-7014
▁agwa	-7015
▁camp	-7016
▁half	-7017
▁iket	-7018
▁lost	-7019
▁text	-7020
▁type	-7021
▁vacc	-7022
gamego	-7023
gister	-7024
hareng	-7025
ishing	-7026
itente	-7027
kelong	-7028
onyana	-7029
rected	-7030
system	-7031
▁House	-7032
▁Panka	-7033
▁Tsela	-7034
▁added	-7035
▁daily	-7036
▁disco	-7037
▁evalu	-7038
▁exemp	-7039
▁expen	-7040
▁frequ	-7041
▁panka	-7042
▁phumo	-7043
▁quant	-7044
▁subsi	-7045
▁woman	-7046
gantšha	-7047
gantšwe	-7048
rations	-7049
▁Import	-7050
▁People	-7051
▁Samiti	-7052
▁Titles	-7053
▁afford	-7054
▁assets	-7055
▁behind	-7056
▁classi	-7057
▁ketelo	-7058
▁lebane	-7059
▁normal	-7060
▁perpet	-7061
▁prison	-7062
▁raloka	-7063
▁resist	-7064
▁sample	-7065
▁tender	-7066
▁tlhamo	-7067
▁tšhaba	-7068
dingwana	-7069
▁bagwera	-7070
▁clearly	-7071
▁decided	-7072
▁ditseno	-7073
▁feletša	-7074
▁ganetša	-7075
▁getting	-7076
▁greater	-7077
▁kgorong	-7078
▁makatša	-7079
▁players	-7080
▁privile	-7081
▁tsebaga	-7082
diversity	-7083
hihlelelo	-7084
▁Tšhelete	-7085
▁agencies	-7086
▁baotledi	-7087
▁diseases	-7088
▁ditaetšo	-7089
▁emetšego	-7090
▁maAfrika	-7091
▁proposed	-7092
▁reducing	-7093
▁suitable	-7094
▁tlhompho	-7095
▁šomišago	-7096
government	-7097
▁bilateral	-7098
▁highlight	-7099
▁kgonagala	-7100
▁lehlakore	-7101
▁machinery	-7102
▁thomilego	-7103
▁tlhahlobo	-7104
▁electronic	-7105
▁introduced	-7106
▁mpshafatša	-7107
▁Magistrates	-7108
▁Mogononelwa	-7109
▁operational	-7110
▁possibility	-7111
▁thomelontle	-7112
▁effectiveness	-7113
RT	-7114
my	-7115
▁;	-7116
icy	-7117
lor	-7118
nie	-7119
uts	-7120
▁13	-7121
▁36	-7122
▁AC	-7123
▁Sm	-7124
▁tw	-7125
▁vo	-7126
ball	-7127
ceed	-7128
esty	-7129
gany	-7130
itla	-7131
lets	-7132
read	-7133
resh	-7134
▁Are	-7135
▁Cur	-7136
▁Fur	-7137
▁Map	-7138
▁Nig	-7139
▁boo	-7140
▁die	-7141
▁jur	-7142
▁mig	-7143
bosch	-7144
fetše	-7145
gment	-7146
ijing	-7147
išišo	-7148
sente	-7149
▁1994	-7150
▁Mala	-7151
▁More	-7152
▁alco	-7153
▁baba	-7154
▁born	-7155
▁cere	-7156
▁heav	-7157
▁hono	-7158
▁itok	-7159
▁itše	-7160
▁kept	-7161
▁lack	-7162
▁note	-7163
▁repa	-7164
▁sold	-7165
▁sole	-7166
▁step	-7167
▁thab	-7168
▁valu	-7169
bileng	-7170
entshi	-7171
itting	-7172
unting	-7173
vation	-7174
▁Ditla	-7175
▁Vally	-7176
▁compa	-7177
▁depen	-7178
▁diriš	-7179
▁eight	-7180
▁heard	-7181
▁hlapi	-7182
▁leave	-7183
▁moagi	-7184
▁phaka	-7185
▁phase	-7186
▁quite	-7187
▁remar	-7188
▁remun	-7189
▁teams	-7190
▁Darfur	-7191
▁Ditshe	-7192
▁Yuniti	-7193
▁Yuropa	-7194
▁accele	-7195
▁aspect	-7196
▁compon	-7197
▁discip	-7198
▁hazard	-7199
▁liquor	-7200
▁marega	-7201
▁modern	-7202
▁played	-7203
▁raised	-7204
▁secure	-7205
▁terror	-7206
▁tletše	-7207
▁tshepo	-7208
▁tšhire	-7209
▁victim	-7210
▁wanted	-7211
ibesithi	-7212
▁Beijing	-7213
▁Burundi	-7214
▁Central	-7215
▁bahloki	-7216
▁comment	-7217
▁dihlogo	-7218
▁embassy	-7219
▁express	-7220
▁extreme	-7221
▁fokotše	-7222
▁hlomile	-7223
▁ipshina	-7224
▁kwagala	-7225
▁lekolwa	-7226
▁mapheko	-7227
▁mmeleng	-7228
▁opening	-7229
▁pleased	-7230
▁sekgoba	-7231
▁teargas	-7232
▁tshepha	-7233
▁analysis	-7234
▁contains	-7235
▁kgweding	-7236
▁masepala	-7237
▁occasion	-7238
▁palomoka	-7239
▁šomišana	-7240
rofešenale	-7241
▁confident	-7242
▁confirmed	-7243
▁demokrasi	-7244
▁diphapoši	-7245
▁diversity	-7246
▁equitable	-7247
▁hwetšwago	-7248
▁moetapele	-7249
▁religious	-7250
▁sengwalwa	-7251
▁tsošološo	-7252
hoporeišene	-7253
▁boithomelo	-7254
▁candidates	-7255
▁connection	-7256
▁guidelines	-7257
▁effectively	-7258
▁settlements	-7259
▁lebeletšwego	-7260
▁specifically	-7261
▁tshekatsheko	-7262
▁disadvantaged	-7263
▁documentation	-7264
5,	-7265
8.	-7266
ES	-7267
OM	-7268
ali	-7269
dic	-7270
kei	-7271
nic	-7272
ppe	-7273
▁22	-7274
▁24	-7275
▁Ty	-7276
ader	-7277
ames	-7278
atše	-7279
dian	-7280
hana	-7281
koti	-7282
lant	-7283
rint	-7284
uthu	-7285
weni	-7286
šire	-7287
▁Air	-7288
▁Fla	-7289
▁Her	-7290
▁Pat	-7291
▁Sto	-7292
▁box	-7293
▁eth	-7294
▁hon	-7295
▁pip	-7296
anoši	-7297
hleng	-7298
istry	-7299
kolla	-7300
ology	-7301
potšo	-7302
urant	-7303
▁1999	-7304
▁Bora	-7305
▁From	-7306
▁Pres	-7307
▁bobe	-7308
▁deep	-7309
▁fast	-7310
▁loka	-7311
▁maru	-7312
▁mets	-7313
▁mort	-7314
▁unre	-7315
enders	-7316
fešene	-7317
immogo	-7318
nesses	-7319
nology	-7320
▁Botse	-7321
▁Inves	-7322
▁Kgolo	-7323
▁Thušo	-7324
▁Today	-7325
▁audit	-7326
▁botša	-7327
▁degra	-7328
▁drugs	-7329
▁hours	-7330
▁kgaba	-7331
▁kgase	-7332
▁leeto	-7333
▁lokiš	-7334
▁minor	-7335
▁music	-7336
▁price	-7337
▁recyc	-7338
▁saena	-7339
▁satis	-7340
▁shows	-7341
▁signs	-7342
▁steps	-7343
▁story	-7344
magaeng	-7345
peletšo	-7346
quality	-7347
▁Ditlha	-7348
▁George	-7349
▁Labour	-7350
▁almost	-7351
▁bongwe	-7352
▁legato	-7353
▁marine	-7354
▁needed	-7355
▁notify	-7356
▁phurup	-7357
▁romele	-7358
▁secret	-7359
▁temošo	-7360
▁tlatše	-7361
▁unique	-7362
atofatšo	-7363
dimogolo	-7364
esentshe	-7365
inenteng	-7366
▁Defence	-7367
▁Further	-7368
▁arrests	-7369
▁changed	-7370
▁charged	-7371
▁concept	-7372
▁consign	-7373
▁dingaka	-7374
▁ditsebi	-7375
▁elected	-7376
▁entered	-7377
▁latelwa	-7378
▁menwana	-7379
▁revenue	-7380
▁treated	-7381
lathekeng	-7382
▁Dikgwebo	-7383
▁Matlotlo	-7384
▁Melawana	-7385
▁accepted	-7386
▁articles	-7387
▁bannyane	-7388
▁creation	-7389
▁detailed	-7390
▁division	-7391
▁domestic	-7392
▁entitled	-7393
▁indicate	-7394
▁kgathago	-7395
▁lekaleng	-7396
▁mebileng	-7397
▁metšhelo	-7398
▁Secretary	-7399
▁buildings	-7400
▁dikgatišo	-7401
▁direction	-7402
▁excellent	-7403
▁exception	-7404
▁ikgethago	-7405
▁sehlongwa	-7406
▁supported	-7407
▁temporary	-7408
▁University	-7409
▁ditharollo	-7410
▁mebasepala	-7411
▁Association	-7412
▁Directorate	-7413
▁expenditure	-7414
▁lebeletšego	-7415
▁tšhilafatšo	-7416
▁commissioner	-7417
▁dikhemikhale	-7418
▁installation	-7419
▁sepelelanago	-7420
1.	-7421
ns	-7422
nt	-7423
▁0	-7424
bas	-7425
bre	-7426
hed	-7427
hot	-7428
mas	-7429
ped	-7430
pei	-7431
sec	-7432
▁DS	-7433
▁II	-7434
▁Ku	-7435
▁Mk	-7436
anga	-7437
balo	-7438
body	-7439
dist	-7440
inal	-7441
llen	-7442
meng	-7443
moya	-7444
ping	-7445
yana	-7446
yeng	-7447
yond	-7448
zela	-7449
šaba	-7450
▁198	-7451
▁Add	-7452
▁Cla	-7453
▁JOC	-7454
▁Mad	-7455
▁boš	-7456
▁flu	-7457
▁hor	-7458
▁yun	-7459
ballo	-7460
cribe	-7461
dings	-7462
emane	-7463
ilure	-7464
išina	-7465
ories	-7466
owned	-7467
phatš	-7468
phere	-7469
prise	-7470
rance	-7471
rates	-7472
rdson	-7473
stiki	-7474
stone	-7475
ulted	-7476
▁Dith	-7477
▁Each	-7478
▁Gate	-7479
▁Mada	-7480
▁Modi	-7481
▁NPPO	-7482
▁Nako	-7483
▁Stre	-7484
▁Stud	-7485
▁WSDP	-7486
▁code	-7487
▁crow	-7488
▁drin	-7489
▁gang	-7490
▁kiti	-7491
▁moti	-7492
▁phar	-7493
▁wasn	-7494
legile	-7495
pošing	-7496
▁Ident	-7497
▁Sehlo	-7498
▁dagga	-7499
▁ikhwe	-7500
▁lahla	-7501
▁lwela	-7502
▁nkabe	-7503
▁porof	-7504
▁posts	-7505
▁reach	-7506
essions	-7507
illions	-7508
taining	-7509
umption	-7510
▁Agency	-7511
▁Ditaba	-7512
▁Kaizer	-7513
▁Kgetho	-7514
▁Mengwa	-7515
▁Metšhe	-7516
▁Region	-7517
▁Russia	-7518
▁bodies	-7519
▁corner	-7520
▁disput	-7521
▁engage	-7522
▁expans	-7523
▁expert	-7524
▁factor	-7525
▁foster	-7526
▁giving	-7527
▁implic	-7528
▁kemedi	-7529
▁kgonne	-7530
▁lebana	-7531
▁mafula	-7532
▁mpholo	-7533
▁scheme	-7534
▁sports	-7535
▁tsheph	-7536
kgetheng	-7537
konoming	-7538
lebišene	-7539
tability	-7540
▁Project	-7541
▁Ramatla	-7542
▁Special	-7543
▁boditše	-7544
▁constit	-7545
▁deliber	-7546
▁earlier	-7547
▁paballo	-7548
▁phetolo	-7549
▁planned	-7550
▁sebjale	-7551
▁streets	-7552
phatšhomo	-7553
šireletši	-7554
▁Certific	-7555
▁Polokego	-7556
▁announce	-7557
▁badiredi	-7558
▁bapetšwa	-7559
▁bašomedi	-7560
▁hlatloša	-7561
▁ikopanya	-7562
▁incorpor	-7563
▁metsotso	-7564
▁patients	-7565
▁recorded	-7566
▁sections	-7567
▁sepelago	-7568
▁Authority	-7569
▁hlokegago	-7570
▁indasteri	-7571
▁laeditšwe	-7572
▁principle	-7573
▁reporting	-7574
▁sepetlele	-7575
▁tokumente	-7576
▁tsošološa	-7577
▁Richardson	-7578
▁hlalošwago	-7579
▁hweditšego	-7580
▁kgabaganya	-7581
▁parliament	-7582
▁statements	-7583
▁undertaken	-7584
▁educational	-7585
▁fundamental	-7586
▁utswitšwego	-7587
▁conservation	-7588
▁increasingly	-7589
▁intellectual	-7590
▁remuneration	-7591
▁representing	-7592
▁sebjalebjale	-7593
▁accommodation	-7594
▁rulagantšwego	-7595
47	-7596
GA	-7597
TS	-7598
rt	-7599
hum	-7600
lot	-7601
mig	-7602
ody	-7603
oli	-7604
rab	-7605
▁SD	-7606
▁ip	-7607
bery	-7608
bled	-7609
gans	-7610
gree	-7611
hand	-7612
hops	-7613
iter	-7614
keep	-7615
oned	-7616
ques	-7617
rago	-7618
reke	-7619
tšhu	-7620
ways	-7621
▁His	-7622
▁Lib	-7623
▁Ras	-7624
▁Thi	-7625
▁Thu	-7626
▁big	-7627
▁bla	-7628
▁dee	-7629
▁fig	-7630
▁ika	-7631
erior	-7632
gates	-7633
itage	-7634
kages	-7635
nergy	-7636
orrow	-7637
▁Khan	-7638
▁Mait	-7639
▁Most	-7640
▁Ntle	-7641
▁Taba	-7642
▁bane	-7643
▁bara	-7644
▁bote	-7645
▁bots	-7646
▁fore	-7647
▁fulf	-7648
▁gešo	-7649
▁hund	-7650
▁mene	-7651
▁roll	-7652
▁sefa	-7653
▁tren	-7654
ancies	-7655
galong	-7656
genous	-7657
lusive	-7658
otlelo	-7659
ptions	-7660
▁Point	-7661
▁beele	-7662
▁boita	-7663
▁bound	-7664
▁ditšo	-7665
▁dutše	-7666
▁equal	-7667
▁legae	-7668
▁metse	-7669
▁mošom	-7670
▁ngaka	-7671
▁quick	-7672
▁resta	-7673
▁sales	-7674
▁senye	-7675
▁solid	-7676
▁spect	-7677
▁surro	-7678
▁units	-7679
editšwe	-7680
ishment	-7681
kotlana	-7682
olution	-7683
viation	-7684
▁Dikolo	-7685
▁Indeed	-7686
▁Resour	-7687
▁Toropo	-7688
▁acting	-7689
▁botšho	-7690
▁civili	-7691
▁cooper	-7692
▁credit	-7693
▁ditšwe	-7694
▁gatiša	-7695
▁hlatlo	-7696
▁inside	-7697
▁lebiša	-7698
▁legacy	-7699
▁lokile	-7700
▁moment	-7701
▁rubber	-7702
▁screen	-7703
▁source	-7704
▁states	-7705
▁symbol	-7706
▁tabeng	-7707
inations	-7708
ithušene	-7709
▁Reserve	-7710
▁Stadium	-7711
▁alcohol	-7712
▁calling	-7713
▁mahlale	-7714
▁message	-7715
▁mmileng	-7716
▁popular	-7717
▁reconna	-7718
▁rekišwa	-7719
▁resolve	-7720
▁thereof	-7721
▁tokollo	-7722
▁trained	-7723
resitente	-7724
▁Baithuti	-7725
▁Congress	-7726
▁Province	-7727
▁ahlaahla	-7728
▁assisted	-7729
▁consolid	-7730
▁database	-7731
▁disposal	-7732
▁download	-7733
▁dumelele	-7734
▁geograph	-7735
▁hlalošwa	-7736
▁kgopetše	-7737
▁kontraka	-7738
▁mabopong	-7739
▁makaleng	-7740
▁mešomong	-7741
▁separate	-7742
▁thakgola	-7743
▁tšwetšwa	-7744
▁Tšweletša	-7745
▁addressed	-7746
▁boletšego	-7747
▁celebrate	-7748
▁contained	-7749
▁envisaged	-7750
▁formation	-7751
▁golegilwe	-7752
▁operating	-7753
▁tahlegelo	-7754
▁addressing	-7755
▁bontšhitše	-7756
▁godingwana	-7757
▁interested	-7758
▁poledišano	-7759
▁sethekniki	-7760
▁tšweletšwa	-7761
▁Ramatlakane	-7762
▁achievement	-7763
▁competition	-7764
▁contemplated	-7765
▁multilateral	-7766
▁manufacturing	-7767
AR	-7768
yl	-7769
BSA	-7770
ala	-7771
dul	-7772
ima	-7773
kie	-7774
los	-7775
mos	-7776
mpe	-7777
nyo	-7778
rey	-7779
uli	-7780
zed	-7781
▁cy	-7782
Kapa	-7783
hosa	-7784
imes	-7785
itis	-7786
lase	-7787
loof	-7788
rity	-7789
ulum	-7790
weto	-7791
▁Aba	-7792
▁Aga	-7793
▁Can	-7794
▁Cir	-7795
▁ICC	-7796
▁Joe	-7797
▁Maf	-7798
▁Per	-7799
▁Uys	-7800
▁Val	-7801
▁bob	-7802
▁dry	-7803
▁gun	-7804
▁map	-7805
▁nor	-7806
▁syn	-7807
▁tia	-7808
oroko	-7809
unded	-7810
yable	-7811
▁Dipe	-7812
▁EMIA	-7813
▁KwaM	-7814
▁SMME	-7815
▁doub	-7816
▁plat	-7817
▁robb	-7818
▁room	-7819
▁tell	-7820
▁thea	-7821
▁tšee	-7822
▁wind	-7823
ancing	-7824
ganywa	-7825
lakwat	-7826
orship	-7827
rakeng	-7828
tlotlo	-7829
tšhisi	-7830
utlele	-7831
▁Audit	-7832
▁Botha	-7833
▁Setšo	-7834
▁agent	-7835
▁apolo	-7836
▁autom	-7837
▁bjona	-7838
▁borak	-7839
▁kotlo	-7840
▁landf	-7841
▁motha	-7842
▁north	-7843
▁rekiš	-7844
▁scale	-7845
▁third	-7846
dequate	-7847
diction	-7848
kaganyo	-7849
otshwao	-7850
▁Badudi	-7851
▁Meyara	-7852
▁Soweto	-7853
▁akanya	-7854
▁annual	-7855
▁bogare	-7856
▁conver	-7857
▁decide	-7858
▁discha	-7859
▁double	-7860
▁facing	-7861
▁finger	-7862
▁hlakan	-7863
▁latest	-7864
▁liquid	-7865
▁online	-7866
▁organs	-7867
▁saving	-7868
▁sesole	-7869
▁šomile	-7870
ferences	-7871
hleletšo	-7872
missions	-7873
▁Dihlogo	-7874
▁Methopo	-7875
▁Stellen	-7876
▁assault	-7877
▁dignity	-7878
▁dikhopi	-7879
▁eletšwa	-7880
▁fihlile	-7881
▁matseno	-7882
▁minutes	-7883
▁network	-7884
▁phelago	-7885
▁plastic	-7886
▁reduced	-7887
▁reflect	-7888
▁thušago	-7889
▁visited	-7890
latšatona	-7891
▁Mekgatlo	-7892
▁Tšhomišo	-7893
▁bontšhwa	-7894
▁director	-7895
▁hlatsela	-7896
▁kopanywa	-7897
▁metseset	-7898
▁minerale	-7899
▁monagano	-7900
▁sekaseka	-7901
▁tumilego	-7902
▁bophodisa	-7903
▁ecosystem	-7904
▁hazardous	-7905
▁ingwadiši	-7906
▁lakaletša	-7907
▁lebelelwa	-7908
▁nominated	-7909
▁porofense	-7910
▁Mohumagadi	-7911
▁accredited	-7912
▁bulegilego	-7913
▁ditikologo	-7914
▁priorities	-7915
▁recognised	-7916
▁sanitation	-7917
▁thulaganyo	-7918
governmental	-7919
▁advertising	-7920
▁ditshepetšo	-7921
▁engineering	-7922
▁lepatlelong	-7923
▁Stellenbosch	-7924
▁ditumelelano	-7925
▁humanitarian	-7926
▁	-7927
e	-7928
a	-7929
o	-7930
t	-7931
i	-7932
l	-7933
n	-7934
r	-7935
s	-7936
g	-7937
h	-7938
m	-7939
d	-7940
k	-7941
b	-7942
p	-7943
š	-7944
u	-7945
w	-7946
y	-7947
c	-7948
f	-7949
.	-7950
,	-7951
v	-7952
M	-7953
A	-7954
T	-7955
S	-7956
j	-7957
B	-7958
C	-7959
D	-7960
P	-7961
I	-7962
-	-7963
K	-7964
G	-7965
R	-7966
x	-7967
N	-7968
E	-7969
L	-7970
W	-7971
0	-7972
O	-7973
q	-7974
H	-7975
F	-7976
;	-7977
1	-7978
2	-7979
z	-7980
'	-7981
:	-7982
U	-7983
9	-7984
J	-7985
V	-7986
8	-7987
3	-7988
"	-7989
4	-7990
6	-7991
Y	-7992
5	-7993
?	-7994
Z	-7995
7	-7996
