<unk>	0
<s>	0
</s>	0
er	-0
in	-1
en	-2
an	-3
▁t	-4
▁o	-5
ie	-6
▁d	-7
he	-8
at	-9
on	-10
or	-11
it	-12
es	-13
is	-14
▁v	-15
▁a	-16
ing	-17
▁>	-18
re	-19
al	-20
▁s	-21
▁w	-22
▁b	-23
ar	-24
▁the	-25
▁p	-26
el	-27
ent	-28
▁die	-29
ou	-30
▁of	-31
▁m	-32
▁in	-33
ic	-34
ion	-35
ro	-36
et	-37
and	-38
▁c	-39
as	-40
ed	-41
▁S	-42
ig	-43
▁van	-44
ment	-45
le	-46
te	-47
om	-48
il	-49
▁P	-50
▁D	-51
▁g	-52
▁en	-53
▁T	-54
▁f	-55
▁n	-56
id	-57
▁to	-58
ers	-59
▁C	-60
▁h	-61
▁and	-62
ur	-63
ik	-64
ad	-65
▁W	-66
▁A	-67
ct	-68
▁R	-69
▁M	-70
▁is	-71
st	-72
ap	-73
eg	-74
se	-75
ation	-76
▁G	-77
un	-78
▁re	-79
ern	-80
ol	-81
▁B	-82
▁be	-83
▁on	-84
our	-85
▁k	-86
ite	-87
ies	-88
est	-89
▁H	-90
bl	-91
ek	-92
ord	-93
ep	-94
ir	-95
aar	-96
ag	-97
ering	-98
rov	-99
▁l	-100
▁O	-101
em	-102
▁F	-103
de	-104
ial	-105
ul	-106
▁*	-107
ra	-108
ov	-109
ens	-110
th	-111
▁ver	-112
▁(	-113
▁th	-114
▁2	-115
oo	-116
▁te	-117
▁wat	-118
▁L	-119
▁or	-120
▁for	-121
▁e	-122
▁1	-123
▁E	-124
ch	-125
ak	-126
iv	-127
ist	-128
rovin	-129
▁aan	-130
00	-131
▁Reg	-132
▁op	-133
overn	-134
▁V	-135
▁N	-136
overnment	-137
ity	-138
oor	-139
▁as	-140
▁u	-141
▁om	-142
am	-143
▁I	-144
ge	-145
ip	-146
▁con	-147
art	-148
im	-149
▁word	-150
▁Government	-151
▁de	-152
▁st	-153
der	-154
ings	-155
ce	-156
if	-157
▁by	-158
▁K	-159
▁vir	-160
▁Regering	-161
ot	-162
heid	-163
uis	-164
res	-165
▁pro	-166
▁0	-167
▁The	-168
ut	-169
um	-170
▁J	-171
op	-172
ome	-173
ort	-174
pl	-175
us	-176
▁Dep	-177
omm	-178
ay	-179
▁j	-180
▁he	-181
▁ge	-182
ect	-183
▁Provin	-184
ow	-185
os	-186
erv	-187
cial	-188
▁an	-189
▁su	-190
▁y	-191
ac	-192
lik	-193
ate	-194
▁al	-195
ape	-196
▁Home	-197
ien	-198
fr	-199
ess	-200
ubl	-201
ys	-202
igh	-203
erk	-204
▁Die	-205
▁Tuis	-206
blad	-207
▁mo	-208
ill	-209
▁nie	-210
ith	-211
erm	-212
▁Tuisblad	-213
▁200	-214
▁Y	-215
▁Cape	-216
ier	-217
▁wh	-218
ond	-219
ities	-220
ood	-221
ab	-222
ipal	-223
▁reg	-224
ff	-225
ust	-226
br	-227
aap	-228
pe	-229
▁with	-230
port	-231
ant	-232
ans	-233
uur	-234
ber	-235
ev	-236
▁02	-237
la	-238
ige	-239
▁that	-240
ure	-241
aat	-242
▁met	-243
oer	-244
ly	-245
ire	-246
▁le	-247
▁-	-248
we	-249
ende	-250
▁Jou	-251
ublic	-252
orm	-253
▁In	-254
iale	-255
are	-256
▁'	-257
ter	-258
▁Wat	-259
ice	-260
▁pers	-261
▁Ne	-262
▁3	-263
▁Your	-264
TE	-265
eer	-266
▁are	-267
▁West	-268
qu	-269
▁bes	-270
kap	-271
ry	-272
artment	-273
▁moet	-274
iens	-275
ke	-276
ang	-277
▁St	-278
iteite	-279
ary	-280
▁ap	-281
oc	-282
acil	-283
▁uit	-284
asie	-285
▁het	-286
▁deur	-287
die	-288
▁cont	-289
af	-290
like	-291
siale	-292
ec	-293
ve	-294
oek	-295
▁voor	-296
bour	-297
ele	-298
hood	-299
ere	-300
ighbour	-301
▁4	-302
EN	-303
tw	-304
▁kan	-305
ighbourhood	-306
▁r	-307
▁Wes	-308
▁Western	-309
oun	-310
Kaap	-311
istr	-312
▁Neighbourhood	-313
▁Department	-314
▁we	-315
ive	-316
asil	-317
ER	-318
▁oor	-319
acilities	-320
ult	-321
end	-322
LI	-323
▁7	-324
od	-325
ale	-326
ell	-327
▁provin	-328
age	-329
ting	-330
arte	-331
▁021	-332
▁ex	-333
artement	-334
asiliteite	-335
▁Facilities	-336
▁do	-337
▁Fasiliteite	-338
sp	-339
ES	-340
outh	-341
▁Mun	-342
lu	-343
du	-344
▁&	-345
▁dat	-346
gew	-347
▁vers	-348
▁sal	-349
iteit	-350
hou	-351
ices	-352
ear	-353
▁6	-354
ain	-355
aan	-356
ert	-357
▁res	-358
▁person	-359
ind	-360
ated	-361
▁this	-362
enb	-363
▁On	-364
▁Provinsiale	-365
▁Provincial	-366
fric	-367
igheid	-368
ierdie	-369
cc	-370
▁you	-371
▁will	-372
ard	-373
▁Watch	-374
▁must	-375
icipal	-376
og	-377
els	-378
ions	-379
aal	-380
▁at	-381
form	-382
ational	-383
ann	-384
IN	-385
▁daar	-386
ied	-387
kom	-388
▁not	-389
ts	-390
ool	-391
wys	-392
▁af	-393
▁it	-394
elik	-395
ommun	-396
ism	-397
AN	-398
▁Cent	-399
▁se	-400
▁Public	-401
▁ad	-402
Kaapse	-403
oord	-404
tem	-405
▁ch	-406
ervices	-407
▁sub	-408
ther	-409
ast	-410
▁bet	-411
all	-412
act	-413
elop	-414
ake	-415
▁hierdie	-416
▁na	-417
▁South	-418
▁ons	-419
ations	-420
==	-421
aad	-422
▁ind	-423
ib	-424
uid	-425
▁Departement	-426
▁may	-427
▁Afric	-428
ru	-429
▁ha	-430
▁vol	-431
▁8	-432
▁any	-433
irect	-434
▁tot	-435
▁com	-436
isipal	-437
▁5	-438
able	-439
ok	-440
▁wet	-441
lig	-442
▁part	-443
▁un	-444
▁En	-445
▁hul	-446
rom	-447
ram	-448
riv	-449
▁Op	-450
iss	-451
ore	-452
ld	-453
▁im	-454
▁19	-455
frik	-456
ibr	-457
▁was	-458
eh	-459
iese	-460
oed	-461
ance	-462
▁ne	-463
SI	-464
ienste	-465
enskap	-466
▁waar	-467
eme	-468
laas	-469
voer	-470
▁sk	-471
oon	-472
IC	-473
entr	-474
asion	-475
▁acc	-476
ident	-477
za	-478
elopment	-479
PA	-480
ENT	-481
ich	-482
enbare	-483
ks	-484
aak	-485
▁from	-486
ver	-487
▁werk	-488
▁dit	-489
▁have	-490
▁Libr	-491
▁U	-492
▁all	-493
iligheid	-494
ne	-495
▁jy	-496
ety	-497
▁off	-498
▁gr	-499
afety	-500
irector	-501
eling	-502
stit	-503
▁ges	-504
emeenskap	-505
ommunity	-506
eld	-507
▁appl	-508
icipality	-509
▁besk	-510
▁ar	-511
AL	-512
ass	-513
▁ag	-514
entrum	-515
▁Centre	-516
hede	-517
▁ing	-518
▁which	-519
▁9	-520
gram	-521
asionale	-522
▁water	-523
▁can	-524
ene	-525
yd	-526
ia	-527
ime	-528
▁enige	-529
▁int	-530
ON	-531
▁jou	-532
onom	-533
ction	-534
ree	-535
ence	-536
ocal	-537
▁has	-538
oe	-539
ding	-540
ical	-541
che	-542
▁your	-543
bru	-544
▁prov	-545
ister	-546
ikk	-547
▁Safety	-548
TI	-549
▁spe	-550
cil	-551
ution	-552
ign	-553
of	-554
▁el	-555
MENT	-556
▁Services	-557
laaslike	-558
formation	-559
ject	-560
kt	-561
ont	-562
asies	-563
ud	-564
ouncil	-565
ede	-566
aats	-567
▁inc	-568
twikk	-569
▁Pro	-570
wet	-571
▁tr	-572
OR	-573
iness	-574
isipaliteit	-575
▁mun	-576
ret	-577
ons	-578
▁Library	-579
▁other	-580
ine	-581
ders	-582
estuur	-583
ges	-584
▁Africa	-585
▁sy	-586
▁me	-587
own	-588
▁per	-589
ote	-590
▁am	-591
▁ra	-592
org	-593
ication	-594
▁fun	-595
▁term	-596
usiness	-597
baar	-598
▁Suid	-599
me	-600
pro	-601
ail	-602
ous	-603
ember	-604
▁onder	-605
alth	-606
be	-607
▁Community	-608
▁pol	-609
▁Director	-610
Afrik	-611
▁if	-612
ide	-613
▁dis	-614
▁aans	-615
▁Municipality	-616
red	-617
▁ander	-618
ork	-619
chool	-620
ourism	-621
▁Bo	-622
ervice	-623
▁bel	-624
ning	-625
▁sp	-626
ligting	-627
▁bev	-628
ommiss	-629
ermit	-630
▁’	-631
ING	-632
▁hulle	-633
sk	-634
fer	-635
▁man	-636
eel	-637
otor	-638
use	-639
▁sh	-640
▁pre	-641
UN	-642
▁pl	-643
air	-644
▁la	-645
ets	-646
luit	-647
▁min	-648
isl	-649
▁imp	-650
▁Onder	-651
▁aansoek	-652
▁up	-653
bruik	-654
▁/	-655
▁Dev	-656
▁who	-657
aam	-658
▁contact	-659
ikel	-660
▁―	-661
ondheid	-662
woord	-663
▁leg	-664
ame	-665
iz	-666
amp	-667
one	-668
▁fin	-669
▁Development	-670
rou	-671
min	-672
▁cons	-673
▁public	-674
agte	-675
ark	-676
houd	-677
ection	-678
▁Ad	-679
duc	-680
▁act	-681
stitution	-682
oof	-683
emeenskaps	-684
ehic	-685
▁verk	-686
ors	-687
iding	-688
bou	-689
uth	-690
wer	-691
ateg	-692
ief	-693
▁beh	-694
000	-695
gewing	-696
▁beskik	-697
▁form	-698
ade	-699
ces	-700
orp	-701
▁Local	-702
berg	-703
▁requ	-704
ase	-705
lin	-706
gr	-707
▁resp	-708
▁Tourism	-709
val	-710
▁Th	-711
ild	-712
ile	-713
ertif	-714
isd	-715
▁Directories	-716
po	-717
ads	-718
▁Sek	-719
nb	-720
▁Onderwys	-721
uthor	-722
ari	-723
====	-724
▁Plaaslike	-725
▁such	-726
ents	-727
oen	-728
▁em	-729
▁our	-730
elike	-731
ank	-732
▁bl	-733
▁national	-734
▁pres	-735
▁terms	-736
▁Sec	-737
▁199	-738
▁beskikbaar	-739
urg	-740
oos	-741
▁Al	-742
ense	-743
ments	-744
▁information	-745
ehicle	-746
iek	-747
ië	-748
▁ass	-749
olog	-750
IS	-751
erg	-752
▁ook	-753
OV	-754
▁comp	-755
▁Gemeenskaps	-756
ual	-757
ater	-758
▁10	-759
▁rec	-760
rek	-761
▁Stre	-762
12	-763
▁work	-764
KE	-765
▁He	-766
ue	-767
enn	-768
▁DE	-769
▁Pl	-770
IT	-771
nbsp	-772
▁par	-773
▁As	-774
▁volg	-775
▁Raad	-776
▁Ap	-777
ches	-778
ong	-779
▁Motor	-780
▁indien	-781
▁bep	-782
▁dev	-783
▁legisl	-784
▁been	-785
▁nasionale	-786
oll	-787
voor	-788
▁aang	-789
▁ingev	-790
bers	-791
▁land	-792
▁mag	-793
onder	-794
uurtw	-795
eiligheid	-796
▁OF	-797
ste	-798
▁Openbare	-799
een	-800
▁Kaap	-801
cy	-802
▁2004	-803
▁year	-804
yn	-805
▁Educ	-806
▁sup	-807
sie	-808
▁EN	-809
ition	-810
▁jaar	-811
ystem	-812
IV	-813
werk	-814
▁gro	-815
agement	-816
▁Ch	-817
rag	-818
▁Lear	-819
▁so	-820
▁dep	-821
▁Buurtw	-822
▁wees	-823
▁Munisipaliteit	-824
sel	-825
ish	-826
AA	-827
ug	-828
▁Watches	-829
ach	-830
leg	-831
▁Act	-832
idse	-833
▁Buurtwagte	-834
▁Town	-835
UR	-836
tu	-837
int	-838
conom	-839
ondwet	-840
so	-841
▁toeg	-842
▁verb	-843
▁Council	-844
▁Pre	-845
isdaad	-846
elling	-847
ost	-848
▁MUN	-849
estel	-850
ates	-851
▁raad	-852
PALI	-853
olge	-854
▁Gidse	-855
rime	-856
▁doen	-857
▁Learning	-858
▁pr	-859
▁bo	-860
▁their	-861
▁inclu	-862
ET	-863
ict	-864
▁Tr	-865
▁persoon	-866
▁its	-867
ecut	-868
▁us	-869
▁soos	-870
osp	-871
ommit	-872
entrums	-873
ified	-874
voerende	-875
HE	-876
▁program	-877
▁12	-878
anis	-879
vent	-880
▁tyd	-881
uit	-882
▁Dienste	-883
▁government	-884
reg	-885
▁get	-886
stad	-887
▁Box	-888
▁also	-889
▁inst	-890
ecutive	-891
▁SA	-892
lement	-893
istration	-894
▁ro	-895
▁Education	-896
ande	-897
▁ingevolge	-898
▁out	-899
ollow	-900
▁provinsiale	-901
aard	-902
lag	-903
ount	-904
▁her	-905
▁Off	-906
Afrika	-907
rivate	-908
oy	-909
ople	-910
▁alle	-911
▁follow	-912
▁hers	-913
▁system	-914
▁art	-915
retari	-916
▁compl	-917
jek	-918
▁permit	-919
▁det	-920
▁provincial	-921
▁inv	-922
▁ten	-923
RA	-924
ax	-925
▁Street	-926
▁bed	-927
▁gebruik	-928
IE	-929
ten	-930
▁PL	-931
yl	-932
ural	-933
▁An	-934
ening	-935
ise	-936
ible	-937
▁voors	-938
embers	-939
iewe	-940
▁Vehicle	-941
twikkeling	-942
▁gen	-943
to	-944
veiligheid	-945
abl	-946
▁PO	-947
aatskap	-948
ners	-949
ures	-950
▁inligting	-951
its	-952
ely	-953
antwoord	-954
net	-955
▁FA	-956
▁qu	-957
▁Sport	-958
▁des	-959
gov	-960
rif	-961
▁eff	-962
▁meer	-963
▁Veiligheid	-964
PAR	-965
erp	-966
▁Sw	-967
▁dec	-968
airs	-969
tuig	-970
▁spec	-971
▁no	-972
▁2006	-973
▁Business	-974
ming	-975
ating	-976
▁Kaapstad	-977
▁regering	-978
10	-979
ospit	-980
▁trans	-981
au	-982
▁org	-983
orpor	-984
▁Crime	-985
▁versk	-986
▁Misdaad	-987
▁section	-988
83	-989
ose	-990
urs	-991
iging	-992
▁geb	-993
ID	-994
pos	-995
ploy	-996
ommitte	-997
▁pe	-998
▁volgende	-999
▁Eng	-1000
▁ont	-1001
▁mon	-1002
ight	-1003
▁than	-1004
▁Be	-1005
▁maak	-1006
▁DEPAR	-1007
▁Spe	-1008
▁tra	-1009
▁000	-1010
▁verg	-1011
ature	-1012
▁20	-1013
▁If	-1014
▁ab	-1015
ffairs	-1016
▁ty	-1017
▁Dit	-1018
▁rep	-1019
uthority	-1020
▁services	-1021
▁Health	-1022
▁need	-1023
▁service	-1024
▁more	-1025
elings	-1026
rateg	-1027
▁last	-1028
▁openbare	-1029
▁ged	-1030
▁Ro	-1031
ourt	-1032
▁hoof	-1033
▁proc	-1034
▁Gr	-1035
▁Wet	-1036
ional	-1037
▁School	-1038
▁hand	-1039
▁ek	-1040
av	-1041
▁shall	-1042
adering	-1043
ls	-1044
▁page	-1045
▁pos	-1046
▁2005	-1047
▁med	-1048
▁sek	-1049
kte	-1050
▁verantwoord	-1051
▁sod	-1052
▁Min	-1053
ereg	-1054
oeg	-1055
▁PR	-1056
▁mense	-1057
conomic	-1058
reer	-1059
▁offic	-1060
▁artikel	-1061
▁Tel	-1062
EL	-1063
▁respons	-1064
▁equ	-1065
▁Wh	-1066
▁party	-1067
king	-1068
ument	-1069
▁kind	-1070
anning	-1071
abil	-1072
linic	-1073
▁child	-1074
▁Man	-1075
▁there	-1076
ays	-1077
vir	-1078
▁Ge	-1079
▁admin	-1080
▁hersien	-1081
▁onders	-1082
▁deel	-1083
▁blads	-1084
▁Affairs	-1085
êre	-1086
ri	-1087
▁bladsy	-1088
▁This	-1089
▁bin	-1090
▁Engels	-1091
▁inhoud	-1092
onment	-1093
▁produ	-1094
▁gev	-1095
▁content	-1096
▁Con	-1097
anneer	-1098
▁ent	-1099
▁inter	-1100
pt	-1101
▁laas	-1102
▁application	-1103
11	-1104
dep	-1105
▁bi	-1106
eenkom	-1107
ERV	-1108
▁Su	-1109
AR	-1110
ision	-1111
▁upd	-1112
--	-1113
▁Ex	-1114
teun	-1115
▁30	-1116
▁daardie	-1117
),	-1118
▁een	-1119
rit	-1120
▁development	-1121
BO	-1122
eth	-1123
▁refer	-1124
co	-1125
ryf	-1126
▁use	-1127
aanse	-1128
▁ter	-1129
▁teen	-1130
CI	-1131
eleent	-1132
ower	-1133
gh	-1134
ency	-1135
vironment	-1136
▁kom	-1137
uring	-1138
▁within	-1139
▁under	-1140
ae	-1141
wn	-1142
▁provid	-1143
▁updated	-1144
▁Ar	-1145
▁health	-1146
44	-1147
▁15	-1148
ft	-1149
dienste	-1150
mier	-1151
▁people	-1152
▁African	-1153
▁nu	-1154
ulture	-1155
ange	-1156
▁mat	-1157
▁Distr	-1158
oog	-1159
urity	-1160
oort	-1161
mit	-1162
ennis	-1163
gewer	-1164
▁dr	-1165
▁sit	-1166
▁bestuur	-1167
▁members	-1168
ommission	-1169
kke	-1170
▁Ind	-1171
▁National	-1172
▁doel	-1173
hould	-1174
isme	-1175
▁br	-1176
vers	-1177
ob	-1178
oel	-1179
▁voorsien	-1180
).	-1181
▁new	-1182
▁design	-1183
▁business	-1184
30	-1185
df	-1186
ins	-1187
▁fe	-1188
vang	-1189
istrasie	-1190
oop	-1191
▁ins	-1192
▁num	-1193
▁time	-1194
▁Tra	-1195
iseer	-1196
▁when	-1197
▁legislation	-1198
rig	-1199
leiding	-1200
istering	-1201
ND	-1202
▁beg	-1203
▁they	-1204
▁exp	-1205
aring	-1206
▁regul	-1207
ress	-1208
▁del	-1209
▁following	-1210
▁pdf	-1211
▁access	-1212
aker	-1213
▁goed	-1214
▁require	-1215
▁RE	-1216
▁Om	-1217
ruct	-1218
▁Appl	-1219
departement	-1220
hip	-1221
▁one	-1222
onds	-1223
▁Ges	-1224
point	-1225
▁Trans	-1226
su	-1227
nem	-1228
aande	-1229
▁should	-1230
ampte	-1231
aries	-1232
idd	-1233
▁11	-1234
etro	-1235
ining	-1236
▁support	-1237
▁binne	-1238
mun	-1239
ille	-1240
eland	-1241
ernem	-1242
useum	-1243
van	-1244
iële	-1245
▁office	-1246
fore	-1247
isie	-1248
▁these	-1249
ris	-1250
▁provinsie	-1251
TION	-1252
▁rel	-1253
▁type	-1254
▁You	-1255
▁nuwe	-1256
▁employ	-1257
▁Registering	-1258
arm	-1259
▁av	-1260
▁THE	-1261
▁wetgewing	-1262
bly	-1263
ole	-1264
iote	-1265
tings	-1266
▁report	-1267
▁hou	-1268
▁elke	-1269
▁nod	-1270
▁diens	-1271
▁member	-1272
ren	-1273
▁after	-1274
▁Sk	-1275
50	-1276
rol	-1277
bliote	-1278
========	-1279
land	-1280
▁VAN	-1281
▁belang	-1282
ative	-1283
▁di	-1284
▁best	-1285
eken	-1286
ITE	-1287
▁14	-1288
ISI	-1289
▁bod	-1290
ize	-1291
▁management	-1292
▁Adult	-1293
ory	-1294
ommittee	-1295
ENS	-1296
des	-1297
uss	-1298
▁lede	-1299
bestuur	-1300
ai	-1301
▁ob	-1302
▁Ent	-1303
led	-1304
▁For	-1305
▁lid	-1306
toets	-1307
▁prop	-1308
▁appoint	-1309
▁13	-1310
fen	-1311
▁app	-1312
uriteit	-1313
▁hel	-1314
▁bepaal	-1315
iver	-1316
▁add	-1317
oertuig	-1318
iet	-1319
und	-1320
andel	-1321
ultural	-1322
son	-1323
ath	-1324
▁organis	-1325
vention	-1326
ICI	-1327
reek	-1328
ieke	-1329
▁2007	-1330
▁constitution	-1331
;>	-1332
ives	-1333
▁ens	-1334
jects	-1335
ikasies	-1336
▁intern	-1337
▁pay	-1338
▁toep	-1339
▁council	-1340
eds	-1341
nolog	-1342
twerp	-1343
;>&	-1344
TIES	-1345
▁Centres	-1346
diens	-1347
▁Pres	-1348
▁register	-1349
▁stel	-1350
▁grondwet	-1351
TY	-1352
uil	-1353
▁21	-1354
▁Land	-1355
esting	-1356
▁ident	-1357
ommissie	-1358
ondheids	-1359
ted	-1360
▁gem	-1361
▁Economic	-1362
ha	-1363
itee	-1364
icate	-1365
▁sodan	-1366
▁implement	-1367
▁responsible	-1368
▁number	-1369
▁verantwoordelik	-1370
ete	-1371
▁Mr	-1372
ctions	-1373
istreer	-1374
▁MUNICI	-1375
▁school	-1376
▁special	-1377
tein	-1378
▁where	-1379
▁2003	-1380
▁avail	-1381
▁only	-1382
▁ww	-1383
▁www	-1384
▁eien	-1385
▁specified	-1386
▁Uit	-1387
hed	-1388
▁est	-1389
▁rem	-1390
▁certif	-1391
eral	-1392
▁help	-1393
item	-1394
▁Nasionale	-1395
edu	-1396
out	-1397
▁rek	-1398
TR	-1399
ids	-1400
tre	-1401
File	-1402
ound	-1403
▁lig	-1404
▁Wor	-1405
▁spes	-1406
▁kennis	-1407
TA	-1408
ultuur	-1409
▁maatskap	-1410
OC	-1411
py	-1412
▁Ag	-1413
▁Bi	-1414
▁Transport	-1415
ised	-1416
ters	-1417
▁vergadering	-1418
aff	-1419
bes	-1420
▁funks	-1421
▁state	-1422
▁sodanige	-1423
▁Toer	-1424
▁request	-1425
▁size	-1426
▁applic	-1427
▁18	-1428
▁Par	-1429
TEITE	-1430
▁Museum	-1431
▁betaal	-1432
dom	-1433
▁gel	-1434
gel	-1435
erde	-1436
▁inf	-1437
▁toegang	-1438
200	-1439
TER	-1440
▁how	-1441
icence	-1442
rib	-1443
▁set	-1444
▁finans	-1445
▁wanneer	-1446
▁available	-1447
▁Constitution	-1448
Afrikaanse	-1449
▁KB	-1450
▁ph	-1451
ric	-1452
TEIT	-1453
reat	-1454
▁Publ	-1455
▁elect	-1456
na	-1457
mes	-1458
▁Stad	-1459
uk	-1460
twikkelings	-1461
PALITY	-1462
▁partic	-1463
▁gemeenskap	-1464
▁MUNICIPALITY	-1465
▁board	-1466
ISIPALI	-1467
ED	-1468
bs	-1469
▁cl	-1470
ffic	-1471
erman	-1472
rough	-1473
▁executive	-1474
ights	-1475
▁City	-1476
▁vorm	-1477
ISIPALITEIT	-1478
ante	-1479
▁Authority	-1480
▁ooreenkom	-1481
▁into	-1482
▁before	-1483
▁versoek	-1484
▁local	-1485
▁subse	-1486
▁years	-1487
▁Minister	-1488
rim	-1489
ervoer	-1490
irekte	-1491
geb	-1492
sig	-1493
▁maar	-1494
sh	-1495
LIKE	-1496
frika	-1497
▁province	-1498
OU	-1499
▁kw	-1500
frast	-1501
▁Bibliote	-1502
▁voord	-1503
▁Premier	-1504
ew	-1505
ium	-1506
olg	-1507
abin	-1508
▁verw	-1509
▁apply	-1510
bare	-1511
▁483	-1512
▁but	-1513
wc	-1514
TMENT	-1515
als	-1516
ereik	-1517
▁plaaslike	-1518
▁programme	-1519
vironmental	-1520
▁Sekuriteit	-1521
raat	-1522
▁Bay	-1523
▁Rep	-1524
▁cap	-1525
▁gew	-1526
▁nodig	-1527
▁effect	-1528
▁process	-1529
▁including	-1530
ient	-1531
rand	-1532
▁Res	-1533
antoor	-1534
▁president	-1535
▁Jy	-1536
ICES	-1537
stand	-1538
▁Road	-1539
▁Clinic	-1540
▁Speaker	-1541
▁Security	-1542
70	-1543
elf	-1544
ract	-1545
▁conc	-1546
▁determ	-1547
tegr	-1548
▁prom	-1549
ertifik	-1550
OM	-1551
▁044	-1552
60	-1553
▁hy	-1554
▁ou	-1555
ouse	-1556
▁che	-1557
▁bill	-1558
▁haar	-1559
isipale	-1560
▁Private	-1561
▁DEPARTMENT	-1562
▁Publications	-1563
estig	-1564
▁Publikasies	-1565
TH	-1566
bout	-1567
ingsentrum	-1568
erty	-1569
▁012	-1570
isens	-1571
ureau	-1572
voorkom	-1573
▁Information	-1574
tig	-1575
gaam	-1576
hoor	-1577
▁AND	-1578
▁law	-1579
▁twe	-1580
▁Huis	-1581
▁kl	-1582
iers	-1583
ivers	-1584
retariaat	-1585
▁TB	-1586
▁regard	-1587
▁Grondwet	-1588
eker	-1589
▁polic	-1590
AP	-1591
BLI	-1592
hol	-1593
▁It	-1594
itage	-1595
▁staats	-1596
les	-1597
▁LOC	-1598
elsel	-1599
▁equip	-1600
▁Bureau	-1601
▁systems	-1602
IR	-1603
ERN	-1604
▁co	-1605
▁HIV	-1606
▁take	-1607
ancial	-1608
▁agree	-1609
AAS	-1610
▁publ	-1611
onomiese	-1612
▁betro	-1613
▁Ek	-1614
▁Re	-1615
irst	-1616
▁val	-1617
ever	-1618
▁court	-1619
▁"	-1620
dernem	-1621
▁LOCAL	-1622
▁16	-1623
teen	-1624
▁issu	-1625
▁made	-1626
▁verm	-1627
▁PLAAS	-1628
▁Office	-1629
▁PLAASLIKE	-1630
▁Or	-1631
oegd	-1632
▁saam	-1633
▁about	-1634
▁control	-1635
▁Bre	-1636
▁over	-1637
1.	-1638
sem	-1639
ommer	-1640
▁geld	-1641
▁Voertuig	-1642
▁Sekretariaat	-1643
ck	-1644
IENS	-1645
▁count	-1646
▁establ	-1647
aste	-1648
jekte	-1649
▁subart	-1650
▁SERV	-1651
▁peri	-1652
▁sport	-1653
gewings	-1654
▁Pol	-1655
▁bas	-1656
▁body	-1657
▁make	-1658
▁Vervoer	-1659
▁equipment	-1660
aks	-1661
▁08	-1662
lect	-1663
▁provide	-1664
▁referred	-1665
▁Management	-1666
ton	-1667
▁To	-1668
▁tw	-1669
▁bek	-1670
▁uitg	-1671
▁Executive	-1672
burg	-1673
ious	-1674
▁disc	-1675
▁main	-1676
ansoek	-1677
▁President	-1678
ior	-1679
▁Un	-1680
▁023	-1681
toetsst	-1682
▁through	-1683
iat	-1684
eter	-1685
▁days	-1686
erings	-1687
▁accord	-1688
▁private	-1689
▁Misdaadvoorkom	-1690
uw	-1691
▁dem	-1692
temming	-1693
bron	-1694
▁vere	-1695
retariat	-1696
▁AF	-1697
▁Bag	-1698
▁amp	-1699
▁ensure	-1700
20	-1701
US	-1702
atus	-1703
▁gee	-1704
▁submit	-1705
▁besluit	-1706
epl	-1707
lae	-1708
pes	-1709
uty	-1710
▁gesk	-1711
▁item	-1712
▁neem	-1713
gramme	-1714
▁mater	-1715
▁Voertuigtoetsst	-1716
▁IN	-1717
vant	-1718
▁Agr	-1719
asiese	-1720
sa	-1721
ants	-1722
ville	-1723
▁order	-1724
▁period	-1725
▁subsection	-1726
ekt	-1727
▁Com	-1728
▁Ver	-1729
▁hof	-1730
▁own	-1731
earch	-1732
▁Toerisme	-1733
▁TO	-1734
▁House	-1735
▁stand	-1736
oë	-1737
rukt	-1738
▁sec	-1739
▁Kultuur	-1740
▁SERVICES	-1741
▁MUNISIPALITEIT	-1742
ack	-1743
very	-1744
aking	-1745
eneem	-1746
abinet	-1747
▁municipal	-1748
ept	-1749
tain	-1750
▁doc	-1751
ee	-1752
eke	-1753
▁1.	-1754
▁27	-1755
ined	-1756
▁pur	-1757
▁ontwikkeling	-1758
AND	-1759
▁MIV	-1760
▁kry	-1761
▁behe	-1762
▁eers	-1763
ANN	-1764
▁gereg	-1765
▁Secretariat	-1766
ills	-1767
▁District	-1768
▁director	-1769
▁subartikel	-1770
io	-1771
iew	-1772
ven	-1773
raad	-1774
▁wil	-1775
eting	-1776
▁Regional	-1777
▁hoe	-1778
▁dienste	-1779
amil	-1780
oors	-1781
▁list	-1782
stelling	-1783
doen	-1784
ines	-1785
▁sign	-1786
▁perform	-1787
ace	-1788
ble	-1789
rak	-1790
▁We	-1791
uman	-1792
▁ben	-1793
ighede	-1794
▁afric	-1795
▁waste	-1796
oria	-1797
▁vis	-1798
▁writ	-1799
▁Gesondheid	-1800
oem	-1801
▁mar	-1802
▁rele	-1803
▁verkl	-1804
▁assist	-1805
▁verwys	-1806
▁betrokke	-1807
UBLI	-1808
self	-1809
▁pass	-1810
ources	-1811
alle	-1812
ATION	-1813
ei	-1814
▁GOV	-1815
LITIES	-1816
▁GOVERN	-1817
▁contin	-1818
aling	-1819
erke	-1820
▁lear	-1821
▁notice	-1822
▁functions	-1823
CT	-1824
kl	-1825
up	-1826
▁WES	-1827
▁FACI	-1828
▁Sake	-1829
▁designed	-1830
▁er	-1831
legs	-1832
bev	-1833
▁BI	-1834
vorm	-1835
▁prote	-1836
▁GOVERNMENT	-1837
▁Prevention	-1838
AT	-1839
SILI	-1840
▁rece	-1841
sembly	-1842
▁Board	-1843
▁PUBLI	-1844
▁officer	-1845
ertifikaat	-1846
ule	-1847
▁gaan	-1848
asting	-1849
irekteur	-1850
▁FACILITIES	-1851
▁Application	-1852
stel	-1853
▁month	-1854
▁FASILI	-1855
▁dae	-1856
ussen	-1857
▁oper	-1858
itions	-1859
▁municipality	-1860
lak	-1861
ses	-1862
anne	-1863
ished	-1864
IENSTE	-1865
▁bevord	-1866
▁import	-1867
▁interest	-1868
▁FASILITEITE	-1869
15	-1870
▁care	-1871
assing	-1872
▁Agric	-1873
LE	-1874
SA	-1875
lein	-1876
pers	-1877
▁Oud	-1878
ector	-1879
skrif	-1880
▁financial	-1881
mp	-1882
▁EM	-1883
▁bevoegd	-1884
educ	-1885
▁Vol	-1886
▁verseker	-1887
▁community	-1888
ged	-1889
▁ma	-1890
eder	-1891
▁Cor	-1892
▁aff	-1893
▁lang	-1894
▁22	-1895
OVIN	-1896
▁record	-1897
▁Aansoek	-1898
▁Strateg	-1899
aai	-1900
▁kon	-1901
rekking	-1902
▁daarvan	-1903
eleenthede	-1904
▁Inligting	-1905
aid	-1906
rap	-1907
opro	-1908
osch	-1909
▁commun	-1910
▁hospit	-1911
▁De	-1912
▁Metro	-1913
woordig	-1914
ermanent	-1915
▁uitvoerende	-1916
ix	-1917
ëls	-1918
▁80	-1919
gesk	-1920
▁educ	-1921
▁Indien	-1922
sontwerp	-1923
ute	-1924
ific	-1925
▁att	-1926
▁bec	-1927
ination	-1928
▁Testing	-1929
▁ontvang	-1930
ink	-1931
▁34	-1932
wing	-1933
▁ple	-1934
▁char	-1935
▁south	-1936
OP	-1937
oods	-1938
▁amend	-1939
▁Libraries	-1940
▁Her	-1941
▁first	-1942
▁Hospit	-1943
DC	-1944
az	-1945
lia	-1946
▁75	-1947
fonds	-1948
▁each	-1949
▁twee	-1950
▁Member	-1951
▁finansiële	-1952
for	-1953
ulp	-1954
ness	-1955
▁Mar	-1956
eleid	-1957
▁repres	-1958
▁adv	-1959
▁two	-1960
▁means	-1961
liament	-1962
▁verkies	-1963
ook	-1964
orge	-1965
▁Fin	-1966
▁lev	-1967
▁2002	-1968
▁gep	-1969
▁leer	-1970
riving	-1971
▁17	-1972
▁Beh	-1973
▁same	-1974
▁slegs	-1975
▁verrig	-1976
▁verskaf	-1977
▁commission	-1978
EK	-1979
UL	-1980
ron	-1981
tens	-1982
▁burg	-1983
▁test	-1984
▁PROVIN	-1985
▁Biblioteke	-1986
▁voorsiening	-1987
90	-1988
▁ref	-1989
ecess	-1990
▁Park	-1991
▁bene	-1992
▁parag	-1993
▁beskerm	-1994
▁certificate	-1995
▁minister	-1996
▁La	-1997
▁approv	-1998
▁Municipal	-1999
▁Opleiding	-2000
TU	-2001
ected	-2002
▁cent	-2003
▁every	-2004
▁Committee	-2005
▁suid	-2006
▁tech	-2007
▁required	-2008
sd	-2009
TRA	-2010
▁24	-2011
atal	-2012
roue	-2013
▁vry	-2014
▁Daar	-2015
idings	-2016
▁tussen	-2017
▁cond	-2018
IK	-2019
▁bu	-2020
ging	-2021
▁cop	-2022
▁krag	-2023
▁priv	-2024
ructure	-2025
itor	-2026
ivid	-2027
ling	-2028
▁2008	-2029
▁kont	-2030
▁verl	-2031
entskap	-2032
retoria	-2033
▁necess	-2034
80	-2035
gen	-2036
----	-2037
fess	-2038
stig	-2039
Service	-2040
ERS	-2041
▁name	-2042
ikasie	-2043
▁being	-2044
.1.	-2045
tern	-2046
▁REG	-2047
▁cit	-2048
▁31	-2049
▁opsig	-2050
Diens	-2051
▁persone	-2052
aie	-2053
ril	-2054
▁sw	-2055
▁wy	-2056
▁ber	-2057
▁funksies	-2058
▁represent	-2059
gev	-2060
ulu	-2061
TEMENT	-2062
▁ste	-2063
▁area	-2064
▁provided	-2065
▁permanent	-2066
urr	-2067
▁DIE	-2068
▁DIENSTE	-2069
▁Fe	-2070
aart	-2071
ween	-2072
▁benef	-2073
▁Uitvoerende	-2074
▁munisipaliteit	-2075
ger	-2076
▁2.	-2077
hoorn	-2078
▁mark	-2079
ular	-2080
assen	-2081
▁hulp	-2082
▁toer	-2083
▁Hierdie	-2084
eks	-2085
mal	-2086
▁Bes	-2087
▁vra	-2088
▁conf	-2089
▁date	-2090
▁geen	-2091
▁appro	-2092
tshoorn	-2093
▁George	-2094
▁between	-2095
▁subject	-2096
ple	-2097
ester	-2098
werheid	-2099
▁DEPARTEMENT	-2100
▁Environmental	-2101
wes	-2102
ases	-2103
ould	-2104
▁exc	-2105
▁his	-2106
▁EMDC	-2107
orporation	-2108
▁Oudtshoorn	-2109
▁toepassing	-2110
any	-2111
dat	-2112
▁46	-2113
▁def	-2114
▁Cont	-2115
▁improv	-2116
▁insluit	-2117
omen	-2118
▁bew	-2119
iddel	-2120
ontein	-2121
▁areas	-2122
enbosch	-2123
SE	-2124
ORT	-2125
▁76	-2126
ails	-2127
rift	-2128
▁consid	-2129
▁wetgewer	-2130
▁necessary	-2131
raph	-2132
▁022	-2133
▁strateg	-2134
ekte	-2135
nology	-2136
▁right	-2137
▁staat	-2138
▁direct	-2139
onderhede	-2140
▁registration	-2141
pg	-2142
▁23	-2143
ited	-2144
perk	-2145
▁dien	-2146
▁them	-2147
▁suppl	-2148
▁relevant	-2149
get	-2150
nte	-2151
▁So	-2152
reation	-2153
▁eerste	-2154
▁rights	-2155
▁ondernem	-2156
ellenbosch	-2157
ving	-2158
ality	-2159
fenis	-2160
▁verh	-2161
gestel	-2162
▁policy	-2163
andeling	-2164
▁wetsontwerp	-2165
▁i	-2166
ANS	-2167
ify	-2168
ove	-2169
▁Leg	-2170
▁Lid	-2171
▁ger	-2172
▁Court	-2173
▁vereis	-2174
▁without	-2175
iks	-2176
▁(1	-2177
akel	-2178
aris	-2179
▁pla	-2180
▁respect	-2181
25	-2182
GE	-2183
▁kn	-2184
▁tak	-2185
bronne	-2186
ruktuur	-2187
BOS	-2188
▁Rec	-2189
▁wys	-2190
▁grond	-2191
▁kinders	-2192
isk	-2193
▁028	-2194
▁Bel	-2195
▁bre	-2196
▁mod	-2197
▁meas	-2198
▁well	-2199
▁sluit	-2200
▁betrekking	-2201
dig	-2202
▁aanv	-2203
▁stem	-2204
▁verst	-2205
RE	-2206
iqu	-2207
jun	-2208
▁69	-2209
abilit	-2210
wassen	-2211
▁afval	-2212
tenance	-2213
▁liggaam	-2214
▁agreement	-2215
▁accordance	-2216
▁department	-2217
bo	-2218
▁toes	-2219
isions	-2220
▁integr	-2221
▁material	-2222
73	-2223
ful	-2224
▁during	-2225
▁police	-2226
▁children	-2227
eleentheid	-2228
▁ondersoek	-2229
▁wor	-2230
ionele	-2231
▁3.	-2232
ards	-2233
treff	-2234
40	-2235
gem	-2236
ife	-2237
wassenes	-2238
OO	-2239
pgwc	-2240
▁nad	-2241
ourts	-2242
▁voldoen	-2243
ds	-2244
wa	-2245
ël	-2246
ooi	-2247
▁Depot	-2248
▁deleg	-2249
▁contain	-2250
▁verteen	-2251
▁66	-2252
voed	-2253
▁Sub	-2254
▁sc	-2255
inde	-2256
▁River	-2257
▁indust	-2258
▁authority	-2259
▁resources	-2260
by	-2261
yf	-2262
oprosp	-2263
ousing	-2264
▁Pretoria	-2265
▁property	-2266
ered	-2267
ftes	-2268
iede	-2269
▁chem	-2270
▁high	-2271
iation	-2272
▁again	-2273
▁skool	-2274
▁PUBLIC	-2275
▁result	-2276
▁social	-2277
▁Licence	-2278
tek	-2279
▁73	-2280
▁Commission	-2281
▁Stellenbosch	-2282
ull	-2283
▁Dis	-2284
▁How	-2285
eration	-2286
OS	-2287
inn	-2288
ages	-2289
▁were	-2290
alings	-2291
▁citiz	-2292
▁Social	-2293
▁proble	-2294
▁skrift	-2295
▁sonder	-2296
================	-2297
4,	-2298
ced	-2299
▁25	-2300
▁OV	-2301
ading	-2302
▁voort	-2303
uilding	-2304
▁Service	-2305
▁training	-2306
▁Cl	-2307
▁my	-2308
▁fur	-2309
owers	-2310
▁call	-2311
▁geval	-2312
▁those	-2313
1,	-2314
ipe	-2315
▁AB	-2316
▁Em	-2317
iven	-2318
▁Med	-2319
▁nav	-2320
▁three	-2321
▁export	-2322
▁address	-2323
▁Registration	-2324
▁Van	-2325
▁mil	-2326
▁does	-2327
▁drie	-2328
isensie	-2329
▁Basiese	-2330
eil	-2331
roep	-2332
▁dra	-2333
itter	-2334
▁plaas	-2335
ability	-2336
ws	-2337
ONTA	-2338
ased	-2339
▁some	-2340
▁Cultural	-2341
ALE	-2342
til	-2343
ury	-2344
▁BE	-2345
▁ac	-2346
ason	-2347
ceed	-2348
fort	-2349
▁dok	-2350
▁tel	-2351
ph	-2352
▁48	-2353
▁77	-2354
▁All	-2355
▁bem	-2356
▁human	-2357
2.	-2358
AS	-2359
RIC	-2360
ugust	-2361
elandse	-2362
▁biolog	-2363
▁country	-2364
▁opsigte	-2365
▁verband	-2366
▁Agriculture	-2367
▁eg	-2368
atis	-2369
▁Kom	-2370
ental	-2371
▁self	-2372
ategor	-2373
pri	-2374
▁Gro	-2375
▁Sup	-2376
▁net	-2377
▁tax	-2378
utions	-2379
▁gebied	-2380
▁programmes	-2381
▁legislature	-2382
▁OP	-2383
leen	-2384
sake	-2385
▁facil	-2386
▁install	-2387
▁bioprosp	-2388
inc	-2389
oms	-2390
rik	-2391
dorp	-2392
merk	-2393
▁Jan	-2394
▁conditions	-2395
DE	-2396
▁ke	-2397
crib	-2398
duct	-2399
valu	-2400
▁100	-2401
ically	-2402
▁gedoen	-2403
▁beampte	-2404
▁assembly	-2405
▁gesondheids	-2406
iem	-2407
▁50	-2408
arie	-2409
▁Mos	-2410
waard	-2411
▁April	-2412
program	-2413
▁direkteur	-2414
gt	-2415
lyn	-2416
▁col	-2417
▁she	-2418
▁2009	-2419
▁develop	-2420
▁individ	-2421
ane	-2422
weg	-2423
▁aim	-2424
▁naam	-2425
person	-2426
▁place	-2427
EB	-2428
IES	-2429
▁hê	-2430
less	-2431
▁datum	-2432
▁distr	-2433
▁groot	-2434
▁gemaak	-2435
ics	-2436
tes	-2437
bert	-2438
mall	-2439
▁lew	-2440
▁verteenwoordig	-2441
ald	-2442
ros	-2443
▁gek	-2444
êreld	-2445
▁motor	-2446
▁bedoel	-2447
▁privaat	-2448
▁ondersteun	-2449
▁Volwassenes	-2450
▁whe	-2451
▁Pool	-2452
inding	-2453
rivier	-2454
▁bestaan	-2455
▁60	-2456
laim	-2457
▁vac	-2458
abour	-2459
▁Child	-2460
▁korpor	-2461
▁Omgewings	-2462
kk	-2463
▁Br	-2464
ibil	-2465
ises	-2466
▁free	-2467
imming	-2468
▁profess	-2469
▁tydperk	-2470
▁36	-2471
▁go	-2472
▁poss	-2473
▁used	-2474
ission	-2475
▁quest	-2476
▁promot	-2477
▁Heritage	-2478
▁projects	-2479
▁doeltreff	-2480
TEG	-2481
dag	-2482
den	-2483
ause	-2484
ield	-2485
▁nam	-2486
▁ABET	-2487
▁moont	-2488
▁rekord	-2489
▁verkry	-2490
leidings	-2491
los	-2492
▁65	-2493
▁011	-2494
▁day	-2495
▁matter	-2496
▁Swimming	-2497
45	-2498
tel	-2499
▁pas	-2500
▁1999	-2501
▁clinic	-2502
▁registered	-2503
PORT	-2504
iaal	-2505
▁toe	-2506
▁huis	-2507
▁prim	-2508
oeftes	-2509
▁begin	-2510
▁einde	-2511
▁include	-2512
▁voorkom	-2513
▁Maatskap	-2514
bet	-2515
OUTH	-2516
aged	-2517
▁Febru	-2518
voertuig	-2519
▁Training	-2520
▁uitgereik	-2521
pr	-2522
igs	-2523
ktor	-2524
bsite	-2525
▁plan	-2526
idence	-2527
▁uitvoer	-2528
▁vehicle	-2529
uthorities	-2530
▁maatskappy	-2531
85	-2532
IDS	-2533
▁26	-2534
▁Kh	-2535
▁Nov	-2536
▁hom	-2537
▁case	-2538
▁behal	-2539
ellings	-2540
▁Corners	-2541
▁verleen	-2542
▁ID	-2543
kund	-2544
nual	-2545
ament	-2546
▁Beau	-2547
▁laat	-2548
▁verand	-2549
▁Entities	-2550
);	-2551
23	-2552
APE	-2553
rip	-2554
inal	-2555
peal	-2556
▁nog	-2557
werking	-2558
▁August	-2559
▁issued	-2560
▁Driving	-2561
▁eiendom	-2562
▁project	-2563
▁Ons	-2564
▁OBOS	-2565
▁what	-2566
enberg	-2567
▁activ	-2568
▁regte	-2569
▁having	-2570
▁whether	-2571
75	-2572
▁By	-2573
BOOV	-2574
▁OOR	-2575
▁tar	-2576
twikkel	-2577
▁concern	-2578
▁eienaar	-2579
▁Sentrums	-2580
▁particip	-2581
ersentrums	-2582
▁Entiteite	-2583
ARE	-2584
ENB	-2585
sed	-2586
▁dag	-2587
ances	-2588
▁CAPE	-2589
▁mens	-2590
▁further	-2591
▁matters	-2592
xt	-2593
AAP	-2594
IEW	-2595
oste	-2596
pole	-2597
▁post	-2598
▁prev	-2599
▁sake	-2600
isation	-2601
stelsel	-2602
leersentrums	-2603
way	-2604
ette	-2605
▁bly	-2606
▁sam	-2607
▁Oper	-2608
▁prior	-2609
▁Beaufort	-2610
▁40	-2611
▁El	-2612
▁fl	-2613
▁Acc	-2614
ustice	-2615
▁powers	-2616
▁status	-2617
▁Schools	-2618
▁official	-2619
7,	-2620
ick	-2621
ves	-2622
▁Mag	-2623
umente	-2624
▁against	-2625
▁consult	-2626
▁provides	-2627
uitvoerende	-2628
▁munisipale	-2629
13	-2630
ps	-2631
irc	-2632
INGS	-2633
ences	-2634
▁gele	-2635
▁prem	-2636
▁Special	-2637
eplanning	-2638
▁geregistreer	-2639
2,	-2640
PL	-2641
ave	-2642
▁28	-2643
name	-2644
orte	-2645
▁DIS	-2646
▁copy	-2647
▁sche	-2648
aardig	-2649
▁Plans	-2650
▁SOUTH	-2651
▁There	-2652
ywerheid	-2653
frastructure	-2654
▁maatskaplike	-2655
▁dif	-2656
ience	-2657
▁STRA	-2658
▁guid	-2659
▁Offic	-2660
▁STRATEG	-2661
▁Z	-2662
raf	-2663
dule	-2664
line	-2665
ules	-2666
▁less	-2667
▁serv	-2668
straat	-2669
▁Mossel	-2670
▁persons	-2671
▁Planning	-2672
ksie	-2673
ethyl	-2674
itional	-2675
reatment	-2676
▁kennisgewing	-2677
LIN	-2678
com	-2679
dra	-2680
▁00	-2681
▁44	-2682
▁comm	-2683
▁verv	-2684
ubliek	-2685
▁staff	-2686
▁inform	-2687
▁instit	-2688
▁regerings	-2689
▁29	-2690
▁Kn	-2691
tige	-2692
▁uite	-2693
onomie	-2694
▁Legisl	-2695
▁written	-2696
▁(2	-2697
▁Te	-2698
ANNE	-2699
ator	-2700
plig	-2701
▁PRO	-2702
▁geg	-2703
▁nom	-2704
▁Main	-2705
▁dise	-2706
atiewe	-2707
▁waarop	-2708
▁learners	-2709
▁belangrik	-2710
plan	-2711
▁Lev	-2712
▁subs	-2713
fontein	-2714
ommittees	-2715
▁complete	-2716
▁prescrib	-2717
▁Programme	-2718
▁departement	-2719
/200	-2720
▁car	-2721
▁ENTI	-2722
▁long	-2723
komste	-2724
▁AFRIC	-2725
▁Traffic	-2726
▁ontwikkel	-2727
enges	-2728
▁give	-2729
▁allow	-2730
▁famil	-2731
istrasies	-2732
SIG	-2733
▁93	-2734
▁Le	-2735
raaf	-2736
poses	-2737
▁Werk	-2738
▁Worc	-2739
▁port	-2740
portun	-2741
▁nadat	-2742
▁general	-2743
airperson	-2744
▁kragtens	-2745
frastruktuur	-2746
▁registrasie	-2747
itz	-2748
▁2000	-2749
▁PLANS	-2750
▁given	-2751
▁beheer	-2752
▁spesif	-2753
▁Landbou	-2754
▁account	-2755
▁appointed	-2756
▁Kultuursake	-2757
22	-2758
din	-2759
oep	-2760
per	-2761
▁vyf	-2762
acity	-2763
itees	-2764
▁cost	-2765
▁lead	-2766
ention	-2767
▁Swart	-2768
houding	-2769
▁proced	-2770
▁bevorder	-2771
▁document	-2772
sies	-2773
ators	-2774
▁Plan	-2775
iemand	-2776
▁invol	-2777
▁AFRICA	-2778
▁parties	-2779
▁bepalings	-2780
▁education	-2781
junk	-2782
▁end	-2783
▁aand	-2784
▁baie	-2785
conomy	-2786
deling	-2787
▁Province	-2788
▁Bl	-2789
▁wyse	-2790
▁gesag	-2791
likheid	-2792
▁Bestuur	-2793
▁polisie	-2794
▁Distriks	-2795
14	-2796
:00	-2797
oev	-2798
ping	-2799
reed	-2800
▁Ass	-2801
▁ext	-2802
aatre	-2803
▁8000	-2804
▁huur	-2805
▁technology	-2806
▁ooreenkomstig	-2807
ESS	-2808
law	-2809
▁Pr	-2810
imum	-2811
▁cre	-2812
▁hol	-2813
▁nat	-2814
▁Care	-2815
▁Comp	-2816
▁maande	-2817
▁onderwys	-2818
▁veiligheid	-2819
ontwikkeling	-2820
.2.	-2821
OND	-2822
iety	-2823
onde	-2824
rewe	-2825
▁buit	-2826
▁evalu	-2827
▁months	-2828
ligtings	-2829
beplanning	-2830
▁Worcester	-2831
▁hoofuitvoerende	-2832
18	-2833
19	-2834
▁x	-2835
irm	-2836
ker	-2837
ock	-2838
aroo	-2839
pose	-2840
will	-2841
▁Jun	-2842
aldan	-2843
tinge	-2844
▁insp	-2845
▁stud	-2846
▁then	-2847
▁werks	-2848
▁korporasie	-2849
▁particular	-2850
16	-2851
ERG	-2852
▁Dr	-2853
oney	-2854
▁occ	-2855
ERING	-2856
ekeur	-2857
▁Part	-2858
▁both	-2859
▁rest	-2860
89	-2861
ieë	-2862
uns	-2863
wel	-2864
ingsk	-2865
ption	-2866
▁adop	-2867
▁hier	-2868
▁gevolg	-2869
▁toepas	-2870
▁waarin	-2871
▁beteken	-2872
▁improve	-2873
▁decision	-2874
▁modified	-2875
▁verbeter	-2876
▁Munisipale	-2877
▁No	-2878
aarl	-2879
▁red	-2880
aarde	-2881
aster	-2882
▁What	-2883
ergency	-2884
▁November	-2885
▁function	-2886
▁spesiale	-2887
▁voorgesk	-2888
▁ekonomiese	-2889
▁facilities	-2890
▁established	-2891
munisipaliteit	-2892
rem	-2893
▁Im	-2894
ries	-2895
▁sim	-2896
▁Voor	-2897
▁oort	-2898
ellend	-2899
▁grant	-2900
▁pract	-2901
▁seker	-2902
▁OORSIG	-2903
▁Officer	-2904
▁details	-2905
▁schools	-2906
▁committee	-2907
joen	-2908
▁Mat	-2909
▁eie	-2910
▁let	-2911
▁wie	-2912
eptem	-2913
▁Spes	-2914
▁When	-2915
▁bied	-2916
▁trad	-2917
ERVIEW	-2918
ertain	-2919
▁staan	-2920
beampte	-2921
▁Permit	-2922
▁OVERVIEW	-2923
8,	-2924
CH	-2925
fe	-2926
her	-2927
▁Co	-2928
ital	-2929
▁sol	-2930
▁most	-2931
▁vote	-2932
▁incre	-2933
▁Albert	-2934
▁verord	-2935
eptember	-2936
▁aangestel	-2937
▁verklaring	-2938
▁communities	-2939
uro	-2940
ober	-2941
▁geh	-2942
▁tog	-2943
enburg	-2944
gekeur	-2945
▁Prote	-2946
ifiseer	-2947
▁reason	-2948
▁provisions	-2949
▁55	-2950
▁At	-2951
baai	-2952
enheid	-2953
▁power	-2954
ellendam	-2955
▁aanvaar	-2956
▁appropri	-2957
▁opportun	-2958
▁administr	-2959
▁specially	-2960
isipaliteite	-2961
IG	-2962
▁cor	-2963
▁Janu	-2964
▁plig	-2965
▁money	-2966
▁object	-2967
▁economic	-2968
▁production	-2969
▁Legislature	-2970
29	-2971
ef	-2972
iol	-2973
ved	-2974
▁Wyn	-2975
▁eng	-2976
▁hoë	-2977
kloof	-2978
▁five	-2979
orsing	-2980
▁Chief	-2981
▁bring	-2982
▁taken	-2983
▁Saldan	-2984
▁consum	-2985
▁establish	-2986
▁aansoekvorm	-2987
▁corporation	-2988
▁63	-2989
CIAL	-2990
SIES	-2991
ysna	-2992
▁pot	-2993
▁least	-2994
▁would	-2995
▁capacity	-2996
▁citizens	-2997
▁purposes	-2998
▁Ekonomiese	-2999
FA	-3000
RO	-3001
yk	-3002
weeg	-3003
bring	-3004
▁mann	-3005
illion	-3006
ications	-3007
▁consist	-3008
▁bevoegdhede	-3009
26	-3010
sc	-3011
wth	-3012
gaan	-3013
▁pat	-3014
▁curr	-3015
▁ters	-3016
ENBARE	-3017
elands	-3018
▁until	-3019
▁women	-3020
▁invest	-3021
▁minder	-3022
▁partye	-3023
▁Housing	-3024
▁Wanneer	-3025
▁OPENBARE	-3026
▁ingestel	-3027
▁previous	-3028
▁determined	-3029
iw	-3030
VEL	-3031
bus	-3032
elde	-3033
▁vak	-3034
ether	-3035
▁gehou	-3036
▁vroue	-3037
▁Knysna	-3038
▁besoek	-3039
▁verder	-3040
▁Contact	-3041
▁Members	-3042
▁licence	-3043
▁provinces	-3044
▁Swellendam	-3045
tr	-3046
ban	-3047
beh	-3048
tyd	-3049
rakt	-3050
▁Jul	-3051
▁0001	-3052
▁Levy	-3053
▁tree	-3054
▁voer	-3055
▁Afrika	-3056
▁Courts	-3057
▁listed	-3058
inelands	-3059
▁voordat	-3060
▁Ontwikkelings	-3061
..	-3062
ME	-3063
erc	-3064
▁33	-3065
▁Is	-3066
▁Uys	-3067
▁way	-3068
▁web	-3069
indes	-3070
▁Berg	-3071
▁vlak	-3072
▁polit	-3073
waardes	-3074
eleindes	-3075
▁protection	-3076
▁Me	-3077
▁ko	-3078
▁Pos	-3079
▁vert	-3080
▁want	-3081
rakens	-3082
▁Skole	-3083
▁Breede	-3084
▁product	-3085
▁investig	-3086
▁moontlik	-3087
rug	-3088
▁4.	-3089
orth	-3090
▁gre	-3091
▁imm	-3092
iving	-3093
gemene	-3094
▁Streek	-3095
▁remain	-3096
▁supply	-3097
▁behoort	-3098
▁prescribed	-3099
55	-3100
sy	-3101
urn	-3102
▁Af	-3103
venue	-3104
ecting	-3105
erskap	-3106
urende	-3107
▁Works	-3108
▁claim	-3109
▁meter	-3110
habilit	-3111
▁bereik	-3112
▁gebiede	-3113
▁verslag	-3114
▁Motorvoertuig	-3115
ll	-3116
anc	-3117
bel	-3118
lor	-3119
▁87	-3120
neem	-3121
▁sof	-3122
iekte	-3123
▁know	-3124
organis	-3125
▁website	-3126
21	-3127
84	-3128
TW	-3129
fol	-3130
uim	-3131
▁79	-3132
▁Pe	-3133
▁Sc	-3134
Zulu	-3135
gelê	-3136
stuk	-3137
▁Vir	-3138
Metro	-3139
▁chief	-3140
▁steun	-3141
▁Cabinet	-3142
ian	-3143
▁Fr	-3144
pool	-3145
inder	-3146
▁stad	-3147
uwelik	-3148
▁legal	-3149
▁Intern	-3150
▁assess	-3151
▁werking	-3152
ification	-3153
▁treatment	-3154
▁ooreenkoms	-3155
yc	-3156
rsa	-3157
unt	-3158
▁Nu	-3159
tion	-3160
other	-3161
ource	-3162
water	-3163
▁toel	-3164
skrifte	-3165
▁safety	-3166
aatreëls	-3167
▁current	-3168
▁besonderhede	-3169
iel	-3170
▁19.	-3171
▁Fax	-3172
▁deb	-3173
▁dut	-3174
▁ret	-3175
eerde	-3176
▁week	-3177
gebied	-3178
uising	-3179
▁Forum	-3180
▁Museums	-3181
▁Support	-3182
▁premier	-3183
▁together	-3184
▁transport	-3185
▁Authorities	-3186
▁aanstelling	-3187
▁administration	-3188
▁gl	-3189
keie	-3190
ring	-3191
oeding	-3192
▁Paarl	-3193
▁Youth	-3194
▁organ	-3195
▁africa	-3196
▁premises	-3197
rakenstein	-3198
3,	-3199
bre	-3200
ded	-3201
▁ev	-3202
ince	-3203
irth	-3204
tware	-3205
▁cust	-3206
▁klin	-3207
antore	-3208
▁These	-3209
▁among	-3210
▁coast	-3211
▁exerc	-3212
▁langu	-3213
▁monitor	-3214
▁includes	-3215
▁measures	-3216
registrasies	-3217
▁70	-3218
▁90	-3219
hang	-3220
inst	-3221
▁neg	-3222
VELOP	-3223
▁Port	-3224
▁centre	-3225
istrates	-3226
▁DEVELOP	-3227
▁meeting	-3228
▁Spesiale	-3229
▁heritage	-3230
▁software	-3231
▁hulpbronne	-3232
ms	-3233
nr	-3234
▁sow	-3235
stens	-3236
▁init	-3237
▁Admin	-3238
▁Report	-3239
▁charge	-3240
owerheid	-3241
▁company	-3242
▁working	-3243
▁research	-3244
▁DEVELOPMENT	-3245
-,	-3246
eng	-3247
nex	-3248
tor	-3249
▁Kl	-3250
hand	-3251
oint	-3252
spro	-3253
▁Org	-3254
▁cle	-3255
oeveel	-3256
permit	-3257
waZulu	-3258
▁Klein	-3259
▁terug	-3260
ections	-3261
▁Indust	-3262
▁Second	-3263
▁erfenis	-3264
▁present	-3265
▁appointment	-3266
▁staatsdiens	-3267
▁international	-3268
...	-3269
▁Ms	-3270
chie	-3271
▁vul	-3272
SIALE	-3273
▁Kont	-3274
▁Verg	-3275
ending	-3276
▁geneem	-3277
▁conduct	-3278
▁deliver	-3279
▁continue	-3280
▁September	-3281
▁applicable	-3282
▁PROVINSIALE	-3283
▁maintenance	-3284
▁responsibil	-3285
lê	-3286
IESE	-3287
USIN	-3288
read	-3289
▁Guid	-3290
▁level	-3291
▁skole	-3292
USINESS	-3293
kantoor	-3294
▁tourism	-3295
▁Projects	-3296
▁REGERING	-3297
▁gemeenskappe	-3298
86	-3299
▁du	-3300
ktes	-3301
▁May	-3302
aters	-3303
trand	-3304
▁meet	-3305
afrika	-3306
▁Komitee	-3307
▁goedgekeur	-3308
TS	-3309
wyl	-3310
▁Cal	-3311
edien	-3312
▁Verk	-3313
▁paid	-3314
inated	-3315
isters	-3316
▁bevat	-3317
▁needs	-3318
nership	-3319
ulation	-3320
▁worker	-3321
▁paragraph	-3322
rae	-3323
ral	-3324
wap	-3325
▁Hoe	-3326
▁Mob	-3327
riage	-3328
▁Cons	-3329
▁Vers	-3330
▁cann	-3331
▁DISTR	-3332
▁Agency	-3333
▁bekend	-3334
ingsburg	-3335
▁Registr	-3336
▁protect	-3337
▁leerders	-3338
▁effective	-3339
▁parliament	-3340
CE	-3341
ye	-3342
IRS	-3343
okr	-3344
dale	-3345
▁Gen	-3346
Natal	-3347
▁situ	-3348
▁vier	-3349
▁virus	-3350
▁while	-3351
▁cannot	-3352
▁question	-3353
▁provision	-3354
gesondheids	-3355
▁toestemming	-3356
/0	-3357
ner	-3358
▁aw	-3359
LING	-3360
TERN	-3361
▁jud	-3362
▁vas	-3363
▁besp	-3364
▁gere	-3365
▁open	-3366
▁repl	-3367
ommend	-3368
▁egter	-3369
▁indig	-3370
▁iemand	-3371
▁BUSINESS	-3372
▁security	-3373
▁verkiesing	-3374
.,	-3375
eug	-3376
ayel	-3377
olle	-3378
ours	-3379
rein	-3380
▁non	-3381
▁full	-3382
▁many	-3383
▁tens	-3384
▁exist	-3385
▁getal	-3386
▁goedke	-3387
▁unless	-3388
▁complain	-3389
▁recommend	-3390
▁Drakenstein	-3391
▁Omgewingsake	-3392
▁Ontwikkeling	-3393
17	-3394
46	-3395
ti	-3396
afe	-3397
▁WH	-3398
eens	-3399
omat	-3400
rees	-3401
used	-3402
▁div	-3403
▁PROJ	-3404
▁inhe	-3405
▁weer	-3406
▁resol	-3407
▁beperk	-3408
▁wêreld	-3409
▁Project	-3410
▁Laingsburg	-3411
HEID	-3412
alley	-3413
greer	-3414
▁1998	-3415
▁Fund	-3416
▁Insp	-3417
▁achie	-3418
▁bewys	-3419
▁vermeld	-3420
▁chemical	-3421
▁opleiding	-3422
▁Parliament	-3423
▁appropriate	-3424
▁municipalities	-3425
▁39	-3426
▁6.	-3427
▁Di	-3428
▁Ph	-3429
ough	-3430
▁(1)	-3431
andid	-3432
▁life	-3433
▁nood	-3434
▁skep	-3435
estrem	-3436
tiging	-3437
▁Water	-3438
▁alloc	-3439
▁Sports	-3440
▁gestel	-3441
▁interv	-3442
▁obtain	-3443
▁misdaad	-3444
▁possible	-3445
▁munisipaliteite	-3446
4-	-3447
UM	-3448
ex	-3449
ma	-3450
ente	-3451
road	-3452
uals	-3453
ually	-3454
▁almal	-3455
▁asook	-3456
▁later	-3457
▁contem	-3458
▁duties	-3459
▁proses	-3460
▁Culture	-3461
▁continu	-3462
▁Recreation	-3463
▁bevoegdheid	-3464
tp	-3465
OOR	-3466
▁35	-3467
KAAP	-3468
adem	-3469
▁Des	-3470
▁arm	-3471
▁Priv	-3472
▁hoog	-3473
▁srsa	-3474
▁stap	-3475
▁koste	-3476
ategory	-3477
▁manner	-3478
▁prosed	-3479
▁million	-3480
▁prevent	-3481
▁provinsies	-3482
beg	-3483
over	-3484
▁Els	-3485
▁bank	-3486
nommer	-3487
▁Maart	-3488
▁State	-3489
▁Kontak	-3490
▁differ	-3491
ooreenkom	-3492
▁Strategic	-3493
▁paragraaf	-3494
▁gesondheid	-3495
▁performance	-3496
aba	-3497
▁Fun	-3498
▁dan	-3499
itsha	-3500
▁Vred	-3501
gewende	-3502
▁aangew	-3503
▁KwaZulu	-3504
▁african	-3505
▁complet	-3506
▁transfer	-3507
▁registreer	-3508
bed	-3509
wit	-3510
osit	-3511
tende	-3512
▁near	-3513
▁vari	-3514
elines	-3515
▁owner	-3516
lements	-3517
nologie	-3518
▁compon	-3519
▁another	-3520
▁disease	-3521
▁ingedien	-3522
▁submitted	-3523
▁ON	-3524
ancy	-3525
arly	-3526
iary	-3527
ross	-3528
endal	-3529
iquor	-3530
▁annex	-3531
▁energ	-3532
lisensie	-3533
▁miljoen	-3534
▁quality	-3535
▁Hospital	-3536
▁Wetgewer	-3537
▁Magistrates	-3538
▁onderneming	-3539
▁regulations	-3540
alk	-3541
jor	-3542
oot	-3543
ula	-3544
elyk	-3545
emse	-3546
enew	-3547
hank	-3548
ulle	-3549
▁age	-3550
▁opt	-3551
beeld	-3552
ising	-3553
iteer	-3554
rison	-3555
▁Eden	-3556
handel	-3557
uments	-3558
▁crime	-3559
▁goods	-3560
▁reeds	-3561
irektor	-3562
▁gratis	-3563
▁sector	-3564
▁Organis	-3565
▁WESTERN	-3566
▁follows	-3567
▁publiek	-3568
▁traffic	-3569
ayelitsha	-3570
▁specific	-3571
ommissaris	-3572
▁environment	-3573
oh	-3574
hes	-3575
pre	-3576
rus	-3577
▁Am	-3578
agtig	-3579
▁Faks	-3580
▁Needs	-3581
▁Theew	-3582
▁forms	-3583
▁daarop	-3584
▁oorleg	-3585
▁terwyl	-3586
▁Offices	-3587
▁benefits	-3588
▁inheemse	-3589
aterskloof	-3590
▁beskerming	-3591
▁Theewaterskloof	-3592
ana	-3593
▁AG	-3594
▁Er	-3595
▁fee	-3596
▁pap	-3597
▁rol	-3598
▁sur	-3599
enous	-3600
ensie	-3601
▁cour	-3602
▁held	-3603
▁norm	-3604
▁read	-3605
▁Overs	-3606
▁Sector	-3607
▁Valley	-3608
▁aanbev	-3609
▁lewens	-3610
▁tydens	-3611
ceedings	-3612
▁coastal	-3613
▁determine	-3614
▁PROVINCIAL	-3615
usp	-3616
▁lê	-3617
raal	-3618
▁400	-3619
▁vor	-3620
oorte	-3621
▁Prim	-3622
▁Prison	-3623
ntegreer	-3624
▁hoeveel	-3625
irektoraat	-3626
▁kommissie	-3627
▁rehabilit	-3628
▁indigenous	-3629
▁skriftelike	-3630
▁Maatskaplike	-3631
iff	-3632
lem	-3633
jaar	-3634
rdin	-3635
▁Sak	-3636
isiat	-3637
▁ouer	-3638
▁plek	-3639
plated	-3640
▁Trade	-3641
▁world	-3642
▁Deputy	-3643
▁beleid	-3644
ondernem	-3645
▁greater	-3646
▁verplig	-3647
▁approved	-3648
▁contemplated	-3649
web	-3650
▁(0	-3651
feul	-3652
rodu	-3653
▁ses	-3654
▁cape	-3655
▁fire	-3656
▁mees	-3657
anteer	-3658
▁major	-3659
▁tensy	-3660
▁visit	-3661
▁annual	-3662
▁projek	-3663
▁usable	-3664
ortefeul	-3665
▁writing	-3666
▁category	-3667
▁besigheid	-3668
▁important	-3669
▁inligtings	-3670
EC	-3671
SIE	-3672
mat	-3673
quir	-3674
werf	-3675
▁eis	-3676
▁pad	-3677
▁Lang	-3678
▁Pers	-3679
▁Voors	-3680
▁contrib	-3681
kommissie	-3682
▁activities	-3683
▁implementation	-3684
vl	-3685
TOR	-3686
app	-3687
ally	-3688
alte	-3689
rede	-3690
view	-3691
FAIRS	-3692
apter	-3693
istes	-3694
selfde	-3695
▁maand	-3696
▁remov	-3697
▁Finans	-3698
▁growth	-3699
▁AFFAIRS	-3700
▁huwelik	-3701
▁kantoor	-3702
▁komitee	-3703
▁sitting	-3704
▁stelsel	-3705
▁contract	-3706
▁employer	-3707
▁belasting	-3708
▁dieselfde	-3709
▁gedurende	-3710
▁Overstrand	-3711
▁consultation	-3712
▁institutions	-3713
sue	-3714
▁53	-3715
anit	-3716
raag	-3717
afrik	-3718
ample	-3719
▁SAKE	-3720
▁city	-3721
▁four	-3722
▁sust	-3723
endent	-3724
uurwap	-3725
▁March	-3726
▁assoc	-3727
▁beleg	-3728
▁chang	-3729
▁trade	-3730
komitee	-3731
▁Mobile	-3732
▁bedryf	-3733
▁consent	-3734
▁verordening	-3735
▁aangeleentheid	-3736
▁z	-3737
ope	-3738
▁43	-3739
ived	-3740
kerm	-3741
repr	-3742
▁SAP	-3743
▁akt	-3744
▁der	-3745
▁fis	-3746
▁tre	-3747
▁fill	-3748
usting	-3749
▁Small	-3750
▁subst	-3751
reprene	-3752
▁except	-3753
▁skakel	-3754
▁certain	-3755
▁inkomste	-3756
▁projekte	-3757
gesondheid	-3758
▁spesifieke	-3759
▁behandeling	-3760
76	-3761
Wes	-3762
ike	-3763
▁IS	-3764
ENTR	-3765
▁arr	-3766
▁soc	-3767
▁tem	-3768
▁Form	-3769
▁done	-3770
▁venn	-3771
▁veral	-3772
▁vorige	-3773
fondsing	-3774
▁leaders	-3775
▁medical	-3776
▁parents	-3777
▁facility	-3778
▁toerisme	-3779
▁verklaar	-3780
hl	-3781
ISM	-3782
day	-3783
oef	-3784
onn	-3785
▁9.	-3786
sequ	-3787
stru	-3788
▁erk	-3789
▁oud	-3790
ither	-3791
▁2001	-3792
▁Arts	-3793
▁Lede	-3794
▁site	-3795
▁uits	-3796
beleid	-3797
▁naaste	-3798
▁building	-3799
▁industry	-3800
▁promotion	-3801
▁republiek	-3802
Op	-3803
lei	-3804
▁HO	-3805
▁ht	-3806
reik	-3807
▁Sch	-3808
▁lim	-3809
▁lit	-3810
▁mak	-3811
ively	-3812
▁News	-3813
▁besl	-3814
▁saak	-3815
igings	-3816
▁Elect	-3817
▁vanaf	-3818
▁gewoon	-3819
▁skills	-3820
bruikers	-3821
▁hanteer	-3822
▁ooreens	-3823
▁perseel	-3824
▁integrated	-3825
▁bevordering	-3826
▁Po	-3827
▁bou	-3828
abled	-3829
gings	-3830
▁good	-3831
▁woon	-3832
▁aansp	-3833
▁fasil	-3834
▁because	-3835
▁goedere	-3836
▁oorweeg	-3837
ntegreerde	-3838
24	-3839
5,	-3840
iam	-3841
▁Imp	-3842
▁opg	-3843
▁wel	-3844
berts	-3845
▁Bell	-3846
▁lewer	-3847
▁start	-3848
▁purpose	-3849
▁maintain	-3850
▁onderhoud	-3851
▁personeel	-3852
ommunikasie	-3853
▁regulasies	-3854
▁institution	-3855
▁voorwaardes	-3856
▁applications	-3857
):	-3858
ETA	-3859
MUN	-3860
igr	-3861
▁sê	-3862
enis	-3863
utes	-3864
▁Del	-3865
udget	-3866
▁Witz	-3867
▁raak	-3868
▁viol	-3869
▁Werke	-3870
▁above	-3871
▁groei	-3872
kundige	-3873
▁leiers	-3874
--------	-3875
▁records	-3876
▁Projekte	-3877
▁marriage	-3878
acy	-3879
ctor	-3880
etes	-3881
▁Pla	-3882
▁Hoof	-3883
▁fact	-3884
▁http	-3885
▁upon	-3886
▁Compl	-3887
▁Karoo	-3888
▁elekt	-3889
▁agency	-3890
▁middel	-3891
▁werknem	-3892
▁algemene	-3893
▁republic	-3894
▁schedule	-3895
▁Behoeftes	-3896
▁instelling	-3897
KO	-3898
ogn	-3899
TUUR	-3900
urse	-3901
▁Adv	-3902
atory	-3903
▁Alle	-3904
▁jong	-3905
KAAPSE	-3906
atures	-3907
gewers	-3908
ommers	-3909
▁begro	-3910
▁effic	-3911
▁uitge	-3912
engesit	-3913
▁deputy	-3914
▁gevaar	-3915
▁receive	-3916
▁volgens	-3917
▁election	-3918
▁Swartland	-3919
▁uiteengesit	-3920
cap	-3921
▁Ty	-3922
▁mu	-3923
aars	-3924
ader	-3925
fact	-3926
▁VER	-3927
aging	-3928
forum	-3929
iënte	-3930
▁2010	-3931
▁Nuus	-3932
▁find	-3933
▁home	-3934
▁volt	-3935
iektes	-3936
▁ouers	-3937
▁plant	-3938
▁sowel	-3939
▁benoem	-3940
▁kontak	-3941
▁letter	-3942
▁sustain	-3943
▁omgewing	-3944
▁documents	-3945
▁administrasie	-3946
▁internasionale	-3947
vo	-3948
osed	-3949
raam	-3950
werp	-3951
▁FOR	-3952
▁put	-3953
▁rig	-3954
ONTAK	-3955
ients	-3956
teken	-3957
▁Kind	-3958
▁canc	-3959
▁head	-3960
▁here	-3961
ONTACT	-3962
ateway	-3963
ectors	-3964
▁KONTAK	-3965
▁genoem	-3966
usionele	-3967
▁CONTACT	-3968
▁mediese	-3969
▁related	-3970
▁Witzenberg	-3971
▁Strategiese	-3972
▁bioprospecting	-3973
Lê	-3974
do	-3975
agn	-3976
ruk	-3977
▁es	-3978
▁Any	-3979
▁aud	-3980
▁six	-3981
▁teg	-3982
Lêert	-3983
enior	-3984
folio	-3985
urban	-3986
▁Bill	-3987
▁plac	-3988
▁thir	-3989
Public	-3990
isering	-3991
Lêertipe	-3992
Openbare	-3993
▁reports	-3994
▁vervoer	-3995
▁Metropole	-3996
▁chairperson	-3997
cas	-3998
▁45	-3999
▁74	-4000
▁OM	-4001
oral	-4002
▁Kon	-4003
▁Rev	-4004
beids	-4005
ellig	-4006
gener	-4007
keers	-4008
likse	-4009
▁1996	-4010
▁Binn	-4011
▁crim	-4012
▁gede	-4013
▁skul	-4014
etting	-4015
▁Famil	-4016
▁Police	-4017
▁Posbus	-4018
▁anders	-4019
▁handel	-4020
▁Industry	-4021
▁Saldanha	-4022
▁hoofstuk	-4023
▁Nywerheid	-4024
▁Secondary	-4025
▁completed	-4026
▁werkgewer	-4027
▁biological	-4028
▁employment	-4029
▁Khayelitsha	-4030
▁goedkeuring	-4031
▁doeltreffende	-4032
▁organisations	-4033
▁constitutional	-4034
72	-4035
79	-4036
LIG	-4037
▁78	-4038
lyne	-4039
wood	-4040
▁(2)	-4041
▁foc	-4042
duced	-4043
▁keer	-4044
▁much	-4045
ANNING	-4046
▁based	-4047
▁final	-4048
▁gegee	-4049
▁vraag	-4050
▁groote	-4051
tegrated	-4052
▁behalwe	-4053
▁workers	-4054
▁committees	-4055
▁voorsitter	-4056
▁ondernemings	-4057
3.	-4058
ECT	-4059
▁WC	-4060
ouns	-4061
▁WEB	-4062
▁dam	-4063
▁goe	-4064
▁kop	-4065
▁kus	-4066
▁susp	-4067
▁erken	-4068
▁hours	-4069
▁sodat	-4070
▁assign	-4071
▁govern	-4072
▁accident	-4073
▁minstens	-4074
▁Toerismeb	-4075
▁different	-4076
▁toepaslike	-4077
▁requirements	-4078
▁environmental	-4079
MA	-4080
ko	-4081
URE	-4082
por	-4083
sec	-4084
▁GE	-4085
ekom	-4086
omes	-4087
▁Pad	-4088
▁kap	-4089
stige	-4090
▁Tech	-4091
▁sorg	-4092
neming	-4093
▁basis	-4094
▁chall	-4095
▁exper	-4096
▁immun	-4097
▁valid	-4098
▁Avenue	-4099
▁Staats	-4100
▁adjunk	-4101
▁commit	-4102
▁pligte	-4103
ederberg	-4104
▁example	-4105
▁komitees	-4106
▁biologiese	-4107
▁doeleindes	-4108
▁Binnelandse	-4109
▁Directorate	-4110
▁installation	-4111
rop	-4112
vel	-4113
▁1,	-4114
ided	-4115
▁asp	-4116
▁lys	-4117
staan	-4118
▁TOUR	-4119
▁able	-4120
▁either	-4121
▁manier	-4122
▁Bureaux	-4123
▁uitreik	-4124
voorbeeld	-4125
▁proceedings	-4126
The	-4127
▁RED	-4128
▁beë	-4129
▁weg	-4130
posed	-4131
▁aant	-4132
▁fees	-4133
▁weke	-4134
estaan	-4135
middel	-4136
▁basic	-4137
▁beoog	-4138
▁democ	-4139
▁weeks	-4140
▁Certif	-4141
▁amount	-4142
▁comply	-4143
▁labour	-4144
▁promote	-4145
▁verdere	-4146
▁approval	-4147
▁aangeleenthede	-4148
4.	-4149
100	-4150
TING	-4151
▁Aan	-4152
▁TRA	-4153
▁had	-4154
anies	-4155
ccess	-4156
gress	-4157
ograph	-4158
▁Polic	-4159
▁build	-4160
itering	-4161
verberg	-4162
▁siekte	-4163
▁finance	-4164
gevaardig	-4165
▁relating	-4166
▁applicant	-4167
▁interests	-4168
▁assistance	-4169
ontwikkelings	-4170
nt	-4171
hib	-4172
▁gu	-4173
anch	-4174
lant	-4175
ried	-4176
▁oog	-4177
asing	-4178
thing	-4179
ential	-4180
▁Mense	-4181
▁betre	-4182
▁princ	-4183
▁share	-4184
ehicles	-4185
▁Instit	-4186
▁Kaapse	-4187
▁burger	-4188
▁custom	-4189
▁subsid	-4190
▁nearest	-4191
▁verkeers	-4192
▁voordele	-4193
▁Toerismeburo	-4194
28	-4195
3)	-4196
par	-4197
▁85	-4198
SAKE	-4199
elle	-4200
verw	-4201
▁deal	-4202
▁fund	-4203
▁grou	-4204
▁sent	-4205
▁stat	-4206
▁stre	-4207
ATIONS	-4208
▁buite	-4209
▁bylaw	-4210
sentrum	-4211
repreneurs	-4212
▁Bergrivier	-4213
▁skriftelik	-4214
▁gemeenskaps	-4215
jie	-4216
wig	-4217
▁59	-4218
ster	-4219
▁Mal	-4220
▁enc	-4221
▁rad	-4222
itche	-4223
ledge	-4224
thers	-4225
▁road	-4226
▁verd	-4227
▁aange	-4228
▁birth	-4229
▁vaard	-4230
illende	-4231
programme	-4232
▁Building	-4233
▁Februarie	-4234
▁providing	-4235
▁investment	-4236
▁geleentheid	-4237
▁ontwikkelings	-4238
ars	-4239
game	-4240
oots	-4241
lands	-4242
▁Kuns	-4243
▁Wets	-4244
▁mand	-4245
iering	-4246
▁inbeg	-4247
▁volle	-4248
liggaam	-4249
nemende	-4250
▁basiese	-4251
▁kategor	-4252
▁agentskap	-4253
▁bestaande	-4254
▁portefeul	-4255
▁Integrated	-4256
▁infrastructure	-4257
65	-4258
aw	-4259
Dep	-4260
ilm	-4261
lid	-4262
deel	-4263
eres	-4264
▁lod	-4265
▁oop	-4266
ateur	-4267
▁veil	-4268
aatsak	-4269
cially	-4270
enbaar	-4271
▁ongel	-4272
▁using	-4273
▁People	-4274
▁compet	-4275
▁demokr	-4276
▁sekere	-4277
isensies	-4278
▁chapter	-4279
▁collect	-4280
▁kliniek	-4281
ellington	-4282
▁February	-4283
▁behandel	-4284
▁hospital	-4285
▁Agentskap	-4286
▁Provinsie	-4287
▁reference	-4288
41	-4289
KA	-4290
lo	-4291
tog	-4292
dent	-4293
hulp	-4294
volg	-4295
▁dek	-4296
▁vot	-4297
▁vro	-4298
▁crit	-4299
▁risk	-4300
▁house	-4301
▁total	-4302
komende	-4303
ptelike	-4304
▁change	-4305
▁second	-4306
▁relations	-4307
▁resolution	-4308
▁verrigtinge	-4309
SK	-4310
gn	-4311
bek	-4312
eni	-4313
lew	-4314
heer	-4315
imes	-4316
tuie	-4317
▁ask	-4318
ended	-4319
▁like	-4320
▁town	-4321
▁guide	-4322
okument	-4323
▁Prince	-4324
▁appeal	-4325
▁better	-4326
▁streek	-4327
▁Justice	-4328
▁benefit	-4329
▁Cederberg	-4330
▁amendment	-4331
▁Vergadering	-4332
▁verskillende	-4333
6)	-4334
ty	-4335
ash	-4336
lus	-4337
orn	-4338
▁72	-4339
▁MO	-4340
▁Sh	-4341
beid	-4342
deur	-4343
here	-4344
maak	-4345
▁Dec	-4346
▁ern	-4347
▁ill	-4348
▁nou	-4349
▁wit	-4350
ramew	-4351
▁Sche	-4352
▁North	-4353
▁Roads	-4354
▁decla	-4355
▁common	-4356
▁impact	-4357
▁namens	-4358
▁recogn	-4359
▁Economy	-4360
▁facilit	-4361
▁success	-4362
▁versuim	-4363
▁Augustus	-4364
▁Winelands	-4365
▁dokumente	-4366
▁components	-4367
▁permanente	-4368
▁Maintenance	-4369
ama	-4370
eph	-4371
lar	-4372
man	-4373
off	-4374
oud	-4375
▁ca	-4376
erne	-4377
vind	-4378
▁And	-4379
▁Est	-4380
▁Mei	-4381
▁str	-4382
aland	-4383
estes	-4384
gedra	-4385
▁enig	-4386
▁role	-4387
ourist	-4388
▁issue	-4389
▁still	-4390
estremd	-4391
▁werker	-4392
sentrums	-4393
▁thereof	-4394
▁waarvan	-4395
▁Children	-4396
▁identity	-4397
▁Bellville	-4398
▁Parlement	-4399
▁Privaatsak	-4400
2-	-4401
47	-4402
EM	-4403
ULT	-4404
ats	-4405
has	-4406
▁pa	-4407
amer	-4408
blyf	-4409
▁job	-4410
uleer	-4411
▁1997	-4412
▁circ	-4413
▁miss	-4414
▁phys	-4415
▁omdat	-4416
▁struct	-4417
▁verbet	-4418
▁payment	-4419
▁inbegrip	-4420
▁concerned	-4421
LA	-4422
hel	-4423
IKKE	-4424
abor	-4425
erst	-4426
olit	-4427
reng	-4428
rial	-4429
uses	-4430
▁Hof	-4431
▁Lic	-4432
▁Red	-4433
▁WAT	-4434
▁abs	-4435
acter	-4436
etown	-4437
istry	-4438
witte	-4439
▁Door	-4440
▁mass	-4441
▁mult	-4442
reedom	-4443
▁EMDCs	-4444
▁proof	-4445
▁Sakepl	-4446
▁Wetson	-4447
▁course	-4448
▁family	-4449
iversity	-4450
owerment	-4451
▁TOURISM	-4452
▁primary	-4453
▁verspre	-4454
▁vuurwap	-4455
upational	-4456
▁daarvoor	-4457
▁gesament	-4458
▁openbaar	-4459
▁STRATEGIC	-4460
▁aansoeker	-4461
▁aanspreek	-4462
▁emergency	-4463
▁STRATEGIESE	-4464
▁professional	-4465
▁Onderwysbestuur	-4466
-9	-4467
bb	-4468
dal	-4469
ees	-4470
▁LE	-4471
heff	-4472
tore	-4473
▁027	-4474
▁Deel	-4475
▁qual	-4476
▁rate	-4477
itable	-4478
▁Enige	-4479
▁Lange	-4480
▁bydra	-4481
▁polis	-4482
▁rules	-4483
ertiary	-4484
ootskap	-4485
▁passed	-4486
▁January	-4487
▁various	-4488
▁waarvoor	-4489
standighede	-4490
▁doeltreffend	-4491
//	-4492
27	-4493
63	-4494
://	-4495
ITY	-4496
ani	-4497
iko	-4498
ryw	-4499
ONOM	-4500
ends	-4501
heen	-4502
ately	-4503
▁Prov	-4504
▁next	-4505
afhank	-4506
oerant	-4507
projek	-4508
▁posit	-4509
oorsaak	-4510
▁Planne	-4511
▁bodies	-4512
▁issues	-4513
▁opvoed	-4514
▁Funding	-4515
▁Primary	-4516
▁disclos	-4517
▁funding	-4518
▁verhoog	-4519
▁exercise	-4520
▁vehicles	-4521
▁voordeel	-4522
▁wysiging	-4523
▁ENTITEITE	-4524
▁Kommissie	-4525
▁hospitaal	-4526
▁Opleidings	-4527
▁Operational	-4528
▁ooreenstemming	-4529
ww	-4530
GEW	-4531
enc	-4532
ues	-4533
www	-4534
AIDS	-4535
asis	-4536
ured	-4537
vlak	-4538
▁afg	-4539
▁fax	-4540
ulhas	-4541
▁Hand	-4542
▁getu	-4543
essies	-4544
istics	-4545
making	-4546
uidige	-4547
▁besit	-4548
▁beste	-4549
▁Labour	-4550
▁Liquor	-4551
▁Mitche	-4552
▁Strand	-4553
▁levels	-4554
▁streng	-4555
▁volled	-4556
▁station	-4557
▁received	-4558
afrikaanse	-4559
▁published	-4560
FF	-4561
bra	-4562
rid	-4563
▁DO	-4564
icip	-4565
▁COM	-4566
admin	-4567
eding	-4568
skryf	-4569
▁Work	-4570
▁exam	-4571
ricity	-4572
status	-4573
▁datab	-4574
▁range	-4575
▁behalf	-4576
▁undert	-4577
ramework	-4578
▁Beampte	-4579
▁Program	-4580
▁Section	-4581
▁landbou	-4582
slisensie	-4583
▁Disaster	-4584
▁betaling	-4585
▁regarding	-4586
▁Wellington	-4587
▁identiteit	-4588
6,	-4589
YS	-4590
arge	-4591
bury	-4592
geld	-4593
▁808	-4594
lause	-4595
poort	-4596
ready	-4597
▁High	-4598
▁fine	-4599
▁fish	-4600
▁fore	-4601
▁note	-4602
PLANNE	-4603
TWIKKE	-4604
azette	-4605
luding	-4606
▁cases	-4607
▁equal	-4608
▁gelys	-4609
▁invul	-4610
▁PLANNE	-4611
▁instru	-4612
▁steeds	-4613
▁aanhang	-4614
▁justice	-4615
▁ENTITIES	-4616
▁delivery	-4617
▁passport	-4618
▁verander	-4619
TWIKKELING	-4620
▁materials	-4621
▁Biblioteek	-4622
▁SAKEPLANNE	-4623
▁veroorsaak	-4624
stitusionele	-4625
AB	-4626
OER	-4627
hof	-4628
▁li	-4629
INIS	-4630
baan	-4631
edon	-4632
gang	-4633
geme	-4634
ibun	-4635
iebe	-4636
midd	-4637
oeps	-4638
room	-4639
▁jur	-4640
ather	-4641
ikels	-4642
oedig	-4643
ondse	-4644
▁farm	-4645
▁rock	-4646
▁Voort	-4647
▁abuse	-4648
▁agric	-4649
▁force	-4650
▁sanit	-4651
erkeers	-4652
▁beskou	-4653
▁oortre	-4654
▁Agulhas	-4655
▁afskrif	-4656
▁herroep	-4657
▁huidige	-4658
▁voertuig	-4659
lementswet	-4660
▁amptelike	-4661
▁countries	-4662
▁procedure	-4663
sertifikaat	-4664
▁Sakeplanne	-4665
▁Corporation	-4666
▁Infrastructure	-4667
87	-4668
aag	-4669
▁67	-4670
▁EK	-4671
ably	-4672
ects	-4673
▁Joh	-4674
▁New	-4675
▁due	-4676
ently	-4677
inate	-4678
▁fail	-4679
▁kort	-4680
▁perm	-4681
▁vind	-4682
arking	-4683
ousule	-4684
▁Coast	-4685
▁Women	-4686
▁gener	-4687
▁short	-4688
▁author	-4689
▁enterp	-4690
asionele	-4691
ervation	-4692
▁foreign	-4693
▁Ekonomie	-4694
▁Research	-4695
▁planning	-4696
▁werksaam	-4697
▁aangeneem	-4698
▁parlement	-4699
▁departments	-4700
▁voorgeskrewe	-4701
▁implementering	-4702
▁@	-4703
OSP	-4704
OUR	-4705
the	-4706
orts	-4707
osph	-4708
racy	-4709
resp	-4710
urch	-4711
▁Reh	-4712
OSPIT	-4713
ender	-4714
iated	-4715
ufact	-4716
wcape	-4717
▁aims	-4718
▁back	-4719
▁hist	-4720
▁kons	-4721
elsels	-4722
▁Ceres	-4723
▁could	-4724
▁event	-4725
▁immed	-4726
▁quant	-4727
ennings	-4728
▁Handel	-4729
▁Opvoed	-4730
▁Rights	-4731
▁confer	-4732
▁nodige	-4733
▁transl	-4734
ensation	-4735
▁aanstel	-4736
▁already	-4737
▁burgers	-4738
▁society	-4739
▁Assembly	-4740
▁progress	-4741
▁Rehabilit	-4742
▁according	-4743
▁residence	-4744
▁objectives	-4745
▁wetgewende	-4746
▁organisasies	-4747
-5	-4748
IL	-4749
VE	-4750
ga	-4751
akk	-4752
ikw	-4753
ode	-4754
sep	-4755
umm	-4756
meld	-4757
ruis	-4758
uele	-4759
wise	-4760
▁Dem	-4761
▁Not	-4762
▁Rek	-4763
▁bil	-4764
▁fit	-4765
▁mis	-4766
▁sak	-4767
allei	-4768
hewig	-4769
▁kies	-4770
▁oord	-4771
overty	-4772
▁klein	-4773
▁bedrag	-4774
▁parent	-4775
annaland	-4776
▁deposit	-4777
▁natural	-4778
▁rekords	-4779
▁bevestig	-4780
▁huishoud	-4781
▁Afrikaans	-4782
▁maatreëls	-4783
▁navorsing	-4784
▁versoeker	-4785
▁onderteken	-4786
ley	-4787
met	-4788
▁96	-4789
▁Du	-4790
▁MB	-4791
▁ir	-4792
kaff	-4793
▁Gre	-4794
▁Hel	-4795
▁Pap	-4796
▁Vul	-4797
▁dus	-4798
egaan	-4799
wards	-4800
▁regs	-4801
▁said	-4802
▁Apply	-4803
▁bylae	-4804
estasie	-4805
▁invoer	-4806
▁uitdag	-4807
▁volhou	-4808
▁watter	-4809
▁Gateway	-4810
▁amended	-4811
▁belange	-4812
ommercial	-4813
▁Metropool	-4814
▁materiaal	-4815
▁samewerking	-4816
▁responsibility	-4817
DS	-4818
IB	-4819
Za	-4820
won	-4821
elef	-4822
▁Mrs	-4823
▁var	-4824
ansie	-4825
▁appe	-4826
proses	-4827
▁Riebe	-4828
▁techn	-4829
quiries	-4830
verslag	-4831
▁totdat	-4832
ployment	-4833
▁bepaling	-4834
▁Behuising	-4835
▁kommissaris	-4836
▁partnership	-4837
▁opportunities	-4838
31	-4839
77	-4840
PO	-4841
ub	-4842
let	-4843
lop	-4844
wal	-4845
▁68	-4846
emor	-4847
plek	-4848
ukke	-4849
▁Inf	-4850
▁Met	-4851
▁ant	-4852
▁pog	-4853
anism	-4854
estic	-4855
ursus	-4856
▁down	-4857
▁kwal	-4858
▁prep	-4859
amptes	-4860
eldtog	-4861
icates	-4862
kundig	-4863
▁aktiw	-4864
▁leave	-4865
▁prakt	-4866
agtiging	-4867
risiteit	-4868
▁Finance	-4869
▁verblyf	-4870
▁voltooi	-4871
▁ekonomie	-4872
▁language	-4873
▁additional	-4874
besonderhede	-4875
ondernemings	-4876
35	-4877
AY	-4878
emb	-4879
mee	-4880
osa	-4881
beur	-4882
leut	-4883
verk	-4884
▁bal	-4885
iance	-4886
rises	-4887
▁June	-4888
▁They	-4889
▁duur	-4890
ctober	-4891
ommige	-4892
▁Plain	-4893
▁SPORT	-4894
▁below	-4895
▁field	-4896
▁gerig	-4897
▁meeste	-4898
generaal	-4899
resident	-4900
▁elected	-4901
▁annexure	-4902
▁belanghe	-4903
▁position	-4904
▁requester	-4905
▁vereistes	-4906
4)	-4907
BE	-4908
In	-4909
go	-4910
att	-4911
vis	-4912
▁Fl	-4913
none	-4914
▁max	-4915
▁mot	-4916
▁ser	-4917
▁sex	-4918
asury	-4919
▁conv	-4920
▁meth	-4921
derdom	-4922
reasie	-4923
school	-4924
▁brief	-4925
▁found	-4926
▁reken	-4927
▁small	-4928
▁third	-4929
▁aantal	-4930
▁become	-4931
▁income	-4932
▁mental	-4933
▁Caledon	-4934
▁achieve	-4935
▁centres	-4936
▁firearm	-4937
▁siektes	-4938
▁aansoeke	-4939
▁addition	-4940
▁problems	-4941
▁voorgeskryf	-4942
▁Applications	-4943
43	-4944
oet	-4945
iënt	-4946
lish	-4947
oede	-4948
raft	-4949
▁amb	-4950
▁ful	-4951
▁los	-4952
▁sou	-4953
heids	-4954
sequa	-4955
▁info	-4956
enders	-4957
▁gewys	-4958
▁renew	-4959
▁swart	-4960
houdens	-4961
▁medium	-4962
▁primêre	-4963
▁vervang	-4964
▁physical	-4965
▁omgewings	-4966
▁vergoeding	-4967
-1	-4968
IP	-4969
je	-4970
END	-4971
ICT	-4972
IER	-4973
oto	-4974
▁TE	-4975
duce	-4976
term	-4977
▁Tax	-4978
anger	-4979
azulu	-4980
istic	-4981
▁Heid	-4982
▁WHAT	-4983
▁faks	-4984
▁Hulle	-4985
▁death	-4986
▁lande	-4987
▁youth	-4988
▁stappe	-4989
▁Central	-4990
▁bystand	-4991
▁driving	-4992
▁economy	-4993
▁testing	-4994
Metropole	-4995
inligting	-4996
▁cultural	-4997
▁majority	-4998
▁strength	-4999
▁aangebied	-5000
▁otherwise	-5001
ennisgewing	-5002
▁businesses	-5003
▁hoeveelheid	-5004
▁organisasie	-5005
▁omstandighede	-5006
ides	-5007
laag	-5008
mark	-5009
▁nag	-5010
▁see	-5011
ivier	-5012
natal	-5013
ronic	-5014
trede	-5015
▁0800	-5016
▁Waar	-5017
▁conn	-5018
▁dire	-5019
▁duty	-5020
▁play	-5021
atives	-5022
▁goeie	-5023
▁inges	-5024
▁plans	-5025
▁stuur	-5026
essequa	-5027
iseerde	-5028
mission	-5029
oordeel	-5030
▁action	-5031
▁behoor	-5032
▁Permits	-5033
▁existing	-5034
▁verskeie	-5035
ounselling	-5036
▁Kannaland	-5037
▁political	-5038
▁considered	-5039
▁insluitend	-5040
▁onderhewig	-5041
▁procedures	-5042
▁reasonable	-5043
▁afgevaardig	-5044
▁vennootskap	-5045
▁werksaamhede	-5046
64	-5047
TRY	-5048
WER	-5049
toe	-5050
▁vl	-5051
aign	-5052
atic	-5053
▁him	-5054
▁sev	-5055
redit	-5056
▁Clan	-5057
▁disp	-5058
▁even	-5059
Provin	-5060
ensive	-5061
▁Skool	-5062
▁Tyger	-5063
▁beter	-5064
▁brand	-5065
▁rates	-5066
ampaign	-5067
linieke	-5068
william	-5069
▁Atlant	-5070
▁orders	-5071
▁regter	-5072
▁vooraf	-5073
▁waterv	-5074
pecially	-5075
▁However	-5076
▁capital	-5077
▁gehalte	-5078
▁geskied	-5079
besigheid	-5080
▁Desember	-5081
▁Ondernem	-5082
▁designated	-5083
▁Operasionele	-5084
▁infrastruktuur	-5085
95	-5086
EW	-5087
nel	-5088
bsid	-5089
eria	-5090
erve	-5091
iket	-5092
ints	-5093
▁10:	-5094
▁Nav	-5095
▁Vry	-5096
▁ond	-5097
▁sep	-5098
▁July	-5099
▁wish	-5100
wysing	-5101
▁Breed	-5102
iediens	-5103
mesbury	-5104
▁Policy	-5105
▁called	-5106
▁courts	-5107
▁encour	-5108
▁market	-5109
▁review	-5110
▁vermoë	-5111
▁Kinders	-5112
▁Wynland	-5113
▁capable	-5114
▁kwazulu	-5115
belasting	-5116
▁Hessequa	-5117
▁Overberg	-5118
▁dokument	-5119
▁resident	-5120
▁Malmesbury	-5121
▁controlled	-5122
▁Direktoraat	-5123
▁byvoorbeeld	-5124
▁legislative	-5125
▁Agricultural	-5126
AM	-5127
ETS	-5128
▁Ma	-5129
▁SU	-5130
▁Ber	-5131
▁Mon	-5132
▁ear	-5133
▁emp	-5134
adeel	-5135
andag	-5136
merke	-5137
oland	-5138
▁Dien	-5139
▁very	-5140
ktober	-5141
▁funds	-5142
▁reëls	-5143
▁vaste	-5144
▁Church	-5145
▁Skills	-5146
isiatief	-5147
▁applies	-5148
▁gewysig	-5149
▁offence	-5150
▁Ministry	-5151
▁mensereg	-5152
▁redelike	-5153
iversiteit	-5154
▁structure	-5155
▁Streekdienste	-5156
81	-5157
PR	-5158
IKA	-5159
VIR	-5160
arg	-5161
rad	-5162
blig	-5163
shof	-5164
unte	-5165
ward	-5166
▁OND	-5167
erset	-5168
inary	-5169
mense	-5170
ommod	-5171
oorde	-5172
▁East	-5173
▁Good	-5174
▁bele	-5175
▁hele	-5176
▁hern	-5177
▁live	-5178
▁taal	-5179
▁weet	-5180
arings	-5181
icated	-5182
▁Junie	-5183
▁derde	-5184
▁oblig	-5185
aaklike	-5186
ittende	-5187
▁repeal	-5188
ursaries	-5189
▁Clinics	-5190
▁discuss	-5191
▁skuldig	-5192
▁webwerf	-5193
▁Voortrek	-5194
▁involved	-5195
▁voorgelê	-5196
ooreenkoms	-5197
▁allocated	-5198
▁complaint	-5199
▁doelwitte	-5200
▁employees	-5201
▁especially	-5202
▁toerusting	-5203
▁verbinding	-5204
▁electricity	-5205
eë	-5206
sw	-5207
ask	-5208
ily	-5209
ipl	-5210
lex	-5211
▁SW	-5212
▁et	-5213
afel	-5214
ethu	-5215
iate	-5216
imal	-5217
ison	-5218
iste	-5219
kses	-5220
lord	-5221
olid	-5222
▁Bem	-5223
▁VIR	-5224
▁Farm	-5225
▁come	-5226
▁keep	-5227
▁lewe	-5228
▁libr	-5229
KASIES	-5230
ective	-5231
porary	-5232
▁cause	-5233
▁close	-5234
▁costs	-5235
▁weens	-5236
▁gedeel	-5237
laration	-5238
▁PROJECT	-5239
▁ongeluk	-5240
▁aangewys	-5241
▁criminal	-5242
▁products	-5243
▁efficient	-5244
▁politieke	-5245
▁prosedure	-5246
▁uitgevoer	-5247
▁Technology	-5248
▁Clanwilliam	-5249
▁Registrasie	-5250
61	-5251
DR	-5252
OL	-5253
RS	-5254
esp	-5255
▁Sp	-5256
▁sl	-5257
amin	-5258
heel	-5259
ulum	-5260
▁Gra	-5261
▁INF	-5262
▁mus	-5263
▁run	-5264
▁Call	-5265
▁past	-5266
▁show	-5267
iative	-5268
▁check	-5269
▁praat	-5270
▁telef	-5271
▁value	-5272
derheid	-5273
omestic	-5274
▁decide	-5275
▁gepubl	-5276
▁making	-5277
ordering	-5278
▁fisiese	-5279
▁kultuur	-5280
estelling	-5281
▁afdeling	-5282
▁Emergency	-5283
▁behoudens	-5284
▁customary	-5285
▁voortgaan	-5286
▁Maatskappy	-5287
▁industrial	-5288
▁vaardighede	-5289
▁gesondheidsorg	-5290
49	-5291
omp	-5292
raa	-5293
▁2,	-5294
▁lo	-5295
▁ow	-5296
ared	-5297
esen	-5298
gene	-5299
icro	-5300
ires	-5301
ival	-5302
▁ann	-5303
▁cov	-5304
▁kor	-5305
VIRON	-5306
field	-5307
indig	-5308
ourie	-5309
▁Bank	-5310
▁Mont	-5311
▁WCED	-5312
▁line	-5313
▁loop	-5314
▁orig	-5315
▁ster	-5316
▁vigs	-5317
▁west	-5318
iately	-5319
iction	-5320
rywing	-5321
ycling	-5322
▁Human	-5323
▁Julie	-5324
▁afwes	-5325
▁broad	-5326
▁colle	-5327
▁coord	-5328
▁indep	-5329
▁items	-5330
▁Annual	-5331
▁Submit	-5332
▁aanlyn	-5333
▁online	-5334
▁proper	-5335
▁signed	-5336
▁gevalle	-5337
▁housing	-5338
▁minimum	-5339
▁reflect	-5340
▁vrywill	-5341
VIRONMENT	-5342
president	-5343
▁DISTRICT	-5344
▁policies	-5345
Department	-5346
▁certified	-5347
▁marketing	-5348
▁volledige	-5349
▁vuurwapen	-5350
71	-5351
ui	-5352
bew	-5353
inf	-5354
itr	-5355
wor	-5356
▁05	-5357
▁49	-5358
▁AD	-5359
▁Do	-5360
▁TR	-5361
aren	-5362
iets	-5363
ired	-5364
trek	-5365
▁800	-5366
▁App	-5367
▁Inv	-5368
▁psc	-5369
adres	-5370
atell	-5371
pleeg	-5372
▁real	-5373
▁toek	-5374
▁toon	-5375
estand	-5376
minder	-5377
onders	-5378
▁adres	-5379
▁beide	-5380
▁corre	-5381
▁regst	-5382
▁works	-5383
install	-5384
▁Rivers	-5385
▁afrika	-5386
▁around	-5387
▁energy	-5388
▁living	-5389
▁sukses	-5390
▁taking	-5391
▁tenant	-5392
▁waarde	-5393
verskaff	-5394
▁October	-5395
▁changes	-5396
▁towards	-5397
▁verlede	-5398
▁district	-5399
▁standards	-5400
▁Committees	-5401
▁aanhangsel	-5402
▁voorgestel	-5403
▁instellings	-5404
▁sustainable	-5405
▁veiligheids	-5406
▁communication	-5407
66	-5408
ns	-5409
aby	-5410
enk	-5411
fin	-5412
wat	-5413
▁38	-5414
EKTE	-5415
kont	-5416
lede	-5417
oung	-5418
vlei	-5419
▁ele	-5420
▁mec	-5421
▁old	-5422
▁tek	-5423
aners	-5424
▁Bred	-5425
▁binn	-5426
erneem	-5427
▁OMGEW	-5428
▁media	-5429
▁uitvo	-5430
▁verwy	-5431
werkers	-5432
▁HOSPIT	-5433
▁Sektor	-5434
▁contra	-5435
▁ground	-5436
▁senior	-5437
isionele	-5438
▁Wynberg	-5439
▁categor	-5440
▁huurder	-5441
▁verbind	-5442
▁Januarie	-5443
▁Licences	-5444
▁Republic	-5445
▁directly	-5446
▁Electoral	-5447
▁verminder	-5448
▁ENVIRONMENT	-5449
▁immediately	-5450
▁kommunikasie	-5451
▁organisation	-5452
ii	-5453
.3.	-5454
IKS	-5455
UMS	-5456
imb	-5457
pas	-5458
ryk	-5459
zik	-5460
▁tu	-5461
okus	-5462
week	-5463
▁10.	-5464
▁Day	-5465
▁Lad	-5466
▁MEC	-5467
raaif	-5468
▁Jeug	-5469
▁Life	-5470
▁Vill	-5471
▁kaap	-5472
gemeen	-5473
weging	-5474
▁Regul	-5475
▁erfen	-5476
ermanus	-5477
evallei	-5478
ydering	-5479
▁Adjunk	-5480
▁Branch	-5481
▁attend	-5482
▁interp	-5483
▁langer	-5484
▁princip	-5485
▁December	-5486
▁househol	-5487
▁nywerheid	-5488
estremdhede	-5489
raaifontein	-5490
▁agreements	-5491
▁supporting	-5492
▁Educational	-5493
▁gepubliseer	-5494
▁sertifikaat	-5495
-8	-5496
BS	-5497
UD	-5498
ots	-5499
▁AR	-5500
▁AS	-5501
enue	-5502
laan	-5503
sebl	-5504
sorg	-5505
▁BRE	-5506
▁GES	-5507
▁IDP	-5508
▁KAN	-5509
▁Law	-5510
▁Occ	-5511
▁cal	-5512
elaat	-5513
posal	-5514
produ	-5515
rovir	-5516
▁Mark	-5517
▁deem	-5518
▁outs	-5519
▁reël	-5520
▁sing	-5521
▁bekom	-5522
▁noods	-5523
▁toets	-5524
▁trust	-5525
eniging	-5526
seblief	-5527
uisings	-5528
▁geskik	-5529
▁return	-5530
▁arbeids	-5531
▁confirm	-5532
▁permits	-5533
▁sectors	-5534
▁DISTRIKS	-5535
▁Particip	-5536
▁assigned	-5537
▁consider	-5538
▁geregtig	-5539
▁meetings	-5540
▁verskaff	-5541
▁verwyder	-5542
▁Registrar	-5543
▁Tygerberg	-5544
▁asseblief	-5545
▁verwysing	-5546
▁PUBLIKASIES	-5547
▁Wetsontwerp	-5548
▁citizenship	-5549
▁consumption	-5550
▁meerderheid	-5551
▁elektrisiteit	-5552
▁privaatliggaam	-5553
AAR	-5554
hab	-5555
ony	-5556
opp	-5557
vat	-5558
▁ED	-5559
▁HE	-5560
▁ii	-5561
hoek	-5562
hosa	-5563
ivil	-5564
uils	-5565
▁Cap	-5566
based	-5567
▁Elke	-5568
▁Geen	-5569
▁Veil	-5570
▁mach	-5571
▁sure	-5572
▁vacc	-5573
▁CENTR	-5574
▁confl	-5575
▁raads	-5576
▁times	-5577
bertson	-5578
holders	-5579
▁Ladism	-5580
▁Travel	-5581
▁budget	-5582
▁fondse	-5583
▁natuur	-5584
▁others	-5585
ifikasie	-5586
ological	-5587
▁Oktober	-5588
▁freedom	-5589
▁herstel	-5590
agentskap	-5591
rywighede	-5592
stellings	-5593
▁increase	-5594
▁knowledge	-5595
▁plaasvind	-5596
▁Finansiële	-5597
▁oortreding	-5598
▁personeell	-5599
▁geleenthede	-5600
▁rehabilitation	-5601
LS	-5602
ols	-5603
▁AL	-5604
BERG	-5605
cent	-5606
saam	-5607
unde	-5608
▁Art	-5609
▁Bra	-5610
▁Ret	-5611
▁WIT	-5612
▁WOR	-5613
▁don	-5614
▁ide	-5615
oming	-5616
▁clos	-5617
▁glob	-5618
ension	-5619
erende	-5620
iening	-5621
nesses	-5622
▁entit	-5623
▁sites	-5624
▁speak	-5625
asiteit	-5626
▁aandag	-5627
▁gebeur	-5628
▁voorlê	-5629
▁Kabinet	-5630
▁arrange	-5631
▁citizen	-5632
▁sommige	-5633
▁bibliote	-5634
▁identify	-5635
▁kaapstad	-5636
▁obtained	-5637
▁ouderdom	-5638
▁bykomende	-5639
▁enquiries	-5640
▁assessment	-5641
▁werknemers	-5642
▁opportunity	-5643
▁verbetering	-5644
▁ENVIRONMENTAL	-5645
▁Administration	-5646
9,	-5647
OG	-5648
hu	-5649
yne	-5650
▁95	-5651
▁Se	-5652
rien	-5653
rove	-5654
tand	-5655
uise	-5656
▁Cit	-5657
▁lei	-5658
▁sel	-5659
chlor	-5660
ested	-5661
risis	-5662
uiste	-5663
▁SETA	-5664
▁coop	-5665
▁hoër	-5666
▁just	-5667
▁lank	-5668
▁sess	-5669
atiese	-5670
ffende	-5671
ktiewe	-5672
▁Delft	-5673
▁diagn	-5674
▁groep	-5675
▁names	-5676
▁oorsp	-5677
▁pregn	-5678
▁press	-5679
▁selfs	-5680
areness	-5681
ondslag	-5682
▁Durban	-5683
▁copies	-5684
▁konsep	-5685
▁verwag	-5686
capetown	-5687
lewering	-5688
▁aanmeld	-5689
▁defined	-5690
▁gelewer	-5691
▁removal	-5692
▁serious	-5693
▁verwerk	-5694
▁Mitchell	-5695
▁Schedule	-5696
▁proposed	-5697
▁toegeken	-5698
▁Elsenburg	-5699
▁Hospitals	-5700
▁jaarlikse	-5701
▁potential	-5702
▁Guidelines	-5703
▁Ministerie	-5704
▁categories	-5705
▁betreffende	-5706
▁participate	-5707
▁PUBLICATIONS	-5708
▁entrepreneurs	-5709
▁establishment	-5710
33	-5711
AU	-5712
rh	-5713
KOD	-5714
ema	-5715
ina	-5716
ips	-5717
old	-5718
▁09	-5719
▁EC	-5720
▁po	-5721
ager	-5722
cept	-5723
dens	-5724
erpe	-5725
vaar	-5726
▁BES	-5727
▁Sim	-5728
▁Som	-5729
▁TES	-5730
▁Tre	-5731
▁lur	-5732
▁ris	-5733
▁tit	-5734
icial	-5735
oring	-5736
uture	-5737
▁SAID	-5738
▁SAPS	-5739
▁aard	-5740
▁comb	-5741
▁dest	-5742
▁once	-5743
▁safe	-5744
▁soon	-5745
ERBERG	-5746
ONOMIC	-5747
sektor	-5748
twerpe	-5749
▁enter	-5750
▁micro	-5751
▁regsp	-5752
▁remun	-5753
▁separ	-5754
▁weier	-5755
ctional	-5756
rukture	-5757
▁Access	-5758
▁Boland	-5759
▁altern	-5760
▁compos	-5761
▁create	-5762
▁daarna	-5763
▁klagte	-5764
▁refuse	-5765
▁rocket	-5766
ektering	-5767
ulturele	-5768
▁General	-5769
▁granted	-5770
Metropool	-5771
▁Atlantis	-5772
▁ECONOMIC	-5773
▁lisensie	-5774
afhanklike	-5775
▁Ladismith	-5776
▁Republiek	-5777
▁statement	-5778
▁burgerskap	-5779
organisasies	-5780
▁Chairperson	-5781
▁Voortrekker	-5782
▁verandering	-5783
▁departemente	-5784
▁identiteitsd	-5785
▁ondersteuning	-5786
▁administrative	-5787
2)	-5788
IF	-5789
.00	-5790
TAD	-5791
aes	-5792
elo	-5793
nov	-5794
ryd	-5795
▁VE	-5796
LAND	-5797
orum	-5798
▁Are	-5799
▁Ele	-5800
▁aut	-5801
▁lic	-5802
▁opd	-5803
elope	-5804
oefen	-5805
rimin	-5806
▁(200	-5807
▁1994	-5808
▁drug	-5809
▁tans	-5810
▁unit	-5811
ekteer	-5812
telike	-5813
▁World	-5814
▁focus	-5815
▁stake	-5816
▁circum	-5817
▁longer	-5818
▁uitges	-5819
▁aanneem	-5820
▁adopted	-5821
▁poverty	-5822
▁vryheid	-5823
▁PROJECTS	-5824
▁ernstige	-5825
▁manufact	-5826
▁probleme	-5827
▁Robertson	-5828
▁directors	-5829
▁questions	-5830
▁technical	-5831
▁verstande	-5832
geleenthede	-5833
▁belangrike	-5834
▁challenges	-5835
▁independent	-5836
▁commissioner	-5837
gro	-5838
lys	-5839
ody	-5840
ske	-5841
thl	-5842
crip	-5843
liks	-5844
uter	-5845
▁LUR	-5846
▁loc	-5847
ektor	-5848
grond	-5849
place	-5850
trent	-5851
▁Jaar	-5852
▁Moor	-5853
▁TOER	-5854
▁arch	-5855
▁bron	-5856
▁duid	-5857
▁exem	-5858
▁rede	-5859
oekies	-5860
▁1999,	-5861
▁Floor	-5862
▁Piket	-5863
▁drink	-5864
▁restr	-5865
▁soort	-5866
esourie	-5867
staande	-5868
▁Assist	-5869
▁Commun	-5870
▁Family	-5871
▁Tribun	-5872
▁advice	-5873
▁geweld	-5874
▁higher	-5875
▁Moorrees	-5876
▁internal	-5877
▁onmiddel	-5878
▁regional	-5879
▁Piketberg	-5880
▁Presiding	-5881
▁behoeftes	-5882
▁character	-5883
▁languages	-5884
ingskantore	-5885
▁Breedevallei	-5886
slisensietoets	-5887
▁participation	-5888
93	-5889
ams	-5890
reh	-5891
uut	-5892
vry	-5893
▁mm	-5894
▁ol	-5895
loos	-5896
▁Cnr	-5897
▁Pen	-5898
▁inj	-5899
▁uur	-5900
kaart	-5901
▁Reis	-5902
▁SARS	-5903
▁WKOD	-5904
▁misd	-5905
▁whom	-5906
insula	-5907
zikama	-5908
▁Regte	-5909
▁Vroue	-5910
▁black	-5911
▁phase	-5912
▁serve	-5913
▁teach	-5914
beskerm	-5915
roniese	-5916
▁search	-5917
▁single	-5918
▁teleph	-5919
▁unders	-5920
bestuurs	-5921
ructions	-5922
▁clinics	-5923
▁verhuur	-5924
▁verskyn	-5925
▁verslae	-5926
▁Complete	-5927
▁Hermanus	-5928
▁benadeel	-5929
▁contains	-5930
▁declared	-5931
▁entitled	-5932
▁sections	-5933
▁supplied	-5934
▁vakature	-5935
ertifikate	-5936
▁Matzikama	-5937
▁portfolio	-5938
▁therefore	-5939
▁wetenskap	-5940
▁Befondsing	-5941
▁commercial	-5942
▁individual	-5943
departemente	-5944
▁declaration	-5945
▁Kraaifontein	-5946
▁Constitutional	-5947
▁administratiewe	-5948
har	-5949
ney	-5950
uma	-5951
yke	-5952
asse	-5953
assy	-5954
bouw	-5955
ites	-5956
ydra	-5957
▁CAN	-5958
▁MET	-5959
▁Ste	-5960
▁now	-5961
▁afge	-5962
▁fair	-5963
▁happ	-5964
▁Langu	-5965
▁deurs	-5966
▁draft	-5967
▁great	-5968
▁types	-5969
gebruik	-5970
stances	-5971
▁cancer	-5972
▁candid	-5973
▁doctor	-5974
▁kandid	-5975
▁kinder	-5976
▁nature	-5977
▁regver	-5978
▁termyn	-5979
▁totale	-5980
okumente	-5981
ologiese	-5982
▁outside	-5983
▁verkoop	-5984
angerskap	-5985
including	-5986
▁Verkeers	-5987
▁paspoort	-5988
▁personal	-5989
▁sittings	-5990
▁Vredendal	-5991
▁prestasie	-5992
▁temporary	-5993
▁toegelaat	-5994
▁uitdagings	-5995
▁Certificate	-5996
▁aktiwiteite	-5997
▁Occupational	-5998
▁gesamentlike	-5999
infrastruktuur	-6000
RY	-6001
Gen	-6002
aas	-6003
lam	-6004
pyl	-6005
▁MY	-6006
▁mr	-6007
hout	-6008
iêre	-6009
oets	-6010
ouer	-6011
raak	-6012
▁467	-6013
▁712	-6014
▁MAN	-6015
▁Ont	-6016
▁bus	-6017
▁fix	-6018
▁las	-6019
▁tox	-6020
ached	-6021
bevel	-6022
brief	-6023
gebou	-6024
gereg	-6025
ograf	-6026
stead	-6027
▁KAAP	-6028
▁Safe	-6029
▁Stud	-6030
▁bepl	-6031
▁prec	-6032
▁took	-6033
betaal	-6034
selves	-6035
▁2004,	-6036
▁Diens	-6037
▁Paper	-6038
▁clean	-6039
▁steps	-6040
gebiede	-6041
rdineer	-6042
▁Estate	-6043
▁acting	-6044
▁buiten	-6045
▁detail	-6046
▁future	-6047
▁tender	-6048
▁waarna	-6049
projekte	-6050
shoekies	-6051
▁cabinet	-6052
▁constit	-6053
▁handels	-6054
▁vacancy	-6055
asiliteit	-6056
▁PROJEKTE	-6057
▁landlord	-6058
▁learning	-6059
▁verbruik	-6060
▁delegates	-6061
▁framework	-6062
▁wysigings	-6063
▁identified	-6064
▁recreation	-6065
▁structures	-6066
▁ONTWIKKELING	-6067
▁remuneration	-6068
▁International	-6069
99	-6070
GO	-6071
MO	-6072
PE	-6073
sm	-6074
esk	-6075
vol	-6076
yse	-6077
ISTE	-6078
SION	-6079
enig	-6080
keid	-6081
load	-6082
osie	-6083
ruit	-6084
work	-6085
▁Bar	-6086
▁Sex	-6087
▁key	-6088
asons	-6089
estry	-6090
geval	-6091
oefte	-6092
ratic	-6093
▁Athl	-6094
▁Just	-6095
▁Unit	-6096
▁diss	-6097
▁onts	-6098
▁vrou	-6099
aaklik	-6100
ikwels	-6101
▁Black	-6102
▁Kuils	-6103
▁Parow	-6104
▁email	-6105
▁impak	-6106
▁spher	-6107
▁takes	-6108
▁vroeë	-6109
aseerde	-6110
entions	-6111
▁across	-6112
▁extent	-6113
▁getree	-6114
▁sektor	-6115
▁street	-6116
▁tariff	-6117
oefening	-6118
▁Grabouw	-6119
▁correct	-6120
▁involve	-6121
▁veilige	-6122
▁werkers	-6123
struction	-6124
▁consists	-6125
▁resource	-6126
▁strategy	-6127
▁telefoon	-6128
▁developing	-6129
▁disclosure	-6130
▁facilitate	-6131
▁Moorreesburg	-6132
▁Participation	-6133
▁circumstances	-6134
▁afgevaardigdes	-6135
▁recommendations	-6136
62	-6137
74	-6138
ART	-6139
ELE	-6140
elk	-6141
eta	-6142
ett	-6143
ius	-6144
okk	-6145
▁32	-6146
▁AU	-6147
▁Ev	-6148
SING	-6149
anga	-6150
roud	-6151
uted	-6152
▁12.	-6153
▁873	-6154
▁Emp	-6155
▁adj	-6156
▁eer	-6157
iture	-6158
▁Doen	-6159
▁HEAL	-6160
▁geag	-6161
▁pipe	-6162
hospit	-6163
ondêre	-6164
urance	-6165
▁enact	-6166
▁gebou	-6167
▁gelyk	-6168
▁group	-6169
▁redes	-6170
▁accept	-6171
▁begins	-6172
▁exceed	-6173
▁remove	-6174
breiding	-6175
fficient	-6176
orporate	-6177
▁Erfenis	-6178
▁direkte	-6179
▁gestuur	-6180
▁however	-6181
▁ingevul	-6182
▁liggame	-6183
▁mention	-6184
▁adoption	-6185
▁conflict	-6186
▁practice	-6187
▁rekening	-6188
▁tertiary	-6189
▁voorheen	-6190
▁Resources	-6191
▁nominated	-6192
▁onderneem	-6193
▁monitoring	-6194
▁Departments	-6195
5.	-6196
ka	-6197
ox	-6198
EDE	-6199
ERM	-6200
alf	-6201
▁5.	-6202
▁Ab	-6203
▁sm	-6204
bank	-6205
eler	-6206
otte	-6207
owwe	-6208
wese	-6209
▁212	-6210
▁Beg	-6211
▁Bev	-6212
▁Mus	-6213
▁SAF	-6214
▁enk	-6215
▁kos	-6216
▁mix	-6217
▁pop	-6218
▁som	-6219
kende	-6220
regul	-6221
▁1973	-6222
▁Arch	-6223
▁Post	-6224
▁card	-6225
▁mech	-6226
▁prof	-6227
▁sien	-6228
▁summ	-6229
asdorp	-6230
enings	-6231
▁boete	-6232
▁civil	-6233
▁offer	-6234
▁weers	-6235
▁Onders	-6236
▁genoeg	-6237
▁samele	-6238
maatskap	-6239
▁Beskerm	-6240
▁daartoe	-6241
▁diegene	-6242
▁geestes	-6243
▁numbers	-6244
▁ontwerp	-6245
▁results	-6246
▁treated	-6247
▁variety	-6248
rehensive	-6249
▁Language	-6250
▁OMGEWING	-6251
▁Permitte	-6252
▁afgelope	-6253
▁eienaars	-6254
▁funksion	-6255
▁infected	-6256
▁informed	-6257
▁partners	-6258
▁standard	-6259
▁Peninsula	-6260
▁belegging	-6261
▁Bredasdorp	-6262
▁principles	-6263
▁sekuriteit	-6264
▁vergaderings	-6265
UUR	-6266
alt	-6267
bil	-6268
cal	-6269
dro	-6270
owe	-6271
gets	-6272
luor	-6273
mond	-6274
onst	-6275
ugul	-6276
vloe	-6277
▁500	-6278
▁Ash	-6279
▁Nat	-6280
▁Sel	-6281
▁Teg	-6282
▁arg	-6283
▁erv	-6284
▁few	-6285
eperk	-6286
ially	-6287
reine	-6288
tereg	-6289
ulate	-6290
voors	-6291
▁6620	-6292
▁expl	-6293
▁food	-6294
▁mish	-6295
▁moed	-6296
▁Legal	-6297
▁parts	-6298
▁rural	-6299
▁skoon	-6300
▁wysig	-6301
teuning	-6302
▁demand	-6303
▁events	-6304
▁instel	-6305
▁please	-6306
▁produk	-6307
▁Revenue	-6308
▁Science	-6309
▁culture	-6310
▁offices	-6311
▁omtrent	-6312
▁pogings	-6313
▁propell	-6314
lisensies	-6315
▁affected	-6316
▁algemeen	-6317
▁approach	-6318
▁behoefte	-6319
▁evidence	-6320
▁officers	-6321
▁produkte	-6322
▁regarded	-6323
oekennings	-6324
▁Onderhoud	-6325
▁companies	-6326
installasie	-6327
▁begrotings	-6328
▁compliance	-6329
▁experience	-6330
▁prosedures	-6331
▁samelewing	-6332
▁DISTRIKSMUN	-6333
▁teenwoordig	-6334
▁aanbevelings	-6335
▁professionele	-6336
RIV	-6337
STI	-6338
bos	-6339
▁47	-6340
▁Ob	-6341
ATER	-6342
ened	-6343
iger	-6344
itou	-6345
loss	-6346
orce	-6347
ronk	-6348
text	-6349
waar	-6350
▁300	-6351
▁Add	-6352
▁OFF	-6353
▁afs	-6354
▁enh	-6355
groep	-6356
iteur	-6357
regte	-6358
riese	-6359
river	-6360
▁Each	-6361
▁Hoog	-6362
▁anal	-6363
▁howe	-6364
▁midd	-6365
▁opin	-6366
▁vern	-6367
advant	-6368
holder	-6369
lagtes	-6370
tenare	-6371
ystems	-6372
▁Bitou	-6373
▁Brand	-6374
▁Bylae	-6375
▁Ident	-6376
▁MINIS	-6377
▁MOTOR	-6378
▁Stand	-6379
▁agent	-6380
▁intro	-6381
▁sleut	-6382
▁votes	-6383
▁Consum	-6384
▁nation	-6385
▁tweede	-6386
cription	-6387
▁Athlone	-6388
▁Verkies	-6389
▁becomes	-6390
▁context	-6391
▁interne	-6392
▁reasons	-6393
▁registr	-6394
▁campaign	-6395
▁duidelik	-6396
▁menslike	-6397
▁gewoonlik	-6398
▁operation	-6399
▁concerning	-6400
▁OMGEWINGSAKE	-6401
▁Opvoedkundig	-6402
▁openbaarmaking	-6403
6.	-6404
88	-6405
pa	-6406
▁=	-6407
OOF	-6408
ben	-6409
hop	-6410
ici	-6411
rup	-6412
▁AN	-6413
▁Ac	-6414
▁CM	-6415
▁Ke	-6416
▁SM	-6417
▁hi	-6418
▁ri	-6419
Suid	-6420
bied	-6421
come	-6422
lang	-6423
oeke	-6424
ones	-6425
stof	-6426
teer	-6427
▁272	-6428
▁Can	-6429
▁Int	-6430
▁Rel	-6431
▁far	-6432
/2008	-6433
Karoo	-6434
anker	-6435
leins	-6436
niese	-6437
▁8001	-6438
▁data	-6439
▁fall	-6440
▁slag	-6441
▁toil	-6442
▁unem	-6443
▁voed	-6444
iendom	-6445
tuiste	-6446
▁Guide	-6447
▁gemik	-6448
▁insol	-6449
▁joint	-6450
tigheid	-6451
▁Advice	-6452
▁HEALTH	-6453
▁geslag	-6454
▁manage	-6455
▁moeder	-6456
▁mother	-6457
▁optree	-6458
▁versam	-6459
baarheid	-6460
▁Tourist	-6461
▁kontrak	-6462
▁someone	-6463
▁subitem	-6464
▁Disabled	-6465
▁Justisie	-6466
▁domestic	-6467
▁kwessies	-6468
▁quantity	-6469
▁restrict	-6470
▁Langebaan	-6471
▁democracy	-6472
▁kategorie	-6473
▁staatsorg	-6474
▁testament	-6475
organisasie	-6476
▁Vredenburg	-6477
▁besigheids	-6478
▁onderskeie	-6479
▁Empowerment	-6480
▁individuals	-6481
▁persoonlike	-6482
▁tersaaklike	-6483
▁Ondernemings	-6484
▁Voorsittende	-6485
gesondheidsorg	-6486
7)	-6487
78	-6488
EF	-6489
HO	-6490
Die	-6491
ENC	-6492
GRA	-6493
apa	-6494
irk	-6495
pon	-6496
▁py	-6497
oper	-6498
sych	-6499
▁448	-6500
▁482	-6501
▁Car	-6502
▁Mil	-6503
▁Ple	-6504
▁Wel	-6505
▁sav	-6506
annes	-6507
mente	-6508
onour	-6509
▁AIDS	-6510
▁Mbek	-6511
▁liqu	-6512
▁tale	-6513
▁weap	-6514
addens	-6515
▁Drank	-6516
▁Media	-6517
▁early	-6518
▁peace	-6519
▁table	-6520
▁teken	-6521
▁whose	-6522
middels	-6523
orsings	-6524
ruption	-6525
▁Kinder	-6526
▁expand	-6527
▁gedrag	-6528
▁plekke	-6529
▁prosec	-6530
▁vlakke	-6531
▁Improve	-6532
▁limited	-6533
▁maximum	-6534
▁offered	-6535
▁speaker	-6536
▁Aansoeke	-6537
▁Deelname	-6538
▁Treasury	-6539
▁owerheid	-6540
▁positive	-6541
gebaseerde	-6542
ommersiële	-6543
▁Wetenskap	-6544
▁chemicals	-6545
▁disadvant	-6546
▁elections	-6547
▁onderwerp	-6548
▁telephone	-6549
▁amendments	-6550
▁Gesondheids	-6551
▁association	-6552
▁verbruikers	-6553
▁verwydering	-6554
▁agricultural	-6555
▁Organisations	-6556
▁consideration	-6557
-3	-6558
kus	-6559
ott	-6560
ude	-6561
vey	-6562
▁4,	-6563
▁Of	-6564
SITE	-6565
ikal	-6566
uwel	-6567
ways	-6568
▁11.	-6569
▁683	-6570
▁Div	-6571
▁Imm	-6572
▁Nie	-6573
▁Tyd	-6574
▁akk	-6575
▁bur	-6576
▁obs	-6577
aksie	-6578
cohol	-6579
▁1993	-6580
▁CULT	-6581
▁gest	-6582
▁jeug	-6583
▁link	-6584
iëring	-6585
retary	-6586
ulated	-6587
▁Corre	-6588
▁Plant	-6589
▁Polis	-6590
▁bevol	-6591
▁envis	-6592
▁geleë	-6593
▁paper	-6594
▁vorms	-6595
ingskap	-6596
▁Ashton	-6597
▁Elsies	-6598
▁Schuur	-6599
▁Skakel	-6600
▁aanges	-6601
▁afford	-6602
▁agreed	-6603
▁geniet	-6604
▁handha	-6605
▁jurisd	-6606
▁postal	-6607
▁volunt	-6608
ientific	-6609
▁CENTRES	-6610
▁armoede	-6611
▁removed	-6612
▁vanjaar	-6613
▁beheerde	-6614
▁deelname	-6615
▁diseases	-6616
▁voorstel	-6617
▁2007/2008	-6618
▁Direkteur	-6619
▁aangaande	-6620
▁buiteland	-6621
▁developed	-6622
▁oorweging	-6623
▁situation	-6624
▁investigate	-6625
▁onmiddellik	-6626
▁represented	-6627
▁stakeholders	-6628
AD	-6629
UND	-6630
bin	-6631
ese	-6632
fic	-6633
▁CH	-6634
▁MM	-6635
URAL	-6636
ewys	-6637
inge	-6638
inia	-6639
kaap	-6640
leur	-6641
omin	-6642
only	-6643
qual	-6644
reef	-6645
seer	-6646
skep	-6647
vale	-6648
vert	-6649
▁20.	-6650
▁Bro	-6651
▁Det	-6652
▁HOW	-6653
▁KUL	-6654
▁Kan	-6655
▁Out	-6656
▁Teh	-6657
▁Vis	-6658
▁mut	-6659
▁sym	-6660
acing	-6661
werpe	-6662
▁Camp	-6663
▁Fish	-6664
▁Once	-6665
▁Prom	-6666
▁SAPD	-6667
▁Vict	-6668
▁dood	-6669
▁hoef	-6670
▁hope	-6671
▁move	-6672
▁reis	-6673
ansies	-6674
pesial	-6675
▁Energ	-6676
▁Green	-6677
▁agter	-6678
▁disch	-6679
▁gevra	-6680
▁inwon	-6681
▁makes	-6682
▁negot	-6683
duction	-6684
▁Arbeid	-6685
▁grants	-6686
▁opstel	-6687
▁planne	-6688
▁receip	-6689
▁target	-6690
▁vandag	-6691
atellite	-6692
igration	-6693
leinsake	-6694
raamwerk	-6695
▁KULTUUR	-6696
▁WEBSITE	-6697
▁allowed	-6698
▁minutes	-6699
▁objects	-6700
▁possess	-6701
▁redelik	-6702
▁sektore	-6703
embaddens	-6704
▁Goodwood	-6705
▁artikels	-6706
▁intellig	-6707
▁toegewys	-6708
▁Financial	-6709
▁currently	-6710
▁insolvent	-6711
▁disability	-6712
▁uitvoering	-6713
▁volhoubare	-6714
▁aanspreeklik	-6715
▁identifiseer	-6716
KS	-6717
UC	-6718
ela	-6719
lee	-6720
utr	-6721
▁64	-6722
ades	-6723
ipes	-6724
kspe	-6725
norm	-6726
unch	-6727
▁082	-6728
▁15.	-6729
▁312	-6730
▁HOE	-6731
▁Wit	-6732
▁agt	-6733
▁boo	-6734
▁bro	-6735
▁too	-6736
elyke	-6737
eters	-6738
rakte	-6739
sterm	-6740
▁Hill	-6741
▁gard	-6742
▁gewe	-6743
▁poor	-6744
▁prob	-6745
▁stig	-6746
▁stor	-6747
▁tuis	-6748
TUISTE	-6749
▁Frans	-6750
▁Pools	-6751
▁Stads	-6752
▁bevel	-6753
▁carry	-6754
▁lodge	-6755
▁sterk	-6756
▁whole	-6757
▁young	-6758
iatives	-6759
itzdorp	-6760
junkspe	-6761
verslae	-6762
▁Clause	-6763
▁kursus	-6764
▁placed	-6765
▁places	-6766
▁stemme	-6767
▁strong	-6768
▁affairs	-6769
▁automat	-6770
▁eenheid	-6771
▁gazette	-6772
▁married	-6773
▁optrede	-6774
▁vervolg	-6775
diensheff	-6776
▁Accident	-6777
▁Somerset	-6778
▁Tesourie	-6779
▁bepaalde	-6780
▁employee	-6781
▁therefor	-6782
▁WEBTUISTE	-6783
▁aangegaan	-6784
▁hospitals	-6785
▁ministers	-6786
▁oorspronk	-6787
▁processes	-6788
▁successful	-6789
▁Swembaddens	-6790
▁Correctional	-6791
▁grondwetlike	-6792
▁Streekdiensheff	-6793
67	-6794
69	-6795
AGE	-6796
ALS	-6797
Act	-6798
BES	-6799
OTE	-6800
agu	-6801
eck	-6802
oph	-6803
tha	-6804
▁CO	-6805
▁Gl	-6806
▁NA	-6807
▁Ol	-6808
GRAM	-6809
enda	-6810
iene	-6811
lose	-6812
mweb	-6813
osis	-6814
time	-6815
▁Bet	-6816
▁Chr	-6817
▁MDR	-6818
▁Riv	-6819
▁gou	-6820
order	-6821
▁Mens	-6822
▁hard	-6823
▁pain	-6824
▁plus	-6825
▁rent	-6826
▁ther	-6827
▁vrae	-6828
elinge	-6829
iglyne	-6830
▁Almal	-6831
▁Assoc	-6832
▁Fonds	-6833
▁Union	-6834
▁Where	-6835
▁debat	-6836
▁ingry	-6837
▁kapit	-6838
▁known	-6839
▁point	-6840
▁seksu	-6841
erville	-6842
ibility	-6843
iteerde	-6844
▁Export	-6845
▁anyone	-6846
▁liquid	-6847
▁motion	-6848
▁toesig	-6849
ateriaal	-6850
enditure	-6851
spanning	-6852
▁Profess	-6853
▁efforts	-6854
▁funksie	-6855
▁issuing	-6856
▁voorleg	-6857
▁waaraan	-6858
▁withdra	-6859
opleiding	-6860
▁Klousule	-6861
▁ensuring	-6862
▁beginsels	-6863
▁begroting	-6864
▁grondslag	-6865
▁fasiliteit	-6866
▁leadership	-6867
▁prevention	-6868
▁verhuurder	-6869
▁authorities	-6870
▁traditional	-6871
▁Registrateur	-6872
▁demokratiese	-6873
▁implementing	-6874
▁interventions	-6875
▁Rehabilitation	-6876
bi	-6877
/10	-6878
ION	-6879
hef	-6880
▁II	-6881
▁id	-6882
Aids	-6883
enie	-6884
epas	-6885
ists	-6886
onte	-6887
punt	-6888
rete	-6889
udie	-6890
▁461	-6891
▁MMW	-6892
▁Mer	-6893
▁elk	-6894
▁gra	-6895
▁ken	-6896
▁top	-6897
HEIDS	-6898
shulp	-6899
▁6530	-6900
▁View	-6901
▁With	-6902
▁dwel	-6903
▁mean	-6904
▁tien	-6905
▁view	-6906
doende	-6907
ishulp	-6908
merkte	-6909
▁Cross	-6910
▁april	-6911
▁defin	-6912
▁febru	-6913
▁gehad	-6914
▁liter	-6915
▁seats	-6916
▁today	-6917
bsidies	-6918
esenlik	-6919
mentaar	-6920
▁accoun	-6921
▁affirm	-6922
▁effekt	-6923
▁gewaar	-6924
▁offers	-6925
▁toeken	-6926
lingskap	-6927
standing	-6928
▁daaroor	-6929
▁naamlik	-6930
▁replace	-6931
▁toelaes	-6932
▁weapons	-6933
▁western	-6934
isiatiewe	-6935
▁Consumer	-6936
▁PLANNING	-6937
▁accommod	-6938
▁original	-6939
▁tersiêre	-6940
▁decisions	-6941
▁educators	-6942
▁administer	-6943
▁demokrasie	-6944
▁fasiliteer	-6945
▁regulation	-6946
▁understand	-6947
▁Verbruikers	-6948
▁initiatives	-6949
▁Gestremdhede	-6950
▁konstitusionele	-6951
AG	-6952
ta	-6953
12)	-6954
ICE	-6955
ayo	-6956
▁AT	-6957
▁Ou	-6958
▁ST	-6959
ILIG	-6960
elig	-6961
fere	-6962
jies	-6963
oose	-6964
tery	-6965
▁487	-6966
▁918	-6967
▁Nad	-6968
▁men	-6969
▁pet	-6970
eksie	-6971
elebr	-6972
force	-6973
unste	-6974
▁Cond	-6975
▁Veld	-6976
▁cham	-6977
▁dier	-6978
▁krit	-6979
▁mate	-6980
▁park	-6981
▁seek	-6982
▁spir	-6983
▁turn	-6984
arante	-6985
beheer	-6986
ensing	-6987
▁Drive	-6988
▁Email	-6989
▁Enter	-6990
▁Order	-6991
▁Rules	-6992
▁aimed	-6993
▁hetsy	-6994
▁minib	-6995
▁onwet	-6996
▁straf	-6997
annings	-6998
ibution	-6999
igheids	-7000
▁beslis	-7001
▁bevind	-7002
▁caused	-7003
▁debate	-7004
▁dokter	-7005
▁mening	-7006
PLANNING	-7007
antering	-7008
▁Montagu	-7009
▁express	-7010
▁geplaas	-7011
▁opinion	-7012
▁vooruit	-7013
annesburg	-7014
▁ontstaan	-7015
▁requires	-7016
Provincial	-7017
▁Institute	-7018
▁Navorsing	-7019
▁Portfolio	-7020
▁Secretary	-7021
▁envisaged	-7022
▁erkenning	-7023
▁finansies	-7024
▁Tegnologie	-7025
▁democratic	-7026
▁governance	-7027
▁enterprises	-7028
▁uitoefening	-7029
▁tradisionele	-7030
▁parlementswet	-7031
▁representatives	-7032
AF	-7033
iy	-7034
uy	-7035
BER	-7036
DER	-7037
ETY	-7038
TRE	-7039
now	-7040
ods	-7041
pie	-7042
▁CC	-7043
▁PG	-7044
Item	-7045
elys	-7046
hips	-7047
ruim	-7048
ston	-7049
▁637	-7050
▁Bed	-7051
▁Pat	-7052
▁RES	-7053
▁Ter	-7054
▁kil	-7055
▁nak	-7056
/10/0	-7057
ables	-7058
datum	-7059
digde	-7060
elled	-7061
oning	-7062
vaard	-7063
▁6970	-7064
▁Bonn	-7065
▁Eers	-7066
▁Fire	-7067
▁Some	-7068
▁dial	-7069
▁disk	-7070
▁hold	-7071
▁hoop	-7072
▁paar	-7073
▁stop	-7074
▁Immun	-7075
▁Inter	-7076
▁REGIS	-7077
▁bewus	-7078
▁direk	-7079
▁judge	-7080
▁large	-7081
▁lease	-7082
▁plast	-7083
▁simil	-7084
estande	-7085
oordele	-7086
rigting	-7087
▁Groote	-7088
▁bevoeg	-7089
▁damage	-7090
▁geldig	-7091
▁groter	-7092
▁potens	-7093
▁spirit	-7094
▁sports	-7095
▁unable	-7096
▁introdu	-7097
▁respond	-7098
▁revenue	-7099
▁toekoms	-7100
▁vertrou	-7101
▁Managing	-7102
▁activity	-7103
▁consumer	-7104
▁geboorte	-7105
▁verwante	-7106
▁Recycling	-7107
▁awareness	-7108
▁committed	-7109
▁increased	-7110
▁officials	-7111
▁practices	-7112
▁regstreek	-7113
junkspeaker	-7114
▁Protection	-7115
▁Voorsitter	-7116
▁Durbanville	-7117
▁composition	-7118
▁counselling	-7119
▁swangerskap	-7120
▁samestelling	-7121
▁disadvantaged	-7122
51	-7123
TES	-7124
mer	-7125
win	-7126
▁CK	-7127
▁Rd	-7128
▁SE	-7129
derd	-7130
druk	-7131
kure	-7132
reme	-7133
uest	-7134
verm	-7135
▁(3)	-7136
▁Aud	-7137
▁Che	-7138
▁WER	-7139
▁mov	-7140
▁tro	-7141
▁tye	-7142
ekaar	-7143
kadem	-7144
luite	-7145
posit	-7146
ptome	-7147
umayo	-7148
urric	-7149
▁Free	-7150
▁anti	-7151
▁fase	-7152
▁laws	-7153
▁mond	-7154
▁trav	-7155
ensies	-7156
geskik	-7157
geveer	-7158
useums	-7159
▁First	-7160
▁class	-7161
▁gelei	-7162
▁julle	-7163
▁nomin	-7164
▁omvat	-7165
▁uitga	-7166
/10/06)	-7167
abinets	-7168
general	-7169
▁Budget	-7170
▁SAFETY	-7171
▁Tuiste	-7172
▁behels	-7173
▁region	-7174
▁Website	-7175
▁daaraan	-7176
▁decided	-7177
▁dikwels	-7178
▁terrein	-7179
▁verdien	-7180
abilities	-7181
materiaal	-7182
urriculum	-7183
▁Landmark	-7184
▁bestuurs	-7185
▁chemikal	-7186
▁criteria	-7187
▁critical	-7188
▁lewering	-7189
▁patients	-7190
▁versterk	-7191
▁voertuie	-7192
▁Protector	-7193
▁kulturele	-7194
▁werknemer	-7195
▁Mosselbaai	-7196
▁nywerheids	-7197
▁permission	-7198
▁previously	-7199
▁standaarde	-7200
administrasie	-7201
▁bedrywighede	-7202
▁verspreiding	-7203
▁characteristics	-7204
48	-7205
TO	-7206
WN	-7207
Wet	-7208
eff	-7209
pyp	-7210
ref	-7211
ume	-7212
▁NY	-7213
▁Ny	-7214
isel	-7215
laat	-7216
odig	-7217
ogen	-7218
ourn	-7219
requ	-7220
rise	-7221
with	-7222
▁112	-7223
▁348	-7224
▁Bou	-7225
▁IND	-7226
▁Mas	-7227
▁Old	-7228
▁dig	-7229
▁gas	-7230
▁geë	-7231
▁via	-7232
▁why	-7233
eries	-7234
luded	-7235
ology	-7236
redie	-7237
wende	-7238
ydraz	-7239
▁Canc	-7240
▁Vorm	-7241
▁breë	-7242
▁ment	-7243
▁phot	-7244
▁sett	-7245
▁taxi	-7246
bedryf	-7247
elberg	-7248
habaai	-7249
heuwel	-7250
reking	-7251
▁TRANS	-7252
▁besig	-7253
▁ethyl	-7254
▁Employ	-7255
▁histor	-7256
▁minste	-7257
▁reduce	-7258
▁setels	-7259
ektorale	-7260
volgende	-7261
▁beroeps	-7262
▁geldige	-7263
▁gepaste	-7264
▁illness	-7265
▁measure	-7266
▁receipt	-7267
▁verkrag	-7268
rdinering	-7269
▁CULTURAL	-7270
▁Tribunal	-7271
▁beamptes	-7272
▁berading	-7273
▁bewaring	-7274
▁database	-7275
▁oogmerke	-7276
▁bemarking	-7277
▁inwerking	-7278
▁mechanism	-7279
▁Calitzdorp	-7280
▁befondsing	-7281
▁beleggings	-7282
▁evaluation	-7283
▁guidelines	-7284
▁subsystems	-7285
▁tegnologie	-7286
▁verhouding	-7287
▁Improvement	-7288
▁gewoontereg	-7289
pesialiseerde	-7290
▁Saldanhabaai	-7291
▁legislatures	-7292
▁verpligtinge	-7293
▁comprehensive	-7294
▁investigation	-7295
96	-7296
ELL	-7297
KAP	-7298
ORM	-7299
TEL	-7300
etu	-7301
ios	-7302
ken	-7303
ENCE	-7304
ched	-7305
epro	-7306
ford	-7307
ivic	-7308
orde	-7309
quis	-7310
sted	-7311
ture	-7312
▁LIC	-7313
▁Let	-7314
▁mnr	-7315
▁win	-7316
arily	-7317
iency	-7318
ierre	-7319
oekom	-7320
ostig	-7321
sters	-7322
▁Film	-7323
▁Inst	-7324
▁Nood	-7325
▁book	-7326
enting	-7327
ficult	-7328
malige	-7329
stasie	-7330
▁Colle	-7331
▁Reëls	-7332
▁Whole	-7333
▁altyd	-7334
▁doing	-7335
▁fully	-7336
▁gelde	-7337
▁genet	-7338
▁gives	-7339
▁lives	-7340
▁nasie	-7341
▁onbev	-7342
▁roads	-7343
▁white	-7344
General	-7345
casting	-7346
iations	-7347
strateg	-7348
▁Pierre	-7349
▁aangem	-7350
▁ambass	-7351
▁choose	-7352
▁deemed	-7353
▁enable	-7354
▁intens	-7355
▁plants	-7356
▁prohib	-7357
▁toilet	-7358
kkenheid	-7359
loosheid	-7360
minister	-7361
stelsels	-7362
▁Breeder	-7363
▁gebring	-7364
▁imposed	-7365
▁problem	-7366
▁produce	-7367
▁voorber	-7368
Sektorale	-7369
geregshof	-7370
▁beëindig	-7371
▁chemiese	-7372
▁commence	-7373
▁division	-7374
▁experien	-7375
▁guarante	-7376
▁Ministers	-7377
▁difficult	-7378
▁requested	-7379
▁toepaslik	-7380
▁transform	-7381
▁webtuiste	-7382
▁wetgewers	-7383
▁Porterville	-7384
▁implementeer	-7385
▁intervention	-7386
▁dienslewering	-7387
▁oorspronklike	-7388
▁ondersteunende	-7389
1-	-7390
Co	-7391
EG	-7392
NA	-7393
Sk	-7394
,00	-7395
.4.	-7396
:30	-7397
PRO	-7398
fit	-7399
que	-7400
▁(5	-7401
▁BR	-7402
▁OR	-7403
▁km	-7404
ares	-7405
bele	-7406
verv	-7407
▁17.	-7408
▁SCH	-7409
▁Sam	-7410
▁Who	-7411
▁Wie	-7412
▁deg	-7413
▁gef	-7414
▁urg	-7415
anced	-7416
cknow	-7417
ensit	-7418
right	-7419
▁(021	-7420
▁Burg	-7421
▁HAND	-7422
▁Prem	-7423
▁jare	-7424
▁meld	-7425
▁toen	-7426
▁trek	-7427
encies	-7428
entral	-7429
issing	-7430
▁Gugul	-7431
▁Steun	-7432
▁accur	-7433
▁alleg	-7434
▁bloot	-7435
▁drank	-7436
▁fokus	-7437
▁likel	-7438
▁satis	-7439
▁units	-7440
issions	-7441
nemings	-7442
rekings	-7443
respond	-7444
▁Medium	-7445
▁agents	-7446
▁liable	-7447
▁manual	-7448
▁opdrag	-7449
novation	-7450
▁Artikel	-7451
▁Uitvoer	-7452
▁billike	-7453
▁defence	-7454
▁omskryf	-7455
ografiese	-7456
▁Africans	-7457
▁Resource	-7458
▁Southern	-7459
▁bekostig	-7460
▁disposal	-7461
▁gemagtig	-7462
▁incident	-7463
▁substant	-7464
▁tegniese	-7465
▁verorden	-7466
doeleindes	-7467
▁Companies	-7468
▁behoorlik	-7469
▁belangheb	-7470
▁hospitale	-7471
▁strategic	-7472
▁afgehandel	-7473
▁containing	-7474
▁delegation	-7475
▁kommentaar	-7476
▁menseregte	-7477
▁opleidings	-7478
▁toegestaan	-7479
ooreenkomste	-7480
▁buitelandse	-7481
▁kommersiële	-7482
▁obligations	-7483
▁Breederivier	-7484
▁geregistreerde	-7485
.)	-7486
IM	-7487
YN	-7488
ba	-7489
yt	-7490
OOL	-7491
STR	-7492
ihl	-7493
sth	-7494
▁3,	-7495
▁71	-7496
▁81	-7497
▁IT	-7498
▁Kw	-7499
▁ep	-7500
IBRA	-7501
Kapa	-7502
TORE	-7503
adig	-7504
anks	-7505
arts	-7506
iele	-7507
ples	-7508
reël	-7509
roug	-7510
ysis	-7511
▁Ten	-7512
▁aer	-7513
▁mal	-7514
▁mik	-7515
epted	-7516
erwys	-7517
worpe	-7518
▁Hele	-7519
▁aank	-7520
▁code	-7521
▁dipl	-7522
▁herv	-7523
▁kans	-7524
▁kept	-7525
▁path	-7526
▁pleg	-7527
▁purs	-7528
▁send	-7529
▁soek	-7530
▁tipe	-7531
akkred	-7532
ducing	-7533
koming	-7534
laring	-7535
oortes	-7536
rusdal	-7537
udgets	-7538
▁Homes	-7539
▁LIBRA	-7540
▁audit	-7541
▁forum	-7542
▁phone	-7543
▁reach	-7544
ENTRUMS	-7545
ONDHEID	-7546
aansoek	-7547
geriewe	-7548
reening	-7549
retaris	-7550
uration	-7551
veldtog	-7552
▁BREEDE	-7553
▁Bonnie	-7554
▁System	-7555
▁Weskus	-7556
▁accomp	-7557
▁bedank	-7558
▁bydrae	-7559
▁extens	-7560
▁formal	-7561
▁geraak	-7562
▁global	-7563
▁opgele	-7564
▁phosph	-7565
▁source	-7566
▁things	-7567
▁waarsk	-7568
roughout	-7569
▁Beroeps	-7570
▁acceler	-7571
▁clients	-7572
▁enacted	-7573
▁payable	-7574
▁usually	-7575
▁Complain	-7576
▁Riebeeck	-7577
▁bespreek	-7578
▁employed	-7579
▁stemming	-7580
▁weerspie	-7581
▁workplace	-7582
▁Assistance	-7583
▁initiative	-7584
▁kapasiteit	-7585
▁navorsings	-7586
▁statements	-7587
▁sufficient	-7588
▁description	-7589
▁expenditure	-7590
▁strategiese	-7591
▁huishoudings	-7592
7.	-7593
CC	-7594
SEL	-7595
dae	-7596
heg	-7597
ika	-7598
oes	-7599
▁54	-7600
▁Mc	-7601
▁Ot	-7602
▁mg	-7603
ests	-7604
etse	-7605
iber	-7606
ieer	-7607
▁Per	-7608
TIONS	-7609
edert	-7610
gelyk	-7611
ility	-7612
pings	-7613
ptoms	-7614
ridge	-7615
▁Buit	-7616
▁Capt	-7617
▁Goed	-7618
▁Hart	-7619
▁Will	-7620
▁acts	-7621
▁mete	-7622
▁says	-7623
▁stof	-7624
▁util	-7625
BLIOTE	-7626
eksies	-7627
eninge	-7628
phosph	-7629
▁(021)	-7630
▁Bring	-7631
▁Claim	-7632
▁Every	-7633
▁Trust	-7634
▁Veter	-7635
▁dring	-7636
▁extra	-7637
▁hoofd	-7638
▁influ	-7639
▁often	-7640
▁vader	-7641
▁wette	-7642
igation	-7643
ization	-7644
kontrak	-7645
redited	-7646
sharing	-7647
▁Belhar	-7648
▁Events	-7649
▁aandui	-7650
▁enkele	-7651
▁groups	-7652
▁kanker	-7653
▁minute	-7654
▁risiko	-7655
▁waarom	-7656
ILIGHEID	-7657
utrition	-7658
▁challen	-7659
▁created	-7660
▁devices	-7661
▁distrik	-7662
▁library	-7663
▁opgedra	-7664
▁privile	-7665
▁sleutel	-7666
▁BIBLIOTE	-7667
▁Komitees	-7668
▁applying	-7669
BEPLANNING	-7670
keidenheid	-7671
▁Hospitale	-7672
▁employers	-7673
▁installed	-7674
▁opvoeders	-7675
▁produksie	-7676
▁vordering	-7677
▁Heidelberg	-7678
▁Programmes	-7679
▁authorised	-7680
▁collection	-7681
▁introduced	-7682
▁sanitation	-7683
▁operational	-7684
▁compensation	-7685
▁rehabilitasie	-7686
▁Internasionale	-7687
▁representative	-7688
OA	-7689
RC	-7690
111	-7691
IND	-7692
UIS	-7693
ege	-7694
oss	-7695
▁Es	-7696
▁sd	-7697
asic	-7698
borg	-7699
drif	-7700
usal	-7701
vere	-7702
verl	-7703
▁120	-7704
▁323	-7705
▁Bos	-7706
▁One	-7707
▁Our	-7708
▁enj	-7709
▁har	-7710
▁low	-7711
▁say	-7712
aseer	-7713
enses	-7714
ensus	-7715
erton	-7716
gebre	-7717
iplin	-7718
jaard	-7719
kohol	-7720
theid	-7721
▁Hout	-7722
▁LAND	-7723
▁Leer	-7724
▁Oost	-7725
▁Prop	-7726
▁Rust	-7727
▁dist	-7728
▁film	-7729
▁guil	-7730
▁inde	-7731
▁ward	-7732
aktore	-7733
nemers	-7734
rediet	-7735
▁(012)	-7736
▁2006,	-7737
▁Amend	-7738
▁Beleg	-7739
▁Noord	-7740
▁ONDER	-7741
▁hernu	-7742
▁since	-7743
▁skryf	-7744
▁words	-7745
ekering	-7746
terrein	-7747
▁Cancer	-7748
▁Region	-7749
▁aanget	-7750
▁beplan	-7751
▁breast	-7752
▁covers	-7753
▁likely	-7754
▁nommer	-7755
▁woorde	-7756
▁Control	-7757
▁Medical	-7758
▁Riebeek	-7759
▁Tehuise	-7760
▁absence	-7761
▁beleids	-7762
▁carried	-7763
▁geriewe	-7764
▁history	-7765
▁kabinet	-7766
▁kliënte	-7767
▁operate	-7768
▁rakende	-7769
▁salaris	-7770
▁spheres	-7771
▁tourist	-7772
▁Algemene	-7773
▁Klinieke	-7774
▁besonder	-7775
▁creation	-7776
▁improved	-7777
▁ongeveer	-7778
▁opgestel	-7779
▁plegtige	-7780
▁provider	-7781
▁repealed	-7782
▁simptome	-7783
▁suitable	-7784
▁uitgawes	-7785
▁werkplek	-7786
fasiliteit	-7787
▁Riversdal	-7788
▁TRANSPORT	-7789
▁databasis	-7790
▁equitable	-7791
▁improving	-7792
▁mentioned	-7793
▁rekreasie	-7794
▁vasgestel	-7795
▁voluntary	-7796
▁waaronder	-7797
▁betaalbaar	-7798
▁continuous	-7799
▁monitering	-7800
▁onderworpe	-7801
▁population	-7802
▁throughout	-7803
▁Voorskrifte	-7804
▁translation	-7805
▁verskaffing	-7806
▁Johannesburg	-7807
▁administreer	-7808
▁determination	-7809
▁Infrastruktuur	-7810
34	-7811
39	-7812
68	-7813
mo	-7814
KAN	-7815
ery	-7816
row	-7817
teg	-7818
uct	-7819
uel	-7820
uly	-7821
▁97	-7822
▁GR	-7823
▁SO	-7824
▁Up	-7825
FFIC	-7826
THOR	-7827
ault	-7828
dene	-7829
hoof	-7830
iter	-7831
loop	-7832
odes	-7833
park	-7834
play	-7835
ulke	-7836
vigs	-7837
woon	-7838
▁980	-7839
▁CON	-7840
▁Hug	-7841
▁Lam	-7842
▁Rem	-7843
▁ago	-7844
▁air	-7845
▁fif	-7846
▁fil	-7847
ishes	-7848
sthma	-7849
vrede	-7850
▁Dise	-7851
▁Head	-7852
▁Vigs	-7853
▁bors	-7854
▁diar	-7855
▁gees	-7856
▁heff	-7857
▁ontb	-7858
▁oral	-7859
▁vinn	-7860
andela	-7861
ernity	-7862
ersoon	-7863
iskale	-7864
nerton	-7865
▁Basic	-7866
▁Bonte	-7867
▁Grond	-7868
▁Langa	-7869
▁SWART	-7870
▁VERKE	-7871
▁adopt	-7872
▁aware	-7873
▁drive	-7874
▁eight	-7875
▁fixed	-7876
▁going	-7877
▁limit	-7878
▁paaie	-7879
▁signs	-7880
▁speel	-7881
koerant	-7882
liggame	-7883
redings	-7884
umstead	-7885
▁AUTHOR	-7886
▁Ottery	-7887
▁REGION	-7888
▁Wêreld	-7889
▁celebr	-7890
▁meteor	-7891
▁soorte	-7892
skeiding	-7893
voordele	-7894
▁Kantoor	-7895
▁TRAFFIC	-7896
▁daarmee	-7897
▁deliber	-7898
▁mission	-7899
▁outomat	-7900
▁versorg	-7901
ciliation	-7902
onourable	-7903
▁Division	-7904
▁ampsterm	-7905
▁deelneem	-7906
▁geakkred	-7907
▁judicial	-7908
▁onderrig	-7909
▁students	-7910
gemeenskap	-7911
verhouding	-7912
▁Bursaries	-7913
▁Marketing	-7914
▁afrikaans	-7915
▁	-7916
e	-7917
i	-7918
n	-7919
a	-7920
t	-7921
o	-7922
r	-7923
s	-7924
d	-7925
l	-7926
g	-7927
u	-7928
m	-7929
h	-7930
p	-7931
c	-7932
v	-7933
f	-7934
k	-7935
b	-7936
w	-7937
y	-7938
>	-7939
,	-7940
.	-7941
S	-7942
T	-7943
E	-7944
A	-7945
0	-7946
R	-7947
P	-7948
D	-7949
I	-7950
C	-7951
N	-7952
-	-7953
2	-7954
O	-7955
1	-7956
M	-7957
W	-7958
G	-7959
L	-7960
B	-7961
H	-7962
:	-7963
'	-7964
F	-7965
K	-7966
V	-7967
3	-7968
4	-7969
*	-7970
j	-7971
)	-7972
(	-7973
5	-7974
9	-7975
7	-7976
6	-7977
8	-7978
x	-7979
U	-7980
;	-7981
J	-7982
Y	-7983
z	-7984
=	-7985
q	-7986
/	-7987
&	-7988
ë	-7989
ê	-7990
?	-7991
@	-7992
’	-7993
―	-7994
"	-7995
Z	-7996
